{
  "version": "1.0",
  "truncation": null,
  "padding": null,
  "added_tokens": [
    {
      "id": 0,
      "content": "<PAD>",
      "single_word": false,
      "lstrip": false,
      "rstrip": false,
      "normalized": false,
      "special": true
    },
    {
      "id": 1,
      "content": "<BOS>",
      "single_word": false,
      "lstrip": false,
      "rstrip": false,
      "normalized": false,
      "special": true
    },
    {
      "id": 2,
      "content": "<EOS>",
      "single_word": false,
      "lstrip": false,
      "rstrip": false,
      "normalized": false,
      "special": true
    },
    {
      "id": 3,
      "content": "<UNK>",
      "single_word": false,
      "lstrip": false,
      "rstrip": false,
      "normalized": false,
      "special": true
    },
    {
      "id": 4,
      "content": "<USER>",
      "single_word": false,
      "lstrip": false,
      "rstrip": false,
      "normalized": false,
      "special": true
    },
    {
      "id": 5,
      "content": "<ASSISTANT>",
      "single_word": false,
      "lstrip": false,
      "rstrip": false,
      "normalized": false,
      "special": true
    },
    {
      "id": 6,
      "content": "<SYSTEM>",
      "single_word": false,
      "lstrip": false,
      "rstrip": false,
      "normalized": false,
      "special": true
    }
  ],
  "normalizer": null,
  "pre_tokenizer": {
    "type": "ByteLevel",
    "add_prefix_space": false,
    "trim_offsets": true,
    "use_regex": true
  },
  "post_processor": null,
  "decoder": {
    "type": "ByteLevel",
    "add_prefix_space": true,
    "trim_offsets": true,
    "use_regex": true
  },
  "model": {
    "type": "BPE",
    "dropout": null,
    "unk_token": "<UNK>",
    "continuing_subword_prefix": null,
    "end_of_word_suffix": null,
    "fuse_unk": false,
    "byte_fallback": false,
    "ignore_merges": false,
    "vocab": {
      "<PAD>": 0,
      "<BOS>": 1,
      "<EOS>": 2,
      "<UNK>": 3,
      "<USER>": 4,
      "<ASSISTANT>": 5,
      "<SYSTEM>": 6,
      "!": 7,
      "\"": 8,
      "#": 9,
      "$": 10,
      "%": 11,
      "&": 12,
      "'": 13,
      "(": 14,
      ")": 15,
      "*": 16,
      "+": 17,
      ",": 18,
      "-": 19,
      ".": 20,
      "/": 21,
      "0": 22,
      "1": 23,
      "2": 24,
      "3": 25,
      "4": 26,
      "5": 27,
      "6": 28,
      "7": 29,
      "8": 30,
      "9": 31,
      ":": 32,
      ";": 33,
      "<": 34,
      "=": 35,
      ">": 36,
      "?": 37,
      "@": 38,
      "A": 39,
      "B": 40,
      "C": 41,
      "D": 42,
      "E": 43,
      "F": 44,
      "G": 45,
      "H": 46,
      "I": 47,
      "J": 48,
      "K": 49,
      "L": 50,
      "M": 51,
      "N": 52,
      "O": 53,
      "P": 54,
      "Q": 55,
      "R": 56,
      "S": 57,
      "T": 58,
      "U": 59,
      "V": 60,
      "W": 61,
      "X": 62,
      "Y": 63,
      "Z": 64,
      "[": 65,
      "\\": 66,
      "]": 67,
      "^": 68,
      "_": 69,
      "`": 70,
      "a": 71,
      "b": 72,
      "c": 73,
      "d": 74,
      "e": 75,
      "f": 76,
      "g": 77,
      "h": 78,
      "i": 79,
      "j": 80,
      "k": 81,
      "l": 82,
      "m": 83,
      "n": 84,
      "o": 85,
      "p": 86,
      "q": 87,
      "r": 88,
      "s": 89,
      "t": 90,
      "u": 91,
      "v": 92,
      "w": 93,
      "x": 94,
      "y": 95,
      "z": 96,
      "{": 97,
      "|": 98,
      "}": 99,
      "~": 100,
      "¡": 101,
      "¢": 102,
      "£": 103,
      "¤": 104,
      "¥": 105,
      "¦": 106,
      "§": 107,
      "¨": 108,
      "©": 109,
      "ª": 110,
      "«": 111,
      "¬": 112,
      "®": 113,
      "¯": 114,
      "°": 115,
      "±": 116,
      "²": 117,
      "³": 118,
      "´": 119,
      "µ": 120,
      "¶": 121,
      "·": 122,
      "¸": 123,
      "¹": 124,
      "º": 125,
      "»": 126,
      "¼": 127,
      "½": 128,
      "¾": 129,
      "¿": 130,
      "À": 131,
      "Á": 132,
      "Â": 133,
      "Ã": 134,
      "Ä": 135,
      "Å": 136,
      "Æ": 137,
      "Ç": 138,
      "È": 139,
      "É": 140,
      "Ê": 141,
      "Ë": 142,
      "Ì": 143,
      "Í": 144,
      "Î": 145,
      "Ï": 146,
      "Ð": 147,
      "Ñ": 148,
      "Ò": 149,
      "Ó": 150,
      "Ô": 151,
      "Õ": 152,
      "Ö": 153,
      "×": 154,
      "Ø": 155,
      "Ù": 156,
      "Ú": 157,
      "Û": 158,
      "Ü": 159,
      "Ý": 160,
      "Þ": 161,
      "ß": 162,
      "à": 163,
      "á": 164,
      "â": 165,
      "ã": 166,
      "ä": 167,
      "å": 168,
      "æ": 169,
      "ç": 170,
      "è": 171,
      "é": 172,
      "ê": 173,
      "ë": 174,
      "ì": 175,
      "í": 176,
      "î": 177,
      "ï": 178,
      "ð": 179,
      "ñ": 180,
      "ò": 181,
      "ó": 182,
      "ô": 183,
      "õ": 184,
      "ö": 185,
      "÷": 186,
      "ø": 187,
      "ù": 188,
      "ú": 189,
      "û": 190,
      "ü": 191,
      "ý": 192,
      "þ": 193,
      "ÿ": 194,
      "Ā": 195,
      "ā": 196,
      "Ă": 197,
      "ă": 198,
      "Ą": 199,
      "ą": 200,
      "Ć": 201,
      "ć": 202,
      "Ĉ": 203,
      "ĉ": 204,
      "Ċ": 205,
      "ċ": 206,
      "Č": 207,
      "č": 208,
      "Ď": 209,
      "ď": 210,
      "Đ": 211,
      "đ": 212,
      "Ē": 213,
      "ē": 214,
      "Ĕ": 215,
      "ĕ": 216,
      "Ė": 217,
      "ė": 218,
      "Ę": 219,
      "ę": 220,
      "Ě": 221,
      "ě": 222,
      "Ĝ": 223,
      "ĝ": 224,
      "Ğ": 225,
      "ğ": 226,
      "Ġ": 227,
      "ġ": 228,
      "Ģ": 229,
      "ģ": 230,
      "Ĥ": 231,
      "ĥ": 232,
      "Ħ": 233,
      "ħ": 234,
      "Ĩ": 235,
      "ĩ": 236,
      "Ī": 237,
      "ī": 238,
      "Ĭ": 239,
      "ĭ": 240,
      "Į": 241,
      "į": 242,
      "İ": 243,
      "ı": 244,
      "Ĳ": 245,
      "ĳ": 246,
      "Ĵ": 247,
      "ĵ": 248,
      "Ķ": 249,
      "ķ": 250,
      "ĸ": 251,
      "Ĺ": 252,
      "ĺ": 253,
      "Ļ": 254,
      "ļ": 255,
      "Ľ": 256,
      "ľ": 257,
      "Ŀ": 258,
      "ŀ": 259,
      "Ł": 260,
      "ł": 261,
      "Ń": 262,
      "ãģ": 263,
      "ãĤ": 264,
      "ãĥ": 265,
      "ãĢ": 266,
      "ãģ®": 267,
      "ãĢģ": 268,
      "ãĤĭ": 269,
      "ãģ«": 270,
      "ãĢĤ": 271,
      "ãģ¨": 272,
      "ãģ¯": 273,
      "ãģĦ": 274,
      "ãģ§": 275,
      "ãĤĴ": 276,
      "ãģĮ": 277,
      "ãģ¦": 278,
      "ãģĹ": 279,
      "ãģª": 280,
      "ãģŁ": 281,
      "ãĤĮ": 282,
      "ãĥ¼": 283,
      "ï¼": 284,
      "ãģĻ": 285,
      "ä¸": 286,
      "ãĥ³": 287,
      "ãģĵ": 288,
      "ãģ®å": 289,
      "ãģĤ": 290,
      "ãĤĤ": 291,
      "åŃ": 292,
      "ãģĭ": 293,
      "ãģĨ": 294,
      "çĶ": 295,
      "ä½": 296,
      "ãģ¾": 297,
      "ãĤĬ": 298,
      "ãģ£": 299,
      "ãĤī": 300,
      "åĪ": 301,
      "ãģķ": 302,
      "æľ": 303,
      "åĲ": 304,
      "ãĤĪ": 305,
      "ãģĹãģ¦": 306,
      "ãģĻãĤĭ": 307,
      "ãĥ¼ãĥ": 308,
      "å¤": 309,
      "ãĤ¹": 310,
      "ãģĤãĤĭ": 311,
      "å¹": 312,
      "äº": 313,
      "å®": 314,
      "ä»": 315,
      "æĸ": 316,
      "ï¼ī": 317,
      "ï¼Ī": 318,
      "èª": 319,
      "å¹´": 320,
      "è¨": 321,
      "åı": 322,
      "è¡": 323,
      "ãģį": 324,
      "åħ": 325,
      "ãĤ¤": 326,
      "ãģ®æ": 327,
      "ãģı": 328,
      "ãģķãĤĮ": 329,
      "ãĢĮ": 330,
      "ãĢį": 331,
      "ãĥ«": 332,
      "ãĤ¢": 333,
      "ãģĵãģ¨": 334,
      "ãĥ»": 335,
      "åŃ¦": 336,
      "éĸ": 337,
      "ãĥ©": 338,
      "ãĥĪ": 339,
      "æķ": 340,
      "ãĥª": 341,
      "ãģ¦ãģĦ": 342,
      "ãģĿ": 343,
      "è¦": 344,
      "ãĤ¯": 345,
      "éĽ": 346,
      "åĽ": 347,
      "éĢ": 348,
      "ãģĹãģŁ": 349,
      "çī": 350,
      "çļ": 351,
      "ãģ©": 352,
      "ãģ¤": 353,
      "ãģĪ": 354,
      "ãĤĦ": 355,
      "ç´": 356,
      "çļĦ": 357,
      "ãģ£ãģŁ": 358,
      "ãĥĥ": 359,
      "ãģ§ãģĤãĤĭ": 360,
      "çµ": 361,
      "ãģĳ": 362,
      "ä½ľ": 363,
      "åĮ": 364,
      "éģ": 365,
      "ãģ§ãģ¯": 366,
      "ãĤģ": 367,
      "ãģĬ": 368,
      "å¼": 369,
      "ãĤĴæ": 370,
      "å¾": 371,
      "èĢ": 372,
      "å°": 373,
      "æķ°": 374,
      "ãģĭãĤī": 375,
      "æĹ": 376,
      "ãģªãģĦ": 377,
      "äºº": 378,
      "ãģ¨ãģĦ": 379,
      "åł": 380,
      "ãĤ¿": 381,
      "åĲĪ": 382,
      "ãģ«ãģ¯": 383,
      "åĪĨ": 384,
      "åĬ": 385,
      "çĻ": 386,
      "ä¼": 387,
      "ãĥ³ãĥ": 388,
      "éĩ": 389,
      "ä¸Ģ": 390,
      "è¡Į": 391,
      "ãģ¦ãģĦãĤĭ": 392,
      "å½": 393,
      "ãĤĪãģĨ": 394,
      "çĶ¨": 395,
      "èªŀ": 396,
      "ãĤı": 397,
      "åŃĲ": 398,
      "é¡": 399,
      "ãģ£ãģ¦": 400,
      "æ³": 401,
      "ãģ¾ãģĻ": 402,
      "ãģªãģ©": 403,
      "çĽ": 404,
      "Ġ\\": 405,
      "ãĤ·": 406,
      "æĿ": 407,
      "çī©": 408,
      "å¤§": 409,
      "ãĥŃ": 410,
      "åł´": 411,
      "ãģł": 412,
      "åľ": 413,
      "ãģ°": 414,
      "19": 415,
      "æľ¬": 416,
      "ãĢı": 417,
      "ãĢİ": 418,
      "ãĤ°": 419,
      "åº": 420,
      "æĸ¹": 421,
      "ãĤĵ": 422,
      "ãĥ¬": 423,
      "ãģ¨ãģĦãģĨ": 424,
      "ãģ«ãĤĪ": 425,
      "ä¾": 426,
      "æĢ": 427,
      "æ°": 428,
      "çĲ": 429,
      "åĭ": 430,
      "æĪ": 431,
      "æĸĩ": 432,
      "ãĥķ": 433,
      "çĶ»": 434,
      "æĺ": 435,
      "æĹ¥": 436,
      "ãģ¨ãģĹãģ¦": 437,
      "ãģ®è": 438,
      "éĽ»": 439,
      "çĶŁ": 440,
      "å¿": 441,
      "ãĤ«": 442,
      "åī": 443,
      "åĮĸ": 444,
      "ãĥĹ": 445,
      "åĳ": 446,
      "åĩ": 447,
      "ãĤ³": 448,
      "å®ļ": 449,
      "åĽ½": 450,
      "20": 451,
      "å¯": 452,
      "ç§": 453,
      "åį": 454,
      "æ¨": 455,
      "è¨Ģ": 456,
      "çĲĨ": 457,
      "èĢħ": 458,
      "æĻ": 459,
      "ãĥĨ": 460,
      "ãĤ¸": 461,
      "ãģ®ç": 462,
      "ä½ĵ": 463,
      "æ³ķ": 464,
      "ãĤĮãĤĭ": 465,
      "ä¸Ń": 466,
      "æī": 467,
      "ä»£": 468,
      "ãģĦãģ¦": 469,
      "ç¤": 470,
      "åĩº": 471,
      "æ¥": 472,
      "ãģĹãģ¦ãģĦ": 473,
      "ãĤ£": 474,
      "å¥": 475,
      "è¡¨": 476,
      "çķ": 477,
      "ãģ¨ãģª": 478,
      "ãĥŀ": 479,
      "æĽ": 480,
      "ãĥĩ": 481,
      "æĢ§": 482,
      "æŃ": 483,
      "ãģ«ãģª": 484,
      "ãģ¿": 485,
      "éĥ": 486,
      "ãĤĤãģ®": 487,
      "éĸ¢": 488,
      "ĳĹ": 489,
      "èĥ": 490,
      "ä¿": 491,
      "èĩ": 492,
      "éĻ": 493,
      "åķ": 494,
      "ãĥł": 495,
      "åĭķ": 496,
      "è©": 497,
      "æĶ": 498,
      "ãģ¾ãģŁ": 499,
      "ãģķãĤĮãĤĭ": 500,
      "ä¸Ĭ": 501,
      "é¡Į": 502,
      "éĸĵ": 503,
      "è³": 504,
      "ãĤ¦": 505,
      "ãĥ¡": 506,
      "ãģ¡": 507,
      "å¼ı": 508,
      "éŁ": 509,
      "ãģĽ": 510,
      "è¦ģ": 511,
      "ç«": 512,
      "åĢ": 513,
      "æ¼": 514,
      "ĳĹä½ľ": 515,
      "å¯¾": 516,
      "åĨ": 517,
      "ãģĵãģ®": 518,
      "æł": 519,
      "è¿": 520,
      "åĬĽ": 521,
      "çĤ": 522,
      "ãģĤãĤĬ": 523,
      "åķı": 524,
      "ãģŁãĤģ": 525,
      "ãģĵãģ¨ãģĮ": 526,
      "çĻº": 527,
      "ä¼ļ": 528,
      "å¸": 529,
      "æĻĤ": 530,
      "çŃ": 531,
      "è«": 532,
      "ãģ§ãģį": 533,
      "ç¾": 534,
      "ãģĵãĤĮ": 535,
      "éĿ": 536,
      "åĲĮ": 537,
      "å®Ł": 538,
      "è§": 539,
      "ı¾": 540,
      "æĬ": 541,
      "æĪĲ": 542,
      "æ¨©": 543,
      "èĩª": 544,
      "åĵ": 545,
      "ãĥĸ": 546,
      "ç·": 547,
      "çı¾": 548,
      "ãĤ¨": 549,
      "éĥ¨": 550,
      "ãģķãĤĮãģŁ": 551,
      "ãģĺ": 552,
      "in": 553,
      "ãĥī": 554,
      "åİ": 555,
      "ãĥĭ": 556,
      "éł": 557,
      "ãĥ¥": 558,
      "ä½¿": 559,
      "è¨ĺ": 560,
      "åħ¥": 561,
      "è²": 562,
      "å¾Į": 563,
      "å½¢": 564,
      "å¤ļ": 565,
      "ãģĿãģ®": 566,
      "Ġ=": 567,
      "ç©": 568,
      "§ĭ": 569,
      "åº¦": 570,
      "ä¾ĭ": 571,
      "ãĤª": 572,
      "äºĭ": 573,
      "ãĥ£": 574,
      "çŁ": 575,
      "ä¸»": 576,
      "æĦ": 577,
      "ä»¥": 578,
      "ãĥŁ": 579,
      "ãģļ": 580,
      "æ¸": 581,
      "æľĪ": 582,
      "ãģĹãģ¦ãģĦãĤĭ": 583,
      "èĳĹä½ľ": 584,
      "å±": 585,
      "ãĤµ": 586,
      "çļĦãģª": 587,
      "ç¨": 588,
      "å·": 589,
      "er": 590,
      "åŁ": 591,
      "å°ĳ": 592,
      "ç¶": 593,
      "éŁ³": 594,
      "ç¾©": 595,
      "ãĥģ": 596,
      "ãĤŃ": 597,
      "ãĥĥãĤ¯": 598,
      "å¥³": 599,
      "éļ": 600,
      "è«ĸ": 601,
      "è¨Ģèªŀ": 602,
      "æĽ¸": 603,
      "è¦ĭ": 604,
      "ä¸ĸ": 605,
      "ãģ«ãģĬ": 606,
      "ãĥĲ": 607,
      "«çĶ»": 608,
      "æİ": 609,
      "ra": 610,
      "èŃ": 611,
      "èĥ½": 612,
      "æ¬": 613,
      "ãĤīãĤĮ": 614,
      "ãģ«ãĤĪãģ£ãģ¦": 615,
      "æ²": 616,
      "ãģ§ãģĻ": 617,
      "ãģĿãĤĮ": 618,
      "é«": 619,
      "åľ¨": 620,
      "æľŁ": 621,
      "æĹ¥æľ¬": 622,
      "ç§ĳ": 623,
      "çĤ¹": 624,
      "è§£": 625,
      "ãĤº": 626,
      "èĢĥ": 627,
      "ãĤĪãģĨãģ«": 628,
      "ãĤ½": 629,
      "æ¼«çĶ»": 630,
      "é«ĺ": 631,
      "è³ª": 632,
      "ãģĮãģĤãĤĭ": 633,
      "å¤ī": 634,
      "ãĤ¹ãĥĪ": 635,
      "ç´ł": 636,
      "çĦ": 637,
      "ç®": 638,
      "ç«ĭ": 639,
      "è»": 640,
      "çµĲ": 641,
      "Ġ-": 642,
      "åīį": 643,
      "ãĥ¼ãĥī": 644,
      "ç¤¾": 645,
      "èµ": 646,
      "ãĥ³ãĤ°": 647,
      "åħ¨": 648,
      "ãĤĪãģĨãģª": 649,
      "çĽ®": 650,
      "æĺİ": 651,
      "é¨": 652,
      "ãģ®ãģ§": 653,
      "çī¹": 654,
      "ç¬": 655,
      "éĢļ": 656,
      "æ°Ĺ": 657,
      "ãĥ¼ãĥł": 658,
      "ãĥĹãĥŃ": 659,
      "æ´": 660,
      "10": 661,
      "æµ": 662,
      "æĮ": 663,
      "ãģĪãĤĭ": 664,
      "©Ł": 665,
      "ãĥİ": 666,
      "åİŁ": 667,
      "æľĢ": 668,
      "éĸĭ": 669,
      "é¨ĵ": 670,
      "åŃĺ": 671,
      "ãĥ¼ãĥ«": 672,
      "æŀ": 673,
      "è£": 674,
      "ãģ»": 675,
      "ãĥķãĤ": 676,
      "ãĥĻ": 677,
      "åľ°": 678,
      "Ġ(": 679,
      "ãĥĥãĥĪ": 680,
      "ãĥĳ": 681,
      "èĪ": 682,
      "ãģ³": 683,
      "ãĤ¤ãĥ³": 684,
      "çŁ¥": 685,
      "ãĥĵ": 686,
      "en": 687,
      "åĲĳ": 688,
      "ãģ§ãĤĤ": 689,
      "ãģ«ãģ¤": 690,
      "ãĤĪãĤĬ": 691,
      "æ¬¡": 692,
      "æº": 693,
      "çĻ»": 694,
      "rac": 695,
      "çµĮ": 696,
      "ãģ£ãģ¦ãģĦãĤĭ": 697,
      "éĢ£": 698,
      "åķıé¡Į": 699,
      "ä¸ĭ": 700,
      "frac": 701,
      "æĶ¿": 702,
      "æ±": 703,
      "æı": 704,
      "éķ": 705,
      "éķ·": 706,
      "ãĤį": 707,
      "æĥ": 708,
      "æĦı": 709,
      "ç¶ļ": 710,
      "ãĥĶ": 711,
      "éĽĨ": 712,
      "ãĥį": 713,
      "ãģĳãĤĭ": 714,
      "å®¶": 715,
      "èª¬": 716,
      "éħ": 717,
      "ãĤ¶": 718,
      "éĩı": 719,
      "æ©Ł": 720,
      "ãģªãģı": 721,
      "ãģ¹": 722,
      "ãĤ®": 723,
      "ãĥ§": 724,
      "ãĤīãĤĮãĤĭ": 725,
      "ãĤĮãģ°": 726,
      "ä½į": 727,
      "åł´åĲĪ": 728,
      "ãĤ°ãĥ©": 729,
      "ãģ§ãģįãĤĭ": 730,
      "ç¤º": 731,
      "æīĭ": 732,
      "çĻ»åł´": 733,
      "å¹´ãģ«": 734,
      "åıĹ": 735,
      "çļĦãģ«": 736,
      "è¨Ī": 737,
      "åĳ¼": 738,
      "ç½": 739,
      "åĪĹ": 740,
      "ç®Ĺ": 741,
      "çİ": 742,
      "é¡ŀ": 743,
      "æ¥Ń": 744,
      "ãĥ¼ãĥĪ": 745,
      "ri": 746,
      "æĿ±": 747,
      "ãĢģãĢĮ": 748,
      "ãģ®å¤": 749,
      "åĲį": 750,
      "å£": 751,
      "éĩį": 752,
      "ãĤ»": 753,
      "ãĥĿ": 754,
      "ãģ¨ãģ¯": 755,
      "ãģķãĤĮãģ¦ãģĦãĤĭ": 756,
      "ãģ«ãģ¤ãģĦãģ¦": 757,
      "åĪ©": 758,
      "ãĥĬ": 759,
      "çķĮ": 760,
      "æķĻ": 761,
      "ãĤ§": 762,
      "ãģ¨ãģį": 763,
      "ãĤ¿ãĥ¼": 764,
      "ãģ«ãģĬãģĦãģ¦": 765,
      "ç¬¬": 766,
      "ãĤ²": 767,
      "ãĥ¢": 768,
      "ãĤĴæĮ": 769,
      "æ²»": 770,
      "æĿ¡": 771,
      "ä»ĸ": 772,
      "}{": 773,
      "ä¸į": 774,
      "åĨħ": 775,
      "ma": 776,
      "åŃĹ": 777,
      "éĿ¢": 778,
      "ãģ¦ãģĦãģŁ": 779,
      "ãģ§ãģĤãĤĬ": 780,
      "æĸ°": 781,
      "æ°ĳ": 782,
      "åıĸ": 783,
      "ãģĿãģ®å": 784,
      "æľī": 785,
      "å°ı": 786,
      "ç·ļ": 787,
      "å¤ĸ": 788,
      "å¿ħ": 789,
      "ç´°": 790,
      "åŀ": 791,
      "ãģ«å¯¾": 792,
      "æ¥½": 793,
      "ä¿Ŀ": 794,
      "ãģĹãģĭ": 795,
      "åĪ¶": 796,
      "le": 797,
      "æ¯": 798,
      "on": 799,
      "æ¶": 800,
      "å½ĵ": 801,
      "æŃ£": 802,
      "åĬł": 803,
      "ãģ«ãĤĪãĤĭ": 804,
      "ãģ¸": 805,
      "ãģ¾ãģ§": 806,
      "ãģĪãģ°": 807,
      "åŁº": 808,
      "ãģĬãĤĬ": 809,
      "ç¨ĭ": 810,
      "è¼": 811,
      "ãģĻãĤĭãģĵãģ¨": 812,
      "çŃī": 813,
      "å°ĳå¥³": 814,
      "ãĥļ": 815,
      "éĻĲ": 816,
      "£ģ": 817,
      "æ§ĭ": 818,
      "me": 819,
      "ti": 820,
      "è¾": 821,
      "ãģ¨åĳ¼": 822,
      "200": 823,
      "ï¼īãĢĤ": 824,
      "ãĢıï¼Ī": 825,
      "æĺł": 826,
      "ãĤ¬": 827,
      "ãĥĢ": 828,
      "åĮ»": 829,
      "è©¦": 830,
      "åŀĭ": 831,
      "ãĥ³ãĥī": 832,
      "åįĺ": 833,
      "¢º": 834,
      "ãĤ±": 835,
      "åħĥ": 836,
      "ãģ«ãģªãĤĭ": 837,
      "è±": 838,
      "åħ¬": 839,
      "ĴĮ": 840,
      "ãģ¨ãģĻãĤĭ": 841,
      "ä¼Ŀ": 842,
      "èĳĹä½ľæ¨©": 843,
      "ãĥı": 844,
      "åı·": 845,
      "æīĢ": 846,
      "ãĢħ": 847,
      "èī": 848,
      "ãĥ¼ãĤ¹": 849,
      "ãĥľ": 850,
      "åĵģ": 851,
      "ç¢º": 852,
      "åĪĿ": 853,
      "åŃĺåľ¨": 854,
      "æħ": 855,
      "ç£ģ": 856,
      "âĢ": 857,
      "åĪ¥": 858,
      "ãĤ·ãĥ§": 859,
      "æ®": 860,
      "ãģªãĤĭ": 861,
      "åĤ": 862,
      "çĽ¸": 863,
      "éļĽ": 864,
      "ãģ¨ãĤĤ": 865,
      "§ĺ": 866,
      "ä¾¡": 867,
      "è¿°": 868,
      "ãģ¨ãģªãĤĭ": 869,
      "è±¡": 870,
      "²åŃ¦": 871,
      "æµģ": 872,
      "ãģĤãģ£ãģŁ": 873,
      "ãĤĢ": 874,
      "å¾Ĺ": 875,
      "197": 876,
      "çľ": 877,
      "ãģ®åĪ": 878,
      "åı¯": 879,
      "ç½®": 880,
      "æĪ¦": 881,
      "äºĮ": 882,
      "æŀľ": 883,
      "å°İ": 884,
      "ãĤıãĤĮ": 885,
      "èªĮ": 886,
      "åĥ": 887,
      "ãģĮçĻ»åł´": 888,
      "ãģĹãģĦ": 889,
      "è¦ı": 890,
      "ç´Ħ": 891,
      "åĢ¤": 892,
      "ãĥĹãĥŃãĤ°ãĥ©": 893,
      "ãĤĩ": 894,
      "ta": 895,
      "åģ": 896,
      "å¿ľ": 897,
      "éĩİ": 898,
      "éĸ¢æķ°": 899,
      "éĩĳ": 900,
      "la": 901,
      "å¢": 902,
      "Ġ1": 903,
      "ãģ«ãĤĤ": 904,
      "ãģ®å®": 905,
      "èµ·": 906,
      "è¿ĳ": 907,
      "åĴĮ": 908,
      "æ§ĺ": 909,
      "ãģĴ": 910,
      "ãĥ³ãĥĪ": 911,
      "ãģĵãģ¨ãĤĴ": 912,
      "æĿ¥": 913,
      "èĪ¬": 914,
      "åĽŀ": 915,
      "ä»ĺ": 916,
      "åħ±": 917,
      "çİĩ": 918,
      "ãĥĦ": 919,
      "è¨Ń": 920,
      "åıį": 921,
      "ãĥ¼ãĤ¸": 922,
      "èĢĥãģĪ": 923,
      "ãģ®åħ": 924,
      "ãĥĩãĤ£": 925,
      "ãĤ²ãĥ¼ãĥł": 926,
      "ch": 927,
      "ä¸ĢèĪ¬": 928,
      "ãĥķãĤ¡": 929,
      "çĦ¡": 930,
      "ãģ¾ãĤĬ": 931,
      "èĥŀ": 932,
      "ãģ¶": 933,
      "çµĦ": 934,
      "ä¹": 935,
      "ãģªãĤī": 936,
      "å¹´ãģ«ãģ¯": 937,
      "ç¥": 938,
      "çµ±": 939,
      "çĽ´": 940,
      "ãģ«ãĤĪãĤĬ": 941,
      "æ°´": 942,
      "éĽ»åŃĲ": 943,
      "ãģĦãģŁ": 944,
      "éħį": 945,
      "ç´°èĥŀ": 946,
      "ãģĹãģ¾ãģĻ": 947,
      "éģĵ": 948,
      "åĳ³": 949,
      "ãģĹãģĭãģĹ": 950,
      "ç³": 951,
      "ãĥ¼ãĤ¿": 952,
      "æł¼": 953,
      "¤ľ": 954,
      "éģİ": 955,
      "ç¤¾ä¼ļ": 956,
      "å¿ħè¦ģ": 957,
      "ä½¿çĶ¨": 958,
      "çĬ": 959,
      "èĭ": 960,
      "ãĤ¯ãĥ©": 961,
      "åĢĭ": 962,
      "_{": 963,
      "Ġx": 964,
      "çĶ£": 965,
      "å¿ĥ": 966,
      "å¤ļãģı": 967,
      "ãĤĴæĮģ": 968,
      "ãģłãģĳ": 969,
      "æĬĢ": 970,
      "åīĩ": 971,
      "æ´»": 972,
      "ł´": 973,
      "å¼ķ": 974,
      "éģĭ": 975,
      "éģ¸": 976,
      "æ¸Ī": 977,
      "çĶ±": 978,
      "æĺłçĶ»": 979,
      "ãģ«éĸ¢": 980,
      "ï¼īãĢģ": 981,
      "å¹´ä»£": 982,
      "ä¸ĸçķĮ": 983,
      "åĵ²åŃ¦": 984,
      "èį": 985,
      "ãģ®ãĤĪãģĨãģ«": 986,
      "ç¿": 987,
      "æĸĩåŃĹ": 988,
      "ç§°": 989,
      "ãĤ¢ãĥ«": 990,
      "198": 991,
      "201": 992,
      "ç©į": 993,
      "ç³»": 994,
      "or": 995,
      "æĭ": 996,
      "ãģ®ä¸Ń": 997,
      "è»į": 998,
      "ä¸ī": 999,
      "çķ°": 1000,
      "åĲĮãģĺ": 1001,
      "ãĤĩãģĨ": 1002,
      "çµĮæ¸Ī": 1003,
      "æł¡": 1004,
      "åı¯èĥ½": 1005,
      "ç´Ģ": 1006,
      "ä¿Ĥ": 1007,
      "ãĥĶãĤ¢": 1008,
      "ãģĻãĤĭãģ¨": 1009,
      "ãģ®æķ": 1010,
      "ç©¶": 1011,
      "èĤ": 1012,
      "é£": 1013,
      "ãĤĤãģĤãĤĭ": 1014,
      "łĶ": 1015,
      "ãĤ·ãĥ§ãĥ³": 1016,
      "é¤": 1017,
      "ãģªãģĭ": 1018,
      "00": 1019,
      "ĠA": 1020,
      "æĹı": 1021,
      "è¡ĵ": 1022,
      "æĥħ": 1023,
      "ãĥªãĥ¼": 1024,
      "éĢł": 1025,
      "åĲ«": 1026,
      "éĢ²": 1027,
      "ãĤģãĤĭ": 1028,
      "å¸¸": 1029,
      "ãĤĬãģ¾ãģĻ": 1030,
      "å¡": 1031,
      "ãĤĴè¡Į": 1032,
      "åł±": 1033,
      "éŁ³æ¥½": 1034,
      "çĦ¶": 1035,
      "èº": 1036,
      "Ġf": 1037,
      "ãĤ¤ãĥ«": 1038,
      "è¨Īç®Ĺ": 1039,
      "ãĤ³ãĥ³ãĥ": 1040,
      "ï¼ļ": 1041,
      "æĢĿ": 1042,
      "åİŁåŃĲ": 1043,
      "ä¸»ç¾©": 1044,
      "ãģķãģĽ": 1045,
      "å¹³": 1046,
      "åĽ³": 1047,
      "el": 1048,
      "æ¥µ": 1049,
      "łĶç©¶": 1050,
      "ãģĦãĤĭ": 1051,
      "ãģ¨ãģªãģ£ãģŁ": 1052,
      "ãĤ¹ãĤ¿": 1053,
      "éŁ¿": 1054,
      "si": 1055,
      "ãĥĶãĤ¢ãĥİ": 1056,
      "åĳ½": 1057,
      "199": 1058,
      "æĶ¿æ²»": 1059,
      "çķª": 1060,
      "å§ĭ": 1061,
      "Ġ2": 1062,
      "ãĥĨãĤ£": 1063,
      "ç¯": 1064,
      "è¶": 1065,
      "ãģ®ãĤĪãģĨãģª": 1066,
      "å·¥": 1067,
      "ãĤıãĤĮãĤĭ": 1068,
      "ãģ®ãģ¯": 1069,
      "èªį": 1070,
      "åı²": 1071,
      "ãĥªãĤ«": 1072,
      "ãĤ¤ãĥĪ": 1073,
      "åįĬ": 1074,
      "å¼·": 1075,
      "åĮĹ": 1076,
      "è¼ī": 1077,
      "ä½ķ": 1078,
      "ãģŁãĤģãģ«": 1079,
      "ãĥ³ãĤ¹": 1080,
      "ãģ®åĲ": 1081,
      "åı¤": 1082,
      "èŃ·": 1083,
      "æĶ¾": 1084,
      "çµĲæŀľ": 1085,
      "æ¤ľ": 1086,
      "çĭ": 1087,
      "èģ": 1088,
      "ãģĵãģĵ": 1089,
      "å¤§åŃ¦": 1090,
      "è¡¨ç¤º": 1091,
      "èº«": 1092,
      "ãģ²": 1093,
      "ä¸İ": 1094,
      "ãĤĪãģĨãģ«ãģª": 1095,
      "ãģªãģ©ãģ®": 1096,
      "æł¸": 1097,
      "èį·": 1098,
      "Ġa": 1099,
      "ãģ®åł´": 1100,
      "åŁŁ": 1101,
      "ãģĮãģĤãĤĬ": 1102,
      "ç´¢": 1103,
      "ç²": 1104,
      "åĪ¤": 1105,
      "ãģĵãĤĮãģ¯": 1106,
      "ãģ¼": 1107,
      "ãģ®å½": 1108,
      "èĭ±": 1109,
      "ãĤĴçĶ¨": 1110,
      "é¤¨": 1111,
      "ot": 1112,
      "åĦ": 1113,
      "ãģĹãĤĩãģĨ": 1114,
      "çĬ¶": 1115,
      "å»": 1116,
      "ãģ¥": 1117,
      "è¡ĮåĪĹ": 1118,
      "éĸ¢ä¿Ĥ": 1119,
      "æħĭ": 1120,
      "Ġãģ¯": 1121,
      "ä¾ĭãģĪãģ°": 1122,
      "ãĥģãĥ£": 1123,
      "ãģ®ä¸Ģ": 1124,
      "æ±º": 1125,
      "ãģ®å¼": 1126,
      "è¦ģç´ł": 1127,
      "åĻ": 1128,
      "çīĪ": 1129,
      "æİ¥": 1130,
      "ãĥ¯": 1131,
      "å¤§ãģį": 1132,
      "è§Ĵ": 1133,
      "æŁ": 1134,
      "ãģ®åı": 1135,
      "å¤ļãģĦ": 1136,
      "æºĸ": 1137,
      "å®¹": 1138,
      "ä»¶": 1139,
      "ãģĵãĤĮãĤī": 1140,
      "ä¿ĿèŃ·": 1141,
      "ãĤĮãģŁ": 1142,
      "202": 1143,
      "ãģĽãĤĵ": 1144,
      "æıĽ": 1145,
      "12": 1146,
      "Ġ{": 1147,
      "èµ¤": 1148,
      "ĠB": 1149,
      "ĠP": 1150,
      "éĢŁ": 1151,
      "ãģ®èĳĹä½ľ": 1152,
      "æĮĩ": 1153,
      "åĥı": 1154,
      "¾Į": 1155,
      "è·": 1156,
      "èª¿": 1157,
      "ä¿¡": 1158,
      "ä¸ĸç´Ģ": 1159,
      "åĻ¨": 1160,
      "ãĥĴ": 1161,
      "ãģ«ãģĬãģĳãĤĭ": 1162,
      "ãģ®å¤§": 1163,
      "æ¶Ī": 1164,
      "al": 1165,
      "ï½": 1166,
      "ãģ®æĻ": 1167,
      "ä½ľåĵģ": 1168,
      "åĪ©çĶ¨": 1169,
      "å°ĳå¥³æ¼«çĶ»": 1170,
      "ĠC": 1171,
      "ãģ£ãģ¦ãģĦ": 1172,
      "çĤº": 1173,
      "æĥ³": 1174,
      "æ¯Ķ": 1175,
      "éĽ»èį·": 1176,
      "ç¨®": 1177,
      "ãģ§ãģĤãģ£ãģŁ": 1178,
      "ãĥªãĤ¹": 1179,
      "çŃĶ": 1180,
      "èŃĺ": 1181,
      "ãģ¨è¨Ģ": 1182,
      "çµĤ": 1183,
      "æĸ¹æ³ķ": 1184,
      "Ġ+": 1185,
      "ãĤĴåıĹ": 1186,
      "è¦³": 1187,
      "éĽ£": 1188,
      "éģĭåĭķ": 1189,
      "åĪĩ": 1190,
      "ãĤ¢ãĥ¡": 1191,
      "ãģ®å°": 1192,
      "åĲĦ": 1193,
      "±éŁ¿": 1194,
      "åıĬ": 1195,
      "ãĥĥãĥĹ": 1196,
      "re": 1197,
      "è©±": 1198,
      "éłħ": 1199,
      "åıĤ": 1200,
      "ãĥ©ãĤ¤": 1201,
      "ãĤ´": 1202,
      "ãģªãģĬ": 1203,
      "åĮ»åŃ¦": 1204,
      "ro": 1205,
      "ãģĶ": 1206,
      "è©ŀ": 1207,
      "ãĤ¦ãĤ§": 1208,
      "ç¥ŀ": 1209,
      "åºĥ": 1210,
      "ãģ®åł´åĲĪ": 1211,
      "éĮ": 1212,
      "ãĥ¼ãĤ¯": 1213,
      "ãĥ¼ãĥĦ": 1214,
      "æ¼Ķ": 1215,
      "çľŁ": 1216,
      "AI": 1217,
      "ãģĹãģªãģĦ": 1218,
      "ãģĹãģ¦ãģĦãģŁ": 1219,
      "ãĤ¢ãĥ¡ãĥªãĤ«": 1220,
      "èªŃ": 1221,
      "mb": 1222,
      "¤ĩ": 1223,
      "ãģĻãĤĭãģĵãģ¨ãģĮ": 1224,
      "et": 1225,
      "ç¹": 1226,
      "ãĤ¯ãĥĪ": 1227,
      "196": 1228,
      "çłĶç©¶": 1229,
      "ãģ®åĽ": 1230,
      "å®ļç¾©": 1231,
      "åĵ¡": 1232,
      "ç©º": 1233,
      "åĨĨ": 1234,
      "æĴ": 1235,
      "ãĤĭãģ¨": 1236,
      "åĪĬ": 1237,
      "äº¬": 1238,
      "çŃĸ": 1239,
      "éĿŀ": 1240,
      "gh": 1241,
      "ãĥķãĤ£": 1242,
      "å¢Ĺ": 1243,
      "ãģĬãĤĪ": 1244,
      "çĶŁçī©": 1245,
      "æĻĤä»£": 1246,
      "ç§ĳåŃ¦": 1247,
      "ç¿Ĵ": 1248,
      "å¡ļ": 1249,
      "ãĤįãģĨ": 1250,
      "ãģªãģĭãģ£ãģŁ": 1251,
      "is": 1252,
      "Ġd": 1253,
      "ãģ®åĢ": 1254,
      "èĤ²": 1255,
      "Ġ\"": 1256,
      "å°Ĩ": 1257,
      "ä¸Ģæĸ¹": 1258,
      "ãĤ®ãĥ¼": 1259,
      "¥¿": 1260,
      "æĸĩåĮĸ": 1261,
      "ãĥĨãĤ¹": 1262,
      "çı¾åľ¨": 1263,
      "ãĤīãĤĮãģŁ": 1264,
      "ãģ¨åĳ¼ãģ°": 1265,
      "ãĤĴä½¿": 1266,
      "äº¤": 1267,
      "ä»¥ä¸ĭ": 1268,
      "å±ķ": 1269,
      "ãģ®æĻĤ": 1270,
      "ãĤ¢ãĥĭ": 1271,
      "å¼µ": 1272,
      "èĳĹä½ľçī©": 1273,
      "ãģ«å¯¾ãģĹãģ¦": 1274,
      "ãĥįãĥ«": 1275,
      "èī²": 1276,
      "ãĤ¹ãĥĿ": 1277,
      "ãĢįãĢĮ": 1278,
      "è¡¨çı¾": 1279,
      "ãĤ¯ãĥ©ãĥĨãĤ¹": 1280,
      "ãģ§ãģ¯ãģªãģĦ": 1281,
      "ãģ¨ãģªãĤĬ": 1282,
      "th": 1283,
      "ãģŀ": 1284,
      "ãģŁãģł": 1285,
      "ï¼Ŀ": 1286,
      "çī©è³ª": 1287,
      "æĽ²": 1288,
      "æľŁéĸĵ": 1289,
      "æ±Ĥ": 1290,
      "ãģŃ": 1291,
      "éĢģ": 1292,
      "ä¸ŃåĽ½": 1293,
      "éĮ²": 1294,
      "IC": 1295,
      "è¤ĩ": 1296,
      "ãģ¾ãģĽãĤĵ": 1297,
      "ãģĳãģ¦": 1298,
      "ãģ«ãģĤãĤĭ": 1299,
      "ä¸¡": 1300,
      "ãģķãģĦ": 1301,
      "äººæ°Ĺ": 1302,
      "ãĥĨãĥ¬": 1303,
      "è³ĩ": 1304,
      "ãĤīãĤĮãģ¦ãģĦãĤĭ": 1305,
      "ãĤ½ãĤ¯ãĥ©ãĥĨãĤ¹": 1306,
      "ãĥĹãĥŃãĤ°ãĥ©ãĥł": 1307,
      "å¿µ": 1308,
      "oo": 1309,
      "ãĥ¼ãĥĹ": 1310,
      "æĸ¹ç¨ĭ": 1311,
      "æ¨Ļ": 1312,
      "åıĸãĤĬ": 1313,
      "èī¯": 1314,
      "çĭ¬": 1315,
      "æĸ¹ç¨ĭå¼ı": 1316,
      "èĦ": 1317,
      "éĥ¨åĪĨ": 1318,
      "ãĥĻãĥ«": 1319,
      "æ¶²": 1320,
      "ç¸": 1321,
      "ãģĦãģ¾ãģĻ": 1322,
      "ãĤ¹ãĥĨ": 1323,
      "åĬ¹": 1324,
      "æĻĤéĸĵ": 1325,
      "ãģ®æķ°": 1326,
      "18": 1327,
      "ãģ®ãģ¿": 1328,
      "ãģŁãģ¨": 1329,
      "ãģ¤ãģ¾ãĤĬ": 1330,
      "æĥħåł±": 1331,
      "è¨¼": 1332,
      "èĩªçĦ¶": 1333,
      "ãĤĴãĤĤ": 1334,
      "ãĢįï¼Ī": 1335,
      "ãĥĩãĤ¶": 1336,
      "æºĲ": 1337,
      "ãĤĥ": 1338,
      "ãģ®æŃ": 1339,
      "éĽ¢": 1340,
      "éģķ": 1341,
      "ãĤ¨ãĥįãĥ«": 1342,
      "è£½": 1343,
      "righ": 1344,
      "ãĤ¨ãĥįãĥ«ãĤ®ãĥ¼": 1345,
      "ä»ķ": 1346,
      "ãģĬãĤĪãģ³": 1347,
      "ãģ®ãģĭ": 1348,
      "æĸŃ": 1349,
      "è²»": 1350,
      "ãģĿãģ®å¾Į": 1351,
      "æ¤ľç´¢": 1352,
      "è¥¿": 1353,
      "ãĤĨ": 1354,
      "ãĥ´": 1355,
      "åī²": 1356,
      "AS": 1357,
      "ft": 1358,
      "ãĤģãģ¦": 1359,
      "ãĤĵãģ§": 1360,
      "èª¬æĺİ": 1361,
      "¦Ĥ": 1362,
      "åħĪ": 1363,
      "ãĥĸãĥ©": 1364,
      "èĬ": 1365,
      "ĠS": 1366,
      "ol": 1367,
      "åħī": 1368,
      "ãģ©ãģĨ": 1369,
      "å½¼": 1370,
      "ãĥķãĤ©": 1371,
      "Ġãģ®": 1372,
      "ãĤ¢ãĤ¤": 1373,
      "ãģ¾ãģŁãģ¯": 1374,
      "éĽĨåĲĪ": 1375,
      "ãģķãĤī": 1376,
      "ãĥ¦": 1377,
      "ãģĮåĩº": 1378,
      "ãģĹãģı": 1379,
      "å¤·": 1380,
      "ãģĳãģŁ": 1381,
      "ãģ§ãģįãģ¾ãģĻ": 1382,
      "è¨ĺåı·": 1383,
      "è¾¼": 1384,
      "ãĤ¢ãĥĭãĥ¡": 1385,
      "ar": 1386,
      "ãĥĮ": 1387,
      "åİ»": 1388,
      "ãģ§ãģ¯ãģªãģı": 1389,
      "ãģ¨ãģĦãģ£ãģŁ": 1390,
      "erl": 1391,
      "å±ŀ": 1392,
      "åıĹé¨ĵ": 1393,
      "éģ©": 1394,
      "åĽ²": 1395,
      "éģĶ": 1396,
      "åŃĺåľ¨ãģĻãĤĭ": 1397,
      "ãĥĨãĥ¬ãĥĵ": 1398,
      "30": 1399,
      "İŁ": 1400,
      "ãĥ³ãĤ¸": 1401,
      "ãĤ³ãĥŁ": 1402,
      "ãĥĩãĥ¼ãĤ¿": 1403,
      "ãģ«éĸ¢ãģĻãĤĭ": 1404,
      "æľĿ": 1405,
      "æ³¢": 1406,
      "æ³¨": 1407,
      "çĲĨåŃ¦": 1408,
      "ãĤ¹ãĥĿãĥ¼ãĥĦ": 1409,
      "ãģĦãģ¯": 1410,
      "çĲĨè«ĸ": 1411,
      "an": 1412,
      "åĸ": 1413,
      "ãĥªãĥ³": 1414,
      "ãģ»ãģĭ": 1415,
      "éģ¸æĬ": 1416,
      "ãĥĽ": 1417,
      "ãģ®åŃ": 1418,
      "èĢħãģĮ": 1419,
      "å¸Ĥ": 1420,
      "ãģĵãĤĮãĤĴ": 1421,
      "ãģĿãĤĮãģŀ": 1422,
      "ãģĿãĤĮãģŀãĤĮ": 1423,
      "ãĥ¤": 1424,
      "ãĥīãĥ©": 1425,
      "ä»¥ä¸Ĭ": 1426,
      "èŃ°": 1427,
      "ãģªãĤĬ": 1428,
      "çĶ°": 1429,
      "ä½İ": 1430,
      "å®ī": 1431,
      "int": 1432,
      "**": 1433,
      "æ»": 1434,
      "äºī": 1435,
      "çī©ä½ĵ": 1436,
      "ä¾Ľ": 1437,
      "æĶ¹": 1438,
      "å½¢å¼ı": 1439,
      "ãĥŁãĥ³ãĤ°": 1440,
      "çī¹ãģ«": 1441,
      "æĦıåĳ³": 1442,
      "é£Ł": 1443,
      "Ġ_": 1444,
      "ãĢģãĢİ": 1445,
      "ãģĹãģ¾": 1446,
      "ãģ®åİŁ": 1447,
      "ãģķãĤĮãģ¦": 1448,
      "è¡ĮçĤº": 1449,
      "æŃ»": 1450,
      "ASIC": 1451,
      "da": 1452,
      "ä¸ĩ": 1453,
      "è¦ĸ": 1454,
      "éĻį": 1455,
      "å®ŁéļĽ": 1456,
      "Ġ3": 1457,
      "åıİ": 1458,
      "çĶ»åĥı": 1459,
      "æ¨¡": 1460,
      "æĮģ": 1461,
      "15": 1462,
      "å§": 1463,
      "æ·": 1464,
      "Ħı": 1465,
      "ãĥ³ãĤ¿ãĥ¼": 1466,
      "ãģ®åį": 1467,
      "åŃ¦æł¡": 1468,
      "åĽ£": 1469,
      "ãĤĴæı": 1470,
      "mes": 1471,
      "æģ": 1472,
      "ãģİ": 1473,
      "ãģĵãģ®ãĤĪãģĨãģª": 1474,
      "è²¡": 1475,
      "ãģ¹ãģ¦": 1476,
      "Ŀ¦": 1477,
      "ãģ¨ãģ®": 1478,
      "å¤©": 1479,
      "ãģĿãģĹãģ¦": 1480,
      "éĽĳ": 1481,
      "ãĤĴæİ": 1482,
      "ãĥ¬ãĤ¤": 1483,
      "ç§»": 1484,
      "èµ¤å¡ļ": 1485,
      "ãĤģãģŁ": 1486,
      "ãĤĴæ±": 1487,
      "å£²": 1488,
      "ãĥĹãĥŃãĤ°ãĥ©ãĥŁãĥ³ãĤ°": 1489,
      "ãģįãģŁ": 1490,
      "ãģĹãģŁãģĮ": 1491,
      "è¡ĮãĤıãĤĮ": 1492,
      "è¨ĺè¿°": 1493,
      "è¾º": 1494,
      "ãģĵãģĨ": 1495,
      "ãĥ¼ãĥŀ": 1496,
      "ä»»": 1497,
      "ãģĪãģ¦": 1498,
      "ãĤıãĤĬ": 1499,
      "èĢħãģ¯": 1500,
      "ç·¨": 1501,
      "Ġ0": 1502,
      "äººéĸĵ": 1503,
      "ãĥ³ãĥĢ": 1504,
      "å¥ı": 1505,
      "te": 1506,
      "æķ´": 1507,
      "ãģ¤ãģ®": 1508,
      "éĽ»æ°Ĺ": 1509,
      "ãĤ³ãĥ³": 1510,
      "ãĤ¸ãĥ£": 1511,
      "Ŀ¦å¤·": 1512,
      "ç±": 1513,
      "Ġs": 1514,
      "ãĥ¼ãĥŃ": 1515,
      "éĢĨ": 1516,
      "ãģ¡ãĤĥ": 1517,
      "11": 1518,
      "ãĥ¼ãĤ·ãĥ§ãĥ³": 1519,
      "ãģ®åĨ": 1520,
      "ãģĵãģ¨ãģ¯": 1521,
      "ãģĪãģŁ": 1522,
      "ãģłãģ£ãģŁ": 1523,
      "ãģ¨ãģĹãģ¦ãģ¯": 1524,
      "å®Łè¡Į": 1525,
      "çı¾ä»£": 1526,
      "åĲĳãģĳ": 1527,
      "éĢ£è¼ī": 1528,
      "ãĤ¤ãĥĦ": 1529,
      "éĥ½": 1530,
      "ãģŁãģ¨ãģĪãģ°": 1531,
      "Ġc": 1532,
      "ãģ®æ³": 1533,
      "éģº": 1534,
      "å¾®": 1535,
      "çĻĤ": 1536,
      "ãģłãĤįãģĨ": 1537,
      "ãĤĵãģł": 1538,
      "ãĤŃãĥ£": 1539,
      "times": 1540,
      "ge": 1541,
      "èı": 1542,
      "èĳ": 1543,
      "ĠãĤĴ": 1544,
      "ãģ£ãģ¦ãģĦãģŁ": 1545,
      "è¨³": 1546,
      "åĭĻ": 1547,
      "èĩªçĶ±": 1548,
      "éĩįè¦ģ": 1549,
      "li": 1550,
      "tri": 1551,
      "ĴåŃĲ": 1552,
      "ãģĸ": 1553,
      "äºĪ": 1554,
      "åĳ¨": 1555,
      "æŃ¢": 1556,
      "æ§ĭéĢł": 1557,
      "ãģ¨åĳ¼ãģ¶": 1558,
      "è©¦é¨ĵ": 1559,
      "èµ·ãģĵ": 1560,
      "ãģ¨ãģĹãģŁ": 1561,
      "ãĥªãĤ¹ãĥĪ": 1562,
      "éĸĭçĻº": 1563,
      "Ġb": 1564,
      "å®Į": 1565,
      "æķ°åŃ¦": 1566,
      "ãĤıãģĽ": 1567,
      "ãĥīãĤ¤ãĥĦ": 1568,
      "ĠE": 1569,
      "ä»¤": 1570,
      "ãģ®æī": 1571,
      "ãģĵãģ¨ãĤĤ": 1572,
      "æĺĵ": 1573,
      "ãģ«ãģ¤ãģĦãģ¦ãģ¯": 1574,
      "âĢ»": 1575,
      "åģ´": 1576,
      "å°Ĩè»į": 1577,
      "ãģķãĤīãģ«": 1578,
      "ãģ®å¯": 1579,
      "ãģ®æĶ": 1580,
      "åĮĸåŃ¦": 1581,
      "100": 1582,
      "æ´»åĭķ": 1583,
      "ãĥĩãĤ¶ãĤ¤ãĥ³": 1584,
      "BASIC": 1585,
      "æ£": 1586,
      "Ġãģ¨": 1587,
      "æĸĻ": 1588,
      "ãĥªãĤ¢": 1589,
      "åĮº": 1590,
      "æĸ¹åĲĳ": 1591,
      "ãģ®åĪĨ": 1592,
      "åĪĨé¡ŀ": 1593,
      "åīµ": 1594,
      "çĻºçĶŁ": 1595,
      "ä»¥éĻį": 1596,
      "ãģŁãģłãģĹ": 1597,
      "50": 1598,
      "åĶ": 1599,
      "ãģĲ": 1600,
      "ãĥ³ãģ¯": 1601,
      "ãģ®åķ": 1602,
      "ä»Ĭ": 1603,
      "ãģĿãģĨ": 1604,
      "æŃ´": 1605,
      "å¤īåĮĸ": 1606,
      "æĿ¡ç´Ħ": 1607,
      "çķ°ãģªãĤĭ": 1608,
      "ãģ®åĢ¤": 1609,
      "çĨ": 1610,
      "ãĤ³ãĥ¼ãĥī": 1611,
      "å¤īæķ°": 1612,
      "ç¶ļãģį": 1613,
      "tion": 1614,
      "ãģ§ãģĤ": 1615,
      "ãĤĮãģ¦ãģĦãĤĭ": 1616,
      "éĻ¤": 1617,
      "ãĤ¦ãĤ£": 1618,
      "æ®µ": 1619,
      "ï½ŀ": 1620,
      "Ġp": 1621,
      "ãĤ¯ãĥŃ": 1622,
      "åĳĬ": 1623,
      "åĨį": 1624,
      "ãģ«ãģĬãģĦãģ¦ãģ¯": 1625,
      "Ġ_{": 1626,
      "çļĦãģ«ãģ¯": 1627,
      "ãĥķãĥ©": 1628,
      "ãĤ«ãĥ¼ãĥ": 1629,
      "ç¾İ": 1630,
      "cd": 1631,
      "ãĤĴè¦ĭ": 1632,
      "åħ¸": 1633,
      "ä¼ģ": 1634,
      "ãĤµãĤ¤ãĥĪ": 1635,
      "æµ·": 1636,
      "çĿ": 1637,
      "èĨ": 1638,
      "ãģĦãģı": 1639,
      "éĸĢ": 1640,
      "æ©Łèĥ½": 1641,
      "ãĤĴæĮģãģ¤": 1642,
      "nd": 1643,
      "ÃĹ": 1644,
      "ãģµ": 1645,
      "ãģªãģĮ": 1646,
      "ãĤ·ãĥ£": 1647,
      "ä¸Ńå¿ĥ": 1648,
      "ãĤ¦ãĥł": 1649,
      "æĿ±äº¬": 1650,
      "ve": 1651,
      "çħ": 1652,
      "ãĥ¥ãĥ¼": 1653,
      "æķĻèĤ²": 1654,
      "ãģ¨åĳ¼ãģ°ãĤĮãĤĭ": 1655,
      "ãģĵãģ¨ãģ§": 1656,
      "åľ§": 1657,
      "éłŃ": 1658,
      "èĳĹä½ľèĢħ": 1659,
      "èĢĥãģĪãĤĭ": 1660,
      "è·¯": 1661,
      "mbda": 1662,
      ":\\": 1663,
      "ãĥĺ": 1664,
      "ãģĳãĤĮãģ°": 1665,
      "çĲĥ": 1666,
      "æĦŁ": 1667,
      "éļİ": 1668,
      "lambda": 1669,
      "èĭ±èªŀ": 1670,
      "èĳī": 1671,
      "èĿ¦å¤·": 1672,
      "éľ": 1673,
      "å¤±": 1674,
      "ine": 1675,
      "ä»¥å¤ĸ": 1676,
      "æ¦Ĥ": 1677,
      "ĠãģĮ": 1678,
      "ãģ®äºº": 1679,
      "ãĤĴä½ľ": 1680,
      "ãģĵãĤį": 1681,
      "æĻ¶": 1682,
      "åĢį": 1683,
      "å¸Ŀ": 1684,
      "è»¢": 1685,
      "ãģ®å®ļ": 1686,
      "ãģ®å®Ł": 1687,
      "åħ±éĢļ": 1688,
      "ãĥĩãĤ£ãĤ¢": 1689,
      "ä¿ĿèŃ·æľŁéĸĵ": 1690,
      "RI": 1691,
      "å¾ĭ": 1692,
      "åįĹ": 1693,
      "æ´¾": 1694,
      "éħ¸": 1695,
      "è¶³": 1696,
      "ç²ĴåŃĲ": 1697,
      "ãģ®ãģĮ": 1698,
      "ãģłãģĮ": 1699,
      "æ´ĭ": 1700,
      "åĤĻ": 1701,
      "åĲ«ãģ¾": 1702,
      "æĤ": 1703,
      "ãģĨãģ¡": 1704,
      "ãģĤãĤĭãģĦãģ¯": 1705,
      "ãĤ¤ãĥ³ãĥ": 1706,
      "ãģ«ãģªãģ£ãģŁ": 1707,
      "ãĥĥãĤ¯ãĤ¹": 1708,
      "å£«": 1709,
      "lo": 1710,
      "çĹ": 1711,
      "ãģĹãģ°": 1712,
      "éłĨ": 1713,
      "æ¸Ľ": 1714,
      "æıĲ": 1715,
      "æĬĢè¡ĵ": 1716,
      "om": 1717,
      "èĸ": 1718,
      "ãģ§ãģ®": 1719,
      "ãĥ³ãģ®": 1720,
      "ãģ¤ãģĭ": 1721,
      "åĪĨãģĭ": 1722,
      "è¡¨ãģĻ": 1723,
      "åĤ¬": 1724,
      "éģİåİ»": 1725,
      "æ»ħ": 1726,
      "éģºä¼Ŀ": 1727,
      "Ľ¸": 1728,
      "ãĢĤï¼Ī": 1729,
      "ãģĵãģ¨ãģĮãģ§ãģįãĤĭ": 1730,
      "èģŀ": 1731,
      "åĦª": 1732,
      "ãģ®åķı": 1733,
      "14": 1734,
      "çĮ": 1735,
      "Ġv": 1736,
      "ãģŁãĤĬ": 1737,
      "ãĤĪãģı": 1738,
      "æĸ½": 1739,
      "ãģ®æĢ": 1740,
      "ãĤĦãģĻ": 1741,
      "ãĤ·ãĥ¥": 1742,
      "å¥½": 1743,
      "éłĺ": 1744,
      "æĦĽ": 1745,
      "ãĤĪãģĨãģ«ãģªãģ£ãģŁ": 1746,
      "å½¹": 1747,
      "å¾Įãģ«": 1748,
      "åħ¨ãģ¦": 1749,
      "ãģ»ãģ©": 1750,
      "ç¨ĭåº¦": 1751,
      "se": 1752,
      "ãģªãģĳãĤĮãģ°": 1753,
      "åĪĨéĩİ": 1754,
      "ãĥĹãĥ©": 1755,
      "çĻºå±ķ": 1756,
      "å±±": 1757,
      "åŁºæľ¬": 1758,
      "ãĤ³ãĥ³ãĥĶ": 1759,
      "ãģķãģĽãĤĭ": 1760,
      "çħ§": 1761,
      "di": 1762,
      "Ġt": 1763,
      "ï¼Į": 1764,
      "ãĤĤãģĹ": 1765,
      "åĪĳ": 1766,
      "å¹´åº¦": 1767,
      "åı°": 1768,
      "å½±éŁ¿": 1769,
      "ãĤ«ãĥ¬": 1770,
      "è©ķ": 1771,
      "ãĤĪãĤĬãĤĤ": 1772,
      "ç¯Ģ": 1773,
      "ãĥīãĥ©ãĥŀ": 1774,
      "æ¡": 1775,
      "ç°": 1776,
      "ãĤīãģªãģĦ": 1777,
      "ãĥķãĥĪ": 1778,
      "åĩ¦": 1779,
      "ãĥŀãĤ¤": 1780,
      "ç«¶": 1781,
      "ãģ§ãģįãģªãģĦ": 1782,
      "ç¶Ļ": 1783,
      "ĠD": 1784,
      "ãĤĴä½¿çĶ¨": 1785,
      "ãģŁãģ¡": 1786,
      "è¦ª": 1787,
      "è¿Ķ": 1788,
      "ãģ®å¤ī": 1789,
      "ãĤĴè¡ĮãģĨ": 1790,
      "ãģĵãģĵãģ§": 1791,
      "ä¸İãģĪ": 1792,
      "çª": 1793,
      "è¬": 1794,
      "ãĥ¨": 1795,
      "å®³": 1796,
      "åĪĨåŃĲ": 1797,
      "åĩºé¡Į": 1798,
      "å°ĳå¹´": 1799,
      "çµĲåĲĪ": 1800,
      "ãĤ¼": 1801,
      "ãģ®éĸĵ": 1802,
      "ä»®": 1803,
      "ãģ®è³": 1804,
      "matri": 1805,
      "æ°ĳæĹı": 1806,
      "æ§ĭæĪĲ": 1807,
      "åĥį": 1808,
      "ãģ®å¯¾": 1809,
      "cdot": 1810,
      "matrix": 1811,
      "ãģ¨èĢĥãģĪ": 1812,
      "èªĺ": 1813,
      "åħ·": 1814,
      "åºľ": 1815,
      "ãĤ¦ãĤ¶": 1816,
      "åĲĮæ§ĺ": 1817,
      "ãģ®å½¢": 1818,
      "Ħıåĳ³": 1819,
      "}\\": 1820,
      "éī": 1821,
      "Ġ4": 1822,
      "ãģ®æĿ": 1823,
      "ãģķãĤĮãģ¦ãģĦãģŁ": 1824,
      "å¼¦": 1825,
      "çĻ½": 1826,
      "çĲĨè§£": 1827,
      "ç¬¦": 1828,
      "æľĢåĪĿ": 1829,
      "ãĤ¤ãĥ³ãĤ¿": 1830,
      "çİĭ": 1831,
      "ãģĮçĻ»åł´ãģĹãģŁ": 1832,
      "å¼ķãģį": 1833,
      "çĬ¶æħĭ": 1834,
      "ãĥ¼ãĥ³": 1835,
      "ãģĹãģ¦ãģĬãĤĬ": 1836,
      "ãĥĥãĥģ": 1837,
      "ãĤ·ãĤ¹ãĥĨ": 1838,
      "åĩºæĿ¥": 1839,
      "left": 1840,
      "å¸¸ãģ«": 1841,
      "ãģ®å¼ı": 1842,
      "ãĤĴæ±Ĥ": 1843,
      "ãĤ·ãĤ¹ãĥĨãĥł": 1844,
      "^{": 1845,
      "be": 1846,
      "ĠM": 1847,
      "ãģĮçĶŁ": 1848,
      "ãģ®åĬ": 1849,
      "å¤«": 1850,
      "åĲĪãĤıãģĽ": 1851,
      "çī©çĲĨ": 1852,
      "195": 1853,
      "æĸĩæ³ķ": 1854,
      "åķĨ": 1855,
      "æİ¨": 1856,
      "é«ĺãģĦ": 1857,
      "ä»ĸãģ®": 1858,
      "å¢ĥ": 1859,
      "right": 1860,
      "ãģ®åķıé¡Į": 1861,
      "ga": 1862,
      "ãģªãģ®ãģ§": 1863,
      "ç´Ķ": 1864,
      "ãĥ³ãĥĳ": 1865,
      "ãĤĵãģ©": 1866,
      "æī±": 1867,
      "ç·ı": 1868,
      "åħ¨ä½ĵ": 1869,
      "çĴ": 1870,
      "é»": 1871,
      "ŃåĴĮ": 1872,
      "çĶ·": 1873,
      "ãĥªãĥĥãĤ¯": 1874,
      "åįģ": 1875,
      "éĻ½": 1876,
      "è³ŀ": 1877,
      "ãĤµãĥ¼ãĥ": 1878,
      "ãĥļãĥ¼ãĤ¸": 1879,
      "1970": 1880,
      "ãĥĸãĥ©ãĤ¦ãĤ¶": 1881,
      "ãģ®æ³ķ": 1882,
      "å³": 1883,
      "è¦ļ": 1884,
      "ãĥĹãĥª": 1885,
      "æĻ®": 1886,
      "å±¤": 1887,
      "è£ħ": 1888,
      "ãĤĮãģ¦": 1889,
      "ãĤĮãģªãģĦ": 1890,
      "ãģĭãģ¤": 1891,
      "ãģķãĤĵ": 1892,
      "ãĥ¼ãĥª": 1893,
      "ãģıãģł": 1894,
      "åĽ½å®¶": 1895,
      "æĬĹ": 1896,
      "ãĤ¨ãĥ³ãĤ¸": 1897,
      "çŁ³": 1898,
      "ç£ģåł´": 1899,
      "ãģ²ãģ¨": 1900,
      "ãĢľ": 1901,
      "ãģ«åħ¥": 1902,
      "ãģ®åĩ": 1903,
      "ãģ®åī": 1904,
      "åı³": 1905,
      "ãĥªãĥģãĥ£": 1906,
      "åĬĽãĤĴ": 1907,
      "æĻĤãģ«": 1908,
      "èĩªåĪĨ": 1909,
      "çĽ®çļĦ": 1910,
      "âĢ¦": 1911,
      "ãĥķãĤ¡ãĤ¤ãĥ«": 1912,
      "ãĤ¦ãĤ§ãĥĸ": 1913,
      "ãģ®åĽ½": 1914,
      "æĴ®": 1915,
      "çĨ±": 1916,
      "ä¼ģæ¥Ń": 1917,
      "ãģªãģĮãĤī": 1918,
      "ãĥªãĥģãĥ£ãĥ¼ãĥī": 1919,
      "um": 1920,
      "å¦": 1921,
      "éĬ": 1922,
      "Ġ/": 1923,
      "ï¼į": 1924,
      "è¨±": 1925,
      "æĺŃåĴĮ": 1926,
      "éĿĴ": 1927,
      "å¥³æĢ§": 1928,
      "ãģĮçĻ»åł´ãģĹ": 1929,
      "æĸĩåŃĹåĪĹ": 1930,
      "ç¹Ķ": 1931,
      "éģ¸æĬŀ": 1932,
      "èĳĹ": 1933,
      "éį": 1934,
      "ĠL": 1935,
      "ãģ®ä¾ĭ": 1936,
      "ãĤĴåĲ«": 1937,
      "ãģ®è§": 1938,
      "ing": 1939,
      "ç®¡": 1940,
      "å½ĵæĻĤ": 1941,
      "ov": 1942,
      "ãģ¨ãģķãĤĮãĤĭ": 1943,
      "ãģ®å¾": 1944,
      "ãģ¾ãģļ": 1945,
      "ãĤīãģĭ": 1946,
      "ãģªãģ©ãģĮ": 1947,
      "åľŁ": 1948,
      "éĽ»åł´": 1949,
      "å¯Ĩ": 1950,
      "æĶ¯": 1951,
      "å¾Įãģ®": 1952,
      "å·®": 1953,
      "ãĤĴæĮĩ": 1954,
      "ãģ®å¤§ãģį": 1955,
      "ãĥĹãĥŃãĤ°ãĥ©ãĥŁãĥ³ãĤ°è¨Ģèªŀ": 1956,
      "åĿ": 1957,
      "ļãĥ³ãĤ¿ãĥ¼": 1958,
      "ãģ¾ãģĹãģŁ": 1959,
      "ãģ®æ¨": 1960,
      "ãģ®æ§ĭ": 1961,
      "ãĥ«ãĥĪ": 1962,
      "çļĩ": 1963,
      "ãĥ¥ãĥ¼ãĤ¿": 1964,
      "ãĤ½ãĥķãĥĪ": 1965,
      "ãĤ«ãĥ¼ãĥļãĥ³ãĤ¿ãĥ¼": 1966,
      "ç°¡": 1967,
      "ãģıãģłãģķãģĦ": 1968,
      "ĠF": 1969,
      "è¡Ĩ": 1970,
      "ãģķãĤĮãģ¦ãģĦ": 1971,
      "å¾´": 1972,
      "æķ°ãģ®": 1973,
      "ãģĭãĤīãģ¯": 1974,
      "ãĤ·ãĤ¢": 1975,
      "ãģ®èĩ": 1976,
      "ãĥŀãĥ³": 1977,
      "ãģ«ãģªãĤĬãģ¾ãģĻ": 1978,
      "ç«ł": 1979,
      "ãģĮãģĤãĤĬãģ¾ãģĻ": 1980,
      "éĢŁåº¦": 1981,
      "CH": 1982,
      "st": 1983,
      "æķ°ãĤĴ": 1984,
      "è¿½": 1985,
      "è«¸": 1986,
      "æ¸¬": 1987,
      "éĸĭåĤ¬": 1988,
      "ãģ»ãģ¨": 1989,
      "ãģ¹ãģį": 1990,
      "çµĦãģ¿": 1991,
      "he": 1992,
      "é§": 1993,
      "ãģ«ãģ¨": 1994,
      "ãģĻãģ¹ãģ¦": 1995,
      "ãĤīãģļ": 1996,
      "äºĴ": 1997,
      "ãĤ¢ãĤ¯": 1998,
      "ãģĿãģĵ": 1999,
      "æĸ¹å¼ı": 2000,
      "æĽ´": 2001,
      "éĻ¢": 2002,
      "ãģĵãģ®ãĤĪãģĨãģ«": 2003,
      "ãģĤãĤĬãģ¾ãģĻ": 2004,
      "æĿ¡ä»¶": 2005,
      "ç¢ºçİĩ": 2006,
      "ãĤĴçĶ¨ãģĦãģ¦": 2007,
      "ç±³": 2008,
      "ãģ»ãģ¨ãĤĵãģ©": 2009,
      "éĺ": 2010,
      "å®Ĺ": 2011,
      "ç«¯": 2012,
      "ãĥĸãĥ¼ãĥł": 2013,
      "æĮĻ": 2014,
      "ãģ«å¯¾ãģĻãĤĭ": 2015,
      "elta": 2016,
      "..": 2017,
      "Ġm": 2018,
      "ãģ®ãģĤãĤĭ": 2019,
      "æľª": 2020,
      "äºĨ": 2021,
      "çĶ¨ãģĦ": 2022,
      "çī©ãģ®": 2023,
      "å·ŀ": 2024,
      "æīĭç¶ļãģį": 2025,
      "æŃ´åı²": 2026,
      "ãĤ³ãĥ³ãĥĶãĥ¥ãĥ¼ãĤ¿": 2027,
      "ic": 2028,
      "ãĢĤï¼ī": 2029,
      "ãģķãģ¾": 2030,
      "æľ«": 2031,
      "ãģĻãĤĭãģŁãĤģ": 2032,
      "ãĥ¼ãĥĨ": 2033,
      "å°Ĥ": 2034,
      "ãĤĤãģ®ãģ®": 2035,
      "æ¼¢": 2036,
      "åĨĻ": 2037,
      "å®Łé¨ĵ": 2038,
      "ãĥĭãĤ¢": 2039,
      "çŁŃ": 2040,
      ")=": 2041,
      "æĨ": 2042,
      "ç¦": 2043,
      "å®ĺ": 2044,
      "ãĤ¤ãĥ©": 2045,
      "ãĤ¤ãĤ®": 2046,
      "ãģ®æ¥": 2047,
      "ãģ®æ°": 2048,
      "ãģ®æĮ": 2049,
      "ãģ§ãģĤãĤĭãģĮ": 2050,
      "ä¼´": 2051,
      "éĽ»æµģ": 2052,
      "çĶŁæĪĲ": 2053,
      "è¨Ģèĳī": 2054,
      "åĩºçīĪ": 2055,
      "ãģ¨ãģªãģ£ãģ¦ãģĦãĤĭ": 2056,
      "æŃĮ": 2057,
      "æľĢãĤĤ": 2058,
      "åł´åĲĪãģ¯": 2059,
      "çµĦç¹Ķ": 2060,
      "å¤§ãģįãģı": 2061,
      "æ¡Ī": 2062,
      "çĴ°": 2063,
      "ãĤ¤ãĤ®ãĥªãĤ¹": 2064,
      "at": 2065,
      "ãģ¨åĲĮãģĺ": 2066,
      "ãĥ¼ãģĮ": 2067,
      "ãģ®åĮ": 2068,
      "ä½ı": 2069,
      "å¤ª": 2070,
      "å°Ħ": 2071,
      "ãģ£ãģ¦ãĤĤ": 2072,
      "ãĤ«ãĥ«": 2073,
      "ä½įç½®": 2074,
      "éĿ¢ç©į": 2075,
      "åıįå¿ľ": 2076,
      "ãģ®å½±éŁ¿": 2077,
      "ãģ®èĳĹä½ľæ¨©": 2078,
      "ãģ®å®ļç¾©": 2079,
      "16": 2080,
      "å©": 2081,
      "Ġâ": 2082,
      "ãģ®åŁ": 2083,
      "ä»ĭ": 2084,
      "ãģ®æĪ": 2085,
      "äººå·¥": 2086,
      "éłĥ": 2087,
      "ç©įåĪĨ": 2088,
      "æ³¨æĦı": 2089,
      "ãģ®åĨħ": 2090,
      "å³¶": 2091,
      "éįµ": 2092,
      "ou": 2093,
      "æļ": 2094,
      "é¦": 2095,
      "ĦåĽ²": 2096,
      "ŀį": 2097,
      "ãģ«åŁº": 2098,
      "ãģĦãģĨ": 2099,
      "éĢ±": 2100,
      "ä¼¼": 2101,
      "ãģ®è©": 2102,
      "åĢĭäºº": 2103,
      "æ¶²æĻ¶": 2104,
      "å¾®åĪĨ": 2105,
      "ãģ®èĩª": 2106,
      "17": 2107,
      "ĠI": 2108,
      "ãĤ©": 2109,
      "ãģ«è¿ĳ": 2110,
      "ãĤĴç¤º": 2111,
      "ãģ¦ãĤĤ": 2112,
      "ï¼Ł": 2113,
      "ãĥ©ãĥ¼": 2114,
      "å¾ĵ": 2115,
      "ãĤĤãģ®ãģĮ": 2116,
      "ä¸ĬãģĴ": 2117,
      "æĬķ": 2118,
      "çī¹å®ļ": 2119,
      "ent": 2120,
      "ãĥ¦ãĥ¼": 2121,
      "å¹´ãģ®": 2122,
      "åı£": 2123,
      "ãģĵãģ¨ãģĭãĤī": 2124,
      "åĽº": 2125,
      "ãĤĴæī": 2126,
      "ãĤĴæĬ": 2127,
      "é«ĺæł¡": 2128,
      "è¦ıåīĩ": 2129,
      "ãģ®åĲį": 2130,
      "è§Ĵå½¢": 2131,
      "åıĤçħ§": 2132,
      "éīĦ": 2133,
      "NT": 2134,
      "de": 2135,
      "ie": 2136,
      "ig": 2137,
      "ĠG": 2138,
      "Ġn": 2139,
      "ãĥ³ãģĮ": 2140,
      "ç´ļ": 2141,
      "ãĥ³ãĥĦ": 2142,
      "çĲĨç§ĳ": 2143,
      "çķ¥": 2144,
      "ãĥĸãĥ«": 2145,
      "æŀĲ": 2146,
      "åľ°æĸ¹": 2147,
      "æ¯į": 2148,
      "æ¿": 2149,
      "ãģ¨ãģĵãĤį": 2150,
      "ãĤĴéĢļ": 2151,
      "ãĤĪãģĦ": 2152,
      "ãģ®æĹ": 2153,
      "ãĥªãĤ¦ãĥł": 2154,
      "ãĥĥãĥĳ": 2155,
      "çĽ¤": 2156,
      "æĿ¿": 2157,
      "éĿĻ": 2158,
      "åħ¥è©¦": 2159,
      "çī¹å¾´": 2160,
      "åĮ»çĻĤ": 2161,
      "èĳĹä½ľæ¨©æ³ķ": 2162,
      "èµ·ãģį": 2163,
      "¾åĲĳ": 2164,
      "ãĢĤãĢĮ": 2165,
      "ãģŁãģĻ": 2166,
      "ãģ®å¹": 2167,
      "ãģ®æ¼": 2168,
      "ç´Ļ": 2169,
      "ç¤İ": 2170,
      "æĽ¿": 2171,
      "éĸ¢éĢ£": 2172,
      "ãĢħãģª": 2173,
      "tar": 2174,
      "ãģ®åħ¬": 2175,
      "ä¹±": 2176,
      "ãĤ¯ãĥĪãĥ«": 2177,
      "ãģ®å¤§ãģįãģķ": 2178,
      "åĿĩ": 2179,
      "ãģ«åŁºãģ¥": 2180,
      "13": 2181,
      "Ġãģ§": 2182,
      "ãģ®ãģŁãĤģ": 2183,
      "ä¸¦": 2184,
      "ãģ¾ãģĹãĤĩãģĨ": 2185,
      "åĩºãģĻ": 2186,
      "åĨħå®¹": 2187,
      "ä¼Ŀçµ±": 2188,
      "ãĥªãĥ¼ãĤº": 2189,
      "row": 2190,
      "ãĥķãĥ©ãĥ³ãĤ¹": 2191,
      "èĨľ": 2192,
      "ir": 2193,
      "ãģ¨ãģ«": 2194,
      "ãģ®åĳ": 2195,
      "ãĥ¼ãĥ©": 2196,
      "ãĤĴæĶ": 2197,
      "ãĤ·ãĥ³ãĤ°": 2198,
      "è²ł": 2199,
      "äºĭè±¡": 2200,
      "å£°": 2201,
      "å§Ķ": 2202,
      "70": 2203,
      "SS": 2204,
      "ãģ§ãģĹãĤĩãģĨ": 2205,
      "ãģĵãģ¨ãģ«": 2206,
      "çµµ": 2207,
      "çĶŁçĶ£": 2208,
      "çĲĨçĶ±": 2209,
      "ãĤĤãģ®ãģ§ãģĤãĤĭ": 2210,
      "ä¸Ĭãģ§": 2211,
      "å¯¾è±¡": 2212,
      "å¸«": 2213,
      "ãģªãĤīãģ°": 2214,
      "éĽĳèªĮ": 2215,
      "ãģ®è§£": 2216,
      "ãģ¾ãĤĭ": 2217,
      "æķ£": 2218,
      "åĽł": 2219,
      "ãĤĴæĽ¸": 2220,
      "æķ°ãģ¯": 2221,
      "ãĤıãģĳ": 2222,
      "ãģ¨ãģªãĤĬãģ¾ãģĻ": 2223,
      "çŁ¥èĥ½": 2224,
      "åıĸå¼ķ": 2225,
      "è¦ıå®ļ": 2226,
      "ä¹Ĺ": 2227,
      "ãĤ³ãĥŁãĥĥãĤ¯": 2228,
      "èĸ¬": 2229,
      "æķ°ãģĮ": 2230,
      "æĸ¹ãģĮ": 2231,
      "ãĥĩãĥ«": 2232,
      "åĬĽãģĮ": 2233,
      "éĿ©": 2234,
      "ãģĿãģ®ãģŁãĤģ": 2235,
      "æĮ¯": 2236,
      "çŁ¥èŃĺ": 2237,
      "æºĢ": 2238,
      "éĢ£ç¶ļ": 2239,
      "å¿ħãģļ": 2240,
      "çµĮæ¸ĪåŃ¦": 2241,
      "å»¶": 2242,
      "æ¶Īæ»ħ": 2243,
      "æ¨¡è©¦": 2244,
      "ãĥ¼ãĥŃãĥĥãĥĳ": 2245,
      "RINT": 2246,
      "ãĥ¨ãĥ¼ãĥŃãĥĥãĥĳ": 2247,
      "il": 2248,
      "èĲ": 2249,
      "éŃ": 2250,
      "éĢı": 2251,
      "åįł": 2252,
      "ãĤ¸ãĤ§": 2253,
      "éĻ¸": 2254,
      "å·¦": 2255,
      "è£ı": 2256,
      "ãģ¨ãĤĤãģ«": 2257,
      "å¤ļãģıãģ®": 2258,
      "ãģłãģĳãģ§": 2259,
      "æ¨Ļæºĸ": 2260,
      "è²¡çĶ£": 2261,
      "èŀį": 2262,
      "Ġg": 2263,
      "ãģĭãĤĬ": 2264,
      "ãģĻãĤĭãģŁãĤģãģ«": 2265,
      "ãģªãģ©ãĤĴ": 2266,
      "å¯Ł": 2267,
      "ç§ģ": 2268,
      "å¸°": 2269,
      "è²¨": 2270,
      "ä¸»å¼µ": 2271,
      "è»Ĭ": 2272,
      "æĿ±å¤§": 2273,
      "}{\\": 2274,
      "ãģ®æīĭ": 2275,
      "ad": 2276,
      "gle": 2277,
      "it": 2278,
      "¡çĶ¨": 2279,
      "ĠT": 2280,
      "ãģ®éķ·": 2281,
      "ãĤĴãģ¤": 2282,
      "åĽĽ": 2283,
      "ãģĹãģŁãĤĬ": 2284,
      "ä¸Ģéĥ¨": 2285,
      "å½±": 2286,
      "ãĤıãĤĭ": 2287,
      "ãĤ·ãĥªãĥ¼ãĤº": 2288,
      "ãĥķãĥ¬": 2289,
      "èĩªèº«": 2290,
      "ãĥĭãĥ¥": 2291,
      "åħ¥åĬĽ": 2292,
      "ãĤªãĥ³": 2293,
      "æ¸¡": 2294,
      "ãĤºãĥł": 2295,
      "end": 2296,
      "ãģªãĤīãģªãģĦ": 2297,
      "åİŁåŃĲæł¸": 2298,
      "éģºä¼ĿåŃĲ": 2299,
      "çªģ": 2300,
      "ç°¡åįĺ": 2301,
      "tarrow": 2302,
      "gin": 2303,
      "æĵ": 2304,
      "ãģ®ãģĵãģ¨": 2305,
      "æ³ģ": 2306,
      "ãĤ¸ãĤ¢": 2307,
      "ãĤĤãģ®ãģ¯": 2308,
      "ãģ¡ãĤī": 2309,
      "ãģĵãģ¨ãģĮå¤ļãģĦ": 2310,
      "å¸ĥ": 2311,
      "æ¨©åĪ©": 2312,
      "ä»¥åīį": 2313,
      "åħ¬éĸĭ": 2314,
      "ä¾¡åĢ¤": 2315,
      "ãĤ¢ãĥ«ãĥĲ": 2316,
      "è¶ħ": 2317,
      "æŁ»": 2318,
      "éĿŀå¸¸ãģ«": 2319,
      "äººå·¥çŁ¥èĥ½": 2320,
      "60": 2321,
      "ãģ¨æĢĿ": 2322,
      "ãĤĴãģĻãĤĭ": 2323,
      "194": 2324,
      "ãĥ¬ãĥĻãĥ«": 2325,
      "ãģ®çŁ": 2326,
      "å®Łæĸ½": 2327,
      "ä¸»ãģ«": 2328,
      "æĶ¿çŃĸ": 2329,
      "åħ¬è¡¨": 2330,
      "æĪ¦äºī": 2331,
      "ä»ĺãģĳ": 2332,
      "æĶ¿æ²»åŃ¦": 2333,
      "ç¨®é¡ŀ": 2334,
      "çĿĢ": 2335,
      "Delta": 2336,
      "ab": 2337,
      "eb": 2338,
      "çĸ": 2339,
      "Ġy": 2340,
      "ãģ®ãģĵãģ¨ãĤĴ": 2341,
      "ãģŁãģĦ": 2342,
      "ãģĻãĤĮãģ°": 2343,
      "èª²": 2344,
      "ãĤ¤ãĥ³ãĥī": 2345,
      "çĶŁæ´»": 2346,
      "çĻºè¦ĭ": 2347,
      "è¨ĺéĮ²": 2348,
      "æĽ¸ãģį": 2349,
      "ãĥĻãĤ¯ãĥĪãĥ«": 2350,
      "åįĺä½į": 2351,
      "æ¶Īè²»": 2352,
      "ãģĸãģ¾": 2353,
      "ãģ®åĩº": 2354,
      "å´": 2355,
      "çĪ": 2356,
      "Ġ&": 2357,
      "ãĤĴåĪ©çĶ¨": 2358,
      "æľ¨": 2359,
      "æľĽ": 2360,
      "ãģıãĤĭ": 2361,
      "éĽ»ç£ģ": 2362,
      "ãģ®ç·": 2363,
      "æĪĲç«ĭ": 2364,
      "æıı": 2365,
      "ãĤ³ãĥ³ãĥĨ": 2366,
      "èī¯ãģĦ": 2367,
      "èĬ±": 2368,
      "ãģ®åŃ¦": 2369,
      "åĩ¦çĲĨ": 2370,
      "ãģķãģ¾ãģĸãģ¾": 2371,
      "))": 2372,
      "ne": 2373,
      "¢¨": 2374,
      "ãģĦãģ¦ãģĦãĤĭ": 2375,
      "ãĥ³ãĤ¯": 2376,
      "ãĤ¤ãĤ¹": 2377,
      "ãĥ©ãĤ¯": 2378,
      "çĶ¨èªŀ": 2379,
      "åĽ½éļĽ": 2380,
      "æĹ¥æľ¬èªŀ": 2381,
      "ãĤ®ãĥ£": 2382,
      "ãģ¸ãģ®": 2383,
      "æ§ĺãĢħãģª": 2384,
      "åı¯èĥ½æĢ§": 2385,
      "éģķãģĦ": 2386,
      "vec": 2387,
      ":*": 2388,
      "ome": 2389,
      "ãĤĴå¾Ĺ": 2390,
      "ãģªãģ£ãģŁ": 2391,
      "ãĥĥãĥī": 2392,
      "å¾³": 2393,
      "ãĤ¿ãĤ¤": 2394,
      "ä¼ĳ": 2395,
      "ãģ£ãģ¦ãģĬãĤĬ": 2396,
      "ãĤ°ãĥ«": 2397,
      "çı¾è±¡": 2398,
      "ãģ»ãģ¼": 2399,
      "æĶ¿åºľ": 2400,
      "ãģ¸ãģ¨": 2401,
      "æĬĢé¤¨": 2402,
      "æ±ºå®ļ": 2403,
      "éĩįè¦ģãģª": 2404,
      "ãģ®åŁº": 2405,
      "å§Ķåĵ¡": 2406,
      "ap": 2407,
      "èĹ": 2408,
      "ĠH": 2409,
      "ãģ®åľ": 2410,
      "ãģĹãģ¦ãĤĤ": 2411,
      "ãĥ¼ãĥį": 2412,
      "åĬĩ": 2413,
      "ãĥ³ãĥĹ": 2414,
      "ãģªãģ©ãģ§": 2415,
      "æĻ¯": 2416,
      "å¯¾çŃĸ": 2417,
      "ãģĵãģ®ãģ¨ãģį": 2418,
      "æĬµ": 2419,
      "ãĥŁãĥ¥": 2420,
      "éĢļå¸¸": 2421,
      "æ¥½åĻ¨": 2422,
      "åĪĿæľŁ": 2423,
      "è¨Ńå®ļ": 2424,
      "1980": 2425,
      "ãģ®èĳĹä½ľçī©": 2426,
      "ãĤĴæıĲ": 2427,
      "éłĺåŁŁ": 2428,
      "ãĤ¢ãĥ«ãĥĲãĥł": 2429,
      "éĤ": 2430,
      "ãģ¾ãģ£ãģŁ": 2431,
      "äºĶ": 2432,
      "ãģ®æĺ": 2433,
      "ãĥªãĥ³ãĤ°": 2434,
      "è¡ĮãĤıãĤĮãĤĭ": 2435,
      "æĿŁ": 2436,
      "èĢħãģ®": 2437,
      "ãĤ¸ãĥ§": 2438,
      "ãģ«ãģªãĤĬ": 2439,
      "ãģĽãĤĭ": 2440,
      "ãĥĭãĥ¼": 2441,
      "ç§ĳçĽ®": 2442,
      "èĪĪ": 2443,
      "å£Ĭ": 2444,
      "è¿°ãģ¹": 2445,
      "å°İä½ĵ": 2446,
      "che": 2447,
      "æ°´ç´ł": 2448,
      "æĭł": 2449,
      "ãģĵãĤĮãĤīãģ®": 2450,
      "è©ķä¾¡": 2451,
      "begin": 2452,
      "ãģ®æ³ķåīĩ": 2453,
      "ãĤ«ãĥ¼ãĥļãĥ³ãĤ¿ãĥ¼ãĤº": 2454,
      "Osi": 2455,
      "os": 2456,
      "pmatrix": 2457,
      "ãĤĴãģ¨": 2458,
      "ãģ¾ãģ¾": 2459,
      "ï¼īãĢį": 2460,
      "å¹´ãĤĪãĤĬ": 2461,
      "ä½ľæĪĲ": 2462,
      "æĹ§": 2463,
      "åĽ½æ°ĳ": 2464,
      "ãĤ¸ãĥ¥": 2465,
      "ä»£è¡¨": 2466,
      "ãĥŀãĥ«": 2467,
      "ä¿®": 2468,
      "ä½¿ãĤıãĤĮ": 2469,
      "ãĥįãĥĥãĥĪ": 2470,
      "ãĤĴåıĹãģĳ": 2471,
      "ãģ®å°ĳ": 2472,
      "ãģĦãģıãģ¤ãģĭ": 2473,
      "åĲ«ãģ¾ãĤĮãĤĭ": 2474,
      "ãģķãģ¾ãģĸãģ¾ãģª": 2475,
      "Osiri": 2476,
      "Ġe": 2477,
      "ãģĮå¿ħè¦ģ": 2478,
      "ãģĵãģ®ç": 2479,
      "ãģĤãģ¾ãĤĬ": 2480,
      "ãĥ¼ãĥĩ": 2481,
      "ãĤ¹ãĤ±": 2482,
      "ãģĵãģ¨ãģ«ãģªãĤĭ": 2483,
      "ãģĬãģı": 2484,
      "ãģ¨ãģĦãģĦãģ¾ãģĻ": 2485,
      "ãĥ³ãĥŀ": 2486,
      "çĽ£": 2487,
      "åł´æīĢ": 2488,
      "æĹ¥ãģ«": 2489,
      "ãĥĹãĥ¬ãĤ¤": 2490,
      "åĽ½æĬĢé¤¨": 2491,
      "ãĥŀãĥ¼": 2492,
      "åĢ«": 2493,
      "çĻºè¡¨": 2494,
      "ãģĿãĤĮãĤī": 2495,
      "æ¬¡ãģ®": 2496,
      "ãĥ¢ãĥĩãĥ«": 2497,
      "æ®ĭ": 2498,
      "ãģ¡ãĤĥãģĬ": 2499,
      "æ¦Ĥå¿µ": 2500,
      "éĢ±åĪĬ": 2501,
      "ãģ®æĹ¥": 2502,
      "OsiriX": 2503,
      "å²": 2504,
      "çį": 2505,
      "ĠR": 2506,
      "ãĤħ": 2507,
      "ãģ®ãĤĤ": 2508,
      "ãĤĴä¸İ": 2509,
      "ãģ®å·": 2510,
      "ãģ®åĭ": 2511,
      "ãĤĬç«ĭ": 2512,
      "ãģ®èµ": 2513,
      "ãĤ«ãĥ¼": 2514,
      "ãģĵãģ¨ãģĮãģĤãĤĭ": 2515,
      "ãģĺãĤĭ": 2516,
      "æĽ¸ãģĭ": 2517,
      "è£ľ": 2518,
      "è¼ĥ": 2519,
      "ä¸ĢèĪ¬ãģ«": 2520,
      "çĬ¯": 2521,
      "åı¤ä»£": 2522,
      "ãģĵãģĵãģ§ãģ¯": 2523,
      "ãģ®æĻĤä»£": 2524,
      "èĬ¸": 2525,
      "å®Įåħ¨": 2526,
      "cdots": 2527,
      "éĻ½åŃĲ": 2528,
      "NA": 2529,
      "ºĢ": 2530,
      "æĳ": 2531,
      "Ġw": 2532,
      "ãģ®ãģĨãģ¡": 2533,
      "ãģĮåŃĺåľ¨ãģĻãĤĭ": 2534,
      "ãĥ¼ãĥĸ": 2535,
      "èª¤": 2536,
      "ãģ®æ©Ł": 2537,
      "ãĥĪãĥ³": 2538,
      "ãģªãģ©ãģ¯": 2539,
      "åįĶ": 2540,
      "ãĥĨãĤ¹ãĥĪ": 2541,
      "æĢ§ãĤĴ": 2542,
      "æŃ¦": 2543,
      "ãĥ¡ãĥ³ãĥĪ": 2544,
      "ãĥ¡ãĥĩãĤ£ãĤ¢": 2545,
      "çŃĨ": 2546,
      "ãĤµãĤ¤": 2547,
      "æĸ°èģŀ": 2548,
      "éĻĲãĤĬ": 2549,
      "ãģ®åĪ©": 2550,
      "ãģ®ä¸Ńãģ§": 2551,
      "å¤§ãģįãģª": 2552,
      "åıĬãģ³": 2553,
      "rightarrow": 2554,
      "ãģ®åįĺ": 2555,
      "ãĥ¦ãĥ¼ãĤ¶": 2556,
      "¤į": 2557,
      "æ¢": 2558,
      "é¢¨": 2559,
      "Ġ6": 2560,
      "Ġãģ«": 2561,
      "ãģĻãģª": 2562,
      "åĲ¦": 2563,
      "ãģĿãĤĤ": 2564,
      "çµ¶": 2565,
      "å¾©": 2566,
      "äººãģĮ": 2567,
      "æ°¸": 2568,
      "èĩ´": 2569,
      "åĭķè©ŀ": 2570,
      "æĪĲãĤĬç«ĭ": 2571,
      "ç§ĳæĽ¸": 2572,
      "è§£çŃĶ": 2573,
      "åľ°åŁŁ": 2574,
      "ãģĻãĤĭãģĵãģ¨ãģ¯": 2575,
      "ãģĮçĻ»åł´ãģĹãģ¦": 2576,
      "æĶ¾éĢģ": 2577,
      "å»º": 2578,
      "çµĤäºĨ": 2579,
      "the": 2580,
      "ãĤĨãĤĭ": 2581,
      "åĸ¶": 2582,
      "ãĤĴæıı": 2583,
      "ãģ®æĢ§": 2584,
      "åĩºæĿ¥ãĤĭ": 2585,
      "ãĤ¨ãĥ³ãĤ¸ãĥ³": 2586,
      "ãĥ¼ãĥįãĥĥãĥĪ": 2587,
      "µģ": 2588,
      "æ½": 2589,
      "Ġu": 2590,
      "ãģľ": 2591,
      "ãĤ¡": 2592,
      "ãĤīãģĦ": 2593,
      "ãģķãĤĮãģ¾ãģĻ": 2594,
      "åŃ¦ç¿Ĵ": 2595,
      "æ¨ª": 2596,
      "ãģ®ç¨": 2597,
      "èĩªä½ĵ": 2598,
      "å½¢æĪĲ": 2599,
      "æľĪãģ«": 2600,
      "ãģĿãĤĮãĤĴ": 2601,
      "è³ªéĩı": 2602,
      "ãĤ°ãĥ©ãĥķ": 2603,
      "ãģ®å¤ļ": 2604,
      "åĤ¾åĲĳ": 2605,
      "åĢ¤ãĤĴ": 2606,
      "æĭ¡": 2607,
      "ãģĹãģŁãģĮãģ£ãģ¦": 2608,
      "ç·¨éĽĨ": 2609,
      "ãģ«ãģ¨ãģ£ãģ¦": 2610,
      "omega": 2611,
      "Ġ5": 2612,
      "ãģ®ãģŁãĤģãģ«": 2613,
      "å¤®": 2614,
      "ãģĵãģ¨ãĤĤãģĤãĤĭ": 2615,
      "çĻ¾": 2616,
      "å¿Ĺ": 2617,
      "ãģĺãģ¦": 2618,
      "ãĤŃãĥ¼": 2619,
      "ãģ»ãģĨ": 2620,
      "æ§ĭæĸĩ": 2621,
      "å°İåħ¥": 2622,
      "æĢĿæĥ³": 2623,
      "ç²¾": 2624,
      "èªŃãģ¿": 2625,
      "ãģķãĤĮãģ¦ãģĬãĤĬ": 2626,
      "æ··": 2627,
      "ĨĴ": 2628,
      "ãģĵãģ®æ": 2629,
      "ãģĭãģĳ": 2630,
      "ãģĭãĤĤãģĹ": 2631,
      "ãģ¾ãģ¨": 2632,
      "ãĥ¼ãĥĢ": 2633,
      "ãĤ¹ãĤ¯": 2634,
      "ãĤ¹ãĥļ": 2635,
      "ãĤ¿ãĥ«": 2636,
      "ãĥ³ãĥĩ": 2637,
      "åºı": 2638,
      "ãĥ¬ãĤ¹": 2639,
      "ãĤ¨ãĥ«": 2640,
      "éĸĭå§ĭ": 2641,
      "å°ıèª¬": 2642,
      "åĪ¶åº¦": 2643,
      "åħĥç´ł": 2644,
      "ãģ«éĸ¢ãģĹãģ¦": 2645,
      "æ¥µéĻĲ": 2646,
      "æ¼Ķå¥ı": 2647,
      "ä¸Ģæĸ¹ãģ§": 2648,
      "ãĤĴä½¿ãģĨ": 2649,
      "èĦĪ": 2650,
      "ãĤ¢ãĥĭãĥ¡åĮĸ": 2651,
      "èıĮ": 2652,
      "lim": 2653,
      "ãĤĦãģĻãģĦ": 2654,
      "éĬĢ": 2655,
      "å®ĹæķĻ": 2656,
      "èĲ½": 2657,
      "cm": 2658,
      "ĠW": 2659,
      "Ġh": 2660,
      "ãĤĴæĭ": 2661,
      "åĲĪæł¼": 2662,
      "ä¸Ģãģ¤": 2663,
      "ãĤıãģ¡": 2664,
      "ä¸Ĭãģ®": 2665,
      "ä½¿ãĤıãĤĮãĤĭ": 2666,
      "æİ¢": 2667,
      "æĸ°ãģĹãģĦ": 2668,
      "äºĮæ¬¡": 2669,
      "ãĥĻãĥ«ãĥĮ": 2670,
      "æ·±": 2671,
      "æģĭ": 2672,
      "çĮ®": 2673,
      "ãĤ·ãĥ³ãĤ°ãĥ«": 2674,
      "ãģĻãģªãĤıãģ¡": 2675,
      "DP": 2676,
      "dx": 2677,
      "ter": 2678,
      "ul": 2679,
      "é³": 2680,
      "ãģĮãģªãģĦ": 2681,
      "ãģĮå¢Ĺ": 2682,
      "ãģŁãĤĭ": 2683,
      "ãģĭãĤĭ": 2684,
      "ãĤĬãģ¼": 2685,
      "å¹£": 2686,
      "è¡Ŀ": 2687,
      "ãģ®æĦıåĳ³": 2688,
      "ãĥĪãĥ©": 2689,
      "ãģ®è²": 2690,
      "å®ļæķ°": 2691,
      "éĥİ": 2692,
      "ãģĽãģļ": 2693,
      "åİ³": 2694,
      "å¾ĮåįĬ": 2695,
      "ãĥģãĥ¥": 2696,
      "çµĮé¨ĵ": 2697,
      "ãĤ®ãĥª": 2698,
      "ãģ¨ãģĻãĤĭãģ¨": 2699,
      "ç«¶æĬĢ": 2700,
      "ãģ²ãģ¨ãģ¤": 2701,
      "ãĤĴåĲ«ãĤĢ": 2702,
      "å§Ķåĵ¡ä¼ļ": 2703,
      "es": 2704,
      "qu": 2705,
      "va": 2706,
      "Ġ10": 2707,
      "ãģ¨ãģĹ": 2708,
      "å®£": 2709,
      "ãĤ¢ãĥĥãĥĹ": 2710,
      "é¡į": 2711,
      "æĿĳ": 2712,
      "ä¾Ŀ": 2713,
      "æīĵ": 2714,
      "è©³": 2715,
      "å¯¾å¿ľ": 2716,
      "ä¼ļç¤¾": 2717,
      "ãĥīãĥ«": 2718,
      "å·Ŀ": 2719,
      "è¦ĭãĤīãĤĮãĤĭ": 2720,
      "çĤ¹ãĤĴ": 2721,
      "ãĥ¢ãĥ³": 2722,
      "ãģĻãĤĭãģĵãģ¨ãģ§": 2723,
      "åĽ³å½¢": 2724,
      "èªįèŃĺ": 2725,
      "åĬ¹æŀľ": 2726,
      "è¬Ľ": 2727,
      "ãģ®æĪĲ": 2728,
      "æĬµæĬĹ": 2729,
      "cheme": 2730,
      "ãĥĻãĥ«ãĥĮæĿ¡ç´Ħ": 2731,
      "pi": 2732,
      "çģ": 2733,
      "Ġk": 2734,
      "ĠãĢĮ": 2735,
      "ĿéĽ¢": 2736,
      "ãģĮè¡ĮãĤıãĤĮ": 2737,
      "ãĥ¼ãĤ¿ãĥ¼": 2738,
      "ãģĭãģ£ãģŁ": 2739,
      "ãģĹãģ¦ãģıãģłãģķãģĦ": 2740,
      "ãģĻãĤĭãĤĤãģ®": 2741,
      "ãĤ¹ãĤ¿ãĥ¼": 2742,
      "ãĥªãĥª": 2743,
      "éģł": 2744,
      "åºķ": 2745,
      "ãģ¨ãģĹãģ¦ãģĦãĤĭ": 2746,
      "åį°": 2747,
      "ãģ®çłĶç©¶": 2748,
      "ãģ«ãģªãģ£ãģ¦ãģĦãĤĭ": 2749,
      "å¸¯": 2750,
      "æĽ¸ãģı": 2751,
      "æİ²": 2752,
      "ãĤ½ãĥ¼ãĤ¹": 2753,
      "æŀļ": 2754,
      "ç¬¬ä¸Ģ": 2755,
      "åŁºç¤İ": 2756,
      "è¼¸": 2757,
      "ç¢ºèªį": 2758,
      "sil": 2759,
      "åĪ¤æĸŃ": 2760,
      "ãģ®ä¸Ģãģ¤": 2761,
      "çĭ¬ç«ĭ": 2762,
      "ãĥ³ãĥĢãĥł": 2763,
      "æĤª": 2764,
      "ãģ®è³ª": 2765,
      "çĴ°å¢ĥ": 2766,
      "ãĤĬãģ¼ãĤĵ": 2767,
      "40": 2768,
      "ML": 2769,
      "us": 2770,
      "ãģ®ãĤĤãģ®": 2771,
      "ãģĮåŃĺåľ¨": 2772,
      "ãģ¦ãģ¿": 2773,
      "ãģ¾ãĤĮãģŁ": 2774,
      "ãĥ¼ãĥģ": 2775,
      "å¼±": 2776,
      "ãģ®çĬ": 2777,
      "æ²³": 2778,
      "åīįãģ«": 2779,
      "éĽĨåĽ£": 2780,
      "ç½°": 2781,
      "ãģ«å¯¾ãģĹ": 2782,
      "2000": 2783,
      "è¨¼æĺİ": 2784,
      "ãģ®æŃ£": 2785,
      "èŃ°è«ĸ": 2786,
      "ãģĹãģ¾ãģĨ": 2787,
      "ãģ¡ãĤĥãĤĵ": 2788,
      "çĹħ": 2789,
      "èĹ¤": 2790,
      "ãĥªãĥªãĥ¼ãĤ¹": 2791,
      "=\\": 2792,
      "of": 2793,
      "éª": 2794,
      "ãģĦãģ«": 2795,
      "ãĥ³ãĤ·": 2796,
      "ãģ®æ¯": 2797,
      "ãģ¦ãģĦãģ¾ãģĻ": 2798,
      "éĢĢ": 2799,
      "ä½ľå®¶": 2800,
      "ãĤĴæºĢ": 2801,
      "å¾Ĵ": 2802,
      "Ġ\\\\": 2803,
      "æĸĩç«ł": 2804,
      "ãĥŀãĥĥãĥģ": 2805,
      "ãģĿãģ®ä»ĸ": 2806,
      "è»¸": 2807,
      "çŁ¥ãĤīãĤĮãģ¦ãģĦãĤĭ": 2808,
      "åĳ½ä»¤": 2809,
      "è¤ĩæķ°": 2810,
      "è¥¿æ´ĭ": 2811,
      "éģ©çĶ¨": 2812,
      "åīµä½ľ": 2813,
      "åĶ±": 2814,
      "åħ·ä½ĵ": 2815,
      "åĲĮæ§ĺãģ«": 2816,
      "å©ļ": 2817,
      "ãĤ°ãĥ«ãĥ¼ãĥĹ": 2818,
      "è¡Ŀçªģ": 2819,
      "psil": 2820,
      "¶Ī": 2821,
      "ãģ«å¤ī": 2822,
      "ãģĦãģĦ": 2823,
      "ãĤĴéĻ¤": 2824,
      "ãģĮå¤ļãģĦ": 2825,
      "ãģĭãģ«": 2826,
      "ãģĭãģı": 2827,
      "åĪ¸": 2828,
      "ãģ®æĬ": 2829,
      "ãĤ¢ãĤ¸ãĤ¢": 2830,
      "ãĥ©ãĥł": 2831,
      "å¾ħ": 2832,
      "äººãģ¯": 2833,
      "æĿĲ": 2834,
      "åº§": 2835,
      "ãģ®è»": 2836,
      "ãĤ¸ãĤª": 2837,
      "å±ĭ": 2838,
      "æĺİæ²»": 2839,
      "éĩıãģ¯": 2840,
      "ä¸įäºĮ": 2841,
      "çľģ": 2842,
      "çĽ´æİ¥": 2843,
      "000": 2844,
      "çķªåı·": 2845,
      "ist": 2846,
      "Ġdx": 2847,
      "ä»ķäºĭ": 2848,
      "ãĤ¦ãĤ£ãĤŃ": 2849,
      "ãĤ¤ãĥ³ãĥķ": 2850,
      "ãģ®åīį": 2851,
      "éª¨": 2852,
      "psilon": 2853,
      "¹åĪ¤": 2854,
      "ãģ¯ãģĺ": 2855,
      "ãģĮæµģ": 2856,
      "ãģ¦ãģĬãĤĬ": 2857,
      "äº¡": 2858,
      "ãģ®æİ": 2859,
      "ãĤģãĤīãĤĮãĤĭ": 2860,
      "éĩĪ": 2861,
      "å¤§ä¼ļ": 2862,
      "ãģ®è«": 2863,
      "æł¹": 2864,
      "Ġ=~": 2865,
      "èĪŀ": 2866,
      "1990": 2867,
      "å·¥åŃ¦": 2868,
      "å¼·ãģĦ": 2869,
      "èģ·": 2870,
      "å°ĳå¥³æ¼«çĶ»ãģ§ãģ¯": 2871,
      "æ¯Ķä¾ĭ": 2872,
      "ãĤ¦ãĤ§ãĤ¢": 2873,
      "ãģ®åİŁåŃĲ": 2874,
      "ãĥīãĤ¤ãĥĦèªŀ": 2875,
      "-\\": 2876,
      "25": 2877,
      "TO": 2878,
      "æ¤į": 2879,
      "įä½ľ": 2880,
      "ãģ®ãģ§ãģĤãĤĭ": 2881,
      "ãģ®éĽ»èį·": 2882,
      "ãĢģ\\": 2883,
      "ãģ§ãģªãģĦ": 2884,
      "ãĤĴè¡¨ãģĻ": 2885,
      "ãģĮãģĤãģ£ãģŁ": 2886,
      "ãģĭãģĳãģ¦": 2887,
      "å®Ī": 2888,
      "ãģįãģ¾ãģĻ": 2889,
      "æĸĩèĦĪ": 2890,
      "çĤ¹ãģ¯": 2891,
      "è£ģ": 2892,
      "åľ°çĲĥ": 2893,
      "ç½ª": 2894,
      "ãĥĬãĥ¼": 2895,
      "åĪ¶ä½ľ": 2896,
      "ãĥıãĥ³ãĥŀ": 2897,
      "çĦ¡ãģĦ": 2898,
      "åıĤèĢĥ": 2899,
      "åºĥãģı": 2900,
      "ãģ®åł´åĲĪãģ¯": 2901,
      "ä»ķæ§ĺ": 2902,
      "éģ¸æĬľ": 2903,
      "ãģĹãģ°ãģĹãģ°": 2904,
      "èªĺå°İ": 2905,
      "éĺ²": 2906,
      "ãģ®çŁ¥": 2907,
      "),": 2908,
      ")ãĢģ": 2909,
      "21": 2910,
      "HT": 2911,
      "Scheme": 2912,
      "æĲ": 2913,
      "è¢": 2914,
      "Ġ:": 2915,
      "ĠN": 2916,
      "ĠãĢİ": 2917,
      "ãĤĴèĢĥãģĪ": 2918,
      "ãĤĴè¡¨ç¤º": 2919,
      "ãĤĴä¸Ńå¿ĥ": 2920,
      "ãģĮéĢ²": 2921,
      "ãĥ¼ãĤº": 2922,
      "ãĤĪãģ£ãģ¦": 2923,
      "ãĥ¼ãĥĲ": 2924,
      "ãĤ¯è³ª": 2925,
      "äººãĢħ": 2926,
      "ãĤ¿ãĥ³ãĥĳ": 2927,
      "ãĥ³ãĥĨ": 2928,
      "ãĥ¬ãĥĥãĥĪ": 2929,
      "åĭĿ": 2930,
      "æĺ¥": 2931,
      "è¡¨è¨ĺ": 2932,
      "è¦ģä»¶": 2933,
      "å¯¾ç§°": 2934,
      "è²©": 2935,
      "ãĤªãĥª": 2936,
      "æľĢçµĤ": 2937,
      "æ©Łéĸ¢": 2938,
      "ãģ¨ãģįãģ«": 2939,
      "ãģ«å¯¾å¿ľ": 2940,
      "ãģĻãĤĭãģĵãģ¨ãĤĴ": 2941,
      "ãĥĢãĥ«": 2942,
      "ãĤĪãģĨãģ«ãģªãĤĬ": 2943,
      "ãĥ´ãĤ£": 2944,
      "æ£®": 2945,
      "è²¡çĶ£æ¨©": 2946,
      "è²¨å¹£": 2947,
      "ãĤ¿ãĥ³ãĥĳãĤ¯è³ª": 2948,
      "\";": 2949,
      "CSS": 2950,
      "Ġ'": 2951,
      "ãģ®è¦ģç´ł": 2952,
      "ãģ®éĿ¢ç©į": 2953,
      "ãģĮèµ·ãģį": 2954,
      "ï¼ı": 2955,
      "ï¼ŀ": 2956,
      "è¡Ģ": 2957,
      "æĪĳ": 2958,
      "ç§ĭ": 2959,
      "ãģ®ç«": 2960,
      "ãģ®ç¯": 2961,
      "ä»£åħ¥": 2962,
      "æĢ§è³ª": 2963,
      "èĥĮ": 2964,
      "ä¸Ĭãģ«": 2965,
      "ãģĵãģ¨ãģĮãģ§ãģįãģ¾ãģĻ": 2966,
      "ãģļãĤĮ": 2967,
      "éĢļãĤĬ": 2968,
      "åģ¶": 2969,
      "ãĤĴçĶ¨ãģĦãĤĭ": 2970,
      "ĠPRINT": 2971,
      "ãģ£ãģ¦ãģĦãģ£ãģŁ": 2972,
      "ãĥªãĥ³ãĤ¯": 2973,
      "æĮĻãģĴ": 2974,
      "ãģ®åľ°": 2975,
      "ãģ®ç¨®": 2976,
      "com": 2977,
      "ãģ®æľ¬": 2978,
      "ãĤĴè§£": 2979,
      "ãĤĴçµĮ": 2980,
      "ãĤģãĤīãĤĮ": 2981,
      "ä¸Ģå®ļ": 2982,
      "ä¸ŃæĢ§": 2983,
      "ãĤĤãģ®ãĤĴ": 2984,
      "çĤŃ": 2985,
      "èĩªåĭķ": 2986,
      "ãģĺãģŁ": 2987,
      "ãĤŃãĥ¥": 2988,
      "æ¯İ": 2989,
      "ä¾¡æł¼": 2990,
      "ãĤ²ãĥ¼ãĥłãģ¯": 2991,
      "2018": 2992,
      "å¹³æĪĲ": 2993,
      "çķªçµĦ": 2994,
      "æ¯Ķè¼ĥ": 2995,
      "è£½ä½ľ": 2996,
      "çį²": 2997,
      "æ¢°": 2998,
      "Perl": 2999,
      "ce": 3000,
      "Ġ>": 3001,
      "ĠJ": 3002,
      "ĠV": 3003,
      "ãģ®ãĤ¢": 3004,
      "ãģ®éĸ¢ä¿Ĥ": 3005,
      "ãģĹãĤĪãģĨ": 3006,
      "ãģ®æł": 3007,
      "æī¿": 3008,
      "ä¿ĿåŃĺ": 3009,
      "è¦ıæ¨¡": 3010,
      "ãģ®åħ¨": 3011,
      "åĪĩãĤĬ": 3012,
      "ãĤ¢ãĤ¤ãĥĮ": 3013,
      "ãĤ¤ãĥ©ãĤ¹ãĥĪ": 3014,
      "ä¸įäºĮå¤«": 3015,
      "Goo": 3016,
      "GDP": 3017,
      "Mo": 3018,
      "ĠãĢģ": 3019,
      "ãģ«ä¼´": 3020,
      "ãĢįãĢģ": 3021,
      "ãĥªãĤºãĥł": 3022,
      "ãģ©ãģ®ãĤĪãģĨãģ«": 3023,
      "ãģ§ãģĤãĤĭãģ¨": 3024,
      "çµ¦": 3025,
      "äººæł¼": 3026,
      "ãģ¨ãģĦãģĦ": 3027,
      "åĬ´": 3028,
      "ãĤĪãģĨãģ«ãģªãĤĭ": 3029,
      "èĢħãģ«": 3030,
      "åĩºãģĹ": 3031,
      "ãĥĩãĤª": 3032,
      "åħ¥ãĤĮ": 3033,
      "å½¢è³ª": 3034,
      "æ²¢": 3035,
      "åīįè¿°": 3036,
      "æĿ±åĮĹ": 3037,
      "çľĮ": 3038,
      "å¹´ä»£ãģ«ãģ¯": 3039,
      "èª¿ãģ¹": 3040,
      "åıĤåĬł": 3041,
      "èĩªçĦ¶è¨Ģèªŀ": 3042,
      "ãģ®æŃ»": 3043,
      "å½¼ãĤī": 3044,
      "çĶ¨ãģĦãĤīãĤĮãĤĭ": 3045,
      "å»¶éķ·": 3046,
      "ãģ®å°ĳå¥³": 3047,
      "æĳĺ": 3048,
      ")-": 3049,
      "©ĭ": 3050,
      "°·": 3051,
      "è¸": 3052,
      "Ġ,": 3053,
      "Ġï¼Ŀ": 3054,
      "ãĤĴåıĸãĤĬ": 3055,
      "ä½Ļ": 3056,
      "æľį": 3057,
      "èª°": 3058,
      "å¹´ãģĭãĤī": 3059,
      "ãĥ«ãĥł": 3060,
      "ãģ©ãģ¡ãĤī": 3061,
      "ä¸Ģèĩ´": 3062,
      "çĽŁ": 3063,
      "å¤§ãģª": 3064,
      "ãģ«ãĤĪãĤĮãģ°": 3065,
      "åĽ½åĨħ": 3066,
      "2010": 3067,
      "ãĥĨãĥ³": 3068,
      "æĢ§ãģĮ": 3069,
      "éĸĵãģ«": 3070,
      "åĬĽãģ¯": 3071,
      "ãģĿãģ®ãĤĪãģĨãģª": 3072,
      "æľĢå¤§": 3073,
      "å°ıãģķãģĦ": 3074,
      "ãĥıãĤ¤": 3075,
      "ãĤ¹ãĤ¿ãĤ¤ãĥ«": 3076,
      "ç¯ī": 3077,
      "è¾¼ãģ¿": 3078,
      "erline": 3079,
      "åĸĦ": 3080,
      "åĮºåĪ¥": 3081,
      "ãģ®æ§ĭéĢł": 3082,
      "å°ĤéĸĢ": 3083,
      "illa": 3084,
      "Ġãģ§ãģĤãĤĭ": 3085,
      "Ġof": 3086,
      "ãĤĴåıĸ": 3087,
      "ãģ®åĵ": 3088,
      "ãģ®åĴĮ": 3089,
      "ãģĤãģŁãĤĬ": 3090,
      "ãĤĤãģ£": 3091,
      "ãĤĤçĻ»åł´": 3092,
      "è¨İ": 3093,
      "æĹ¢": 3094,
      "åºĹ": 3095,
      "ä¾µ": 3096,
      "è«ĩ": 3097,
      "æ¸ħ": 3098,
      "æĹ¥æľ¬ãģ®": 3099,
      "æĹ¥æľ¬ãģ§ãģ¯": 3100,
      "æ¼«çĶ»å®¶": 3101,
      "æ®»": 3102,
      "è¨Ńè¨Ī": 3103,
      "çĽ´ç·ļ": 3104,
      "éĽ»åŃĲãģĮ": 3105,
      "å¿ħè¦ģãģĮãģĤãĤĭ": 3106,
      "ç¿Į": 3107,
      "ãģ®ä¸Ģéĥ¨": 3108,
      "æŁĵ": 3109,
      "2021": 3110,
      "ãĥĴãĥĥãĥĪ": 3111,
      "ãģĻãĤĭãģĵãģ¨ãģĮãģ§ãģįãĤĭ": 3112,
      "ãĤĴãĤĤãģ¤": 3113,
      "å®ŁéļĽãģ«ãģ¯": 3114,
      "ãģ§ãģĤãĤĮãģ°": 3115,
      "å¸ĿåĽ½": 3116,
      "ãģªãģĳãĤĮãģ°ãģªãĤīãģªãģĦ": 3117,
      "ãĥīãĥ©ãĥŀåĮĸ": 3118,
      "ãģĿãģĵãģ§": 3119,
      "åıĸå¼ķæīĢ": 3120,
      "ãĤ³ãĥ³ãĥĨãĥ³ãĥĦ": 3121,
      "ãģ®çĬ¶": 3122,
      "Google": 3123,
      ")\\": 3124,
      "]]": 3125,
      "zilla": 3126,
      "èĶ": 3127,
      "è°·": 3128,
      "Ġï¼Ī": 3129,
      "ĵãĤ¹": 3130,
      "ãģŁãĤī": 3131,
      "ãĥ¼ãģ®": 3132,
      "ãģĤãĤī": 3133,
      "ãģĭãģļ": 3134,
      "ãĤ¹ãĤ«": 3135,
      "åĬ©": 3136,
      "é¡ĺ": 3137,
      "çĽĬ": 3138,
      "ãĥŃãĥľ": 3139,
      "ãĤĵãģª": 3140,
      "åĮĸãģĹãģŁ": 3141,
      "ãĥĹãĥ¬": 3142,
      "ãģ®ç©": 3143,
      "ãģ®çķ": 3144,
      "èĩ³": 3145,
      "ãĥ¡ãĤ¤ãĥ³": 3146,
      "åĨĬ": 3147,
      "çı¾å®Ł": 3148,
      "éļľ": 3149,
      "çĤ¹ãģ§": 3150,
      "é«ĺçŃī": 3151,
      "ãĥ¼ãĥ«ãĥī": 3152,
      "ãĥķãĤ§": 3153,
      "ç¢ºãģ«": 3154,
      "çĽ¸æīĭ": 3155,
      "ãģ®æķĻ": 3156,
      "ãĥªãĤ¹ãĤ¯": 3157,
      "ãģ©ãģĨãģĭ": 3158,
      "ãģ®æĶ¿": 3159,
      "å¤±æ¥Ń": 3160,
      "ãĤµãĥ¼ãĥĵãĤ¹": 3161,
      "overline": 3162,
      "ãĤħãģĨ": 3163,
      "ãģ®æĢ§è³ª": 3164,
      "ãģ®ç¨®é¡ŀ": 3165,
      "çį²å¾Ĺ": 3166,
      "Wi": 3167,
      "ima": 3168,
      "oc": 3169,
      "ut": 3170,
      "°ãĤĬ": 3171,
      "æ©ĭ": 3172,
      "èħ": 3173,
      "éİ": 3174,
      "ãĤĤãģĨ": 3175,
      "ãģĹãģ¦ãģ¿": 3176,
      "å¹ħ": 3177,
      "ãģķãĤĮãģªãģĦ": 3178,
      "ãĥĥãĤ·ãĥ¥": 3179,
      "æľ¬çķª": 3180,
      "æĢ¥": 3181,
      "åĭħ": 3182,
      "æĸĩæĽ¸": 3183,
      "ãģĹãģ¦ãģĦãģ¾ãģĻ": 3184,
      "ãģ«ãģªãģ£ãģ¦": 3185,
      "è²¸": 3186,
      "äºĭå®Ł": 3187,
      "æ¼«çĶ»èªĮ": 3188,
      "ãĥįãĤ¹": 3189,
      "ãĤ»ãĥ³ãĤ¿ãĥ¼": 3190,
      "å¿ľçĶ¨": 3191,
      "éĩĳèŀį": 3192,
      "è¿ĳå¹´": 3193,
      "çĶ£æ¥Ń": 3194,
      "ãģķãģĽãģŁ": 3195,
      "ç¯ĦåĽ²": 3196,
      "æĶ¾å°Ħ": 3197,
      "ä»»æĦı": 3198,
      "æĸ¹åĲĳãģ«": 3199,
      "ãĤ«ãĥ¬ãĥ³": 3200,
      "é»Ħ": 3201,
      "åįģåĪĨ": 3202,
      "æĻ®éĢļ": 3203,
      "æĴ®å½±": 3204,
      "éĿ©åĳ½": 3205,
      "ãĤĴæºĢãģŁãģĻ": 3206,
      ")+": 3207,
      "31": 3208,
      "80": 3209,
      "AT": 3210,
      "IS": 3211,
      "ãģ®è¨Ģèªŀ": 3212,
      "ãģ«ãģĹãģŁ": 3213,
      "ãĤĴå¤ī": 3214,
      "ãģ¦ãģ¯": 3215,
      "ãģŁãģªãģĦ": 3216,
      "ãģ®å¥": 3217,
      "ãĥ¼ãĥ¬": 3218,
      "ãĥ¼ãĥķ": 3219,
      "äºķ": 3220,
      "å¹´ãģ¾ãģ§": 3221,
      "ãĤ¤ãĤ¢": 3222,
      "ä½ľçĶ¨": 3223,
      "ãĥ³ãĥģ": 3224,
      "ãģłãģ¨": 3225,
      "æĪ»": 3226,
      "éĽ»åľ§": 3227,
      "å¯Į": 3228,
      "ä¸Ńå¤®": 3229,
      "ãģĤãĤĬãģ¾ãģĽãĤĵ": 3230,
      "ä½¿ãģĦ": 3231,
      "è¨ĺäºĭ": 3232,
      "ãģĿãĤĮãģĮ": 3233,
      "ãģ«ãģĬãģĦãģ¦ãĤĤ": 3234,
      "ãģ®åħ¥": 3235,
      "2015": 3236,
      "ãģ®åĲĪ": 3237,
      "ãĥ¯ãĥ¼ãĤ¯": 3238,
      "2022": 3239,
      "ç©ºéĸĵ": 3240,
      "ç¸®": 3241,
      "è¾¼ãĤĢ": 3242,
      "å®īå®ļ": 3243,
      "çĿ£": 3244,
      "ãĤ¤ãĥ³ãĤ¿ãĥ¼ãĥįãĥĥãĥĪ": 3245,
      "ãĤĴæ±ĤãĤģãĤĭ": 3246,
      "é»Ĵ": 3247,
      "over": 3248,
      "ãģ®å¾®": 3249,
      "ãģ®æ¨©": 3250,
      "ãģķãĤĮãģ¦ãģĦãģªãģĦ": 3251,
      "åĨĻçľŁ": 3252,
      "ãĤĴæıĲä¾Ľ": 3253,
      "è¢«": 3254,
      "ct": 3255,
      "id": 3256,
      "pl": 3257,
      "up": 3258,
      "©å£Ĭ": 3259,
      "èĻ": 3260,
      "Ġãģ¨ãģĦãģĨ": 3261,
      "Ľ²": 3262,
      "ãģ®ä¿ĿèŃ·æľŁéĸĵ": 3263,
      "ãģ¨ãģ¨ãĤĤãģ«": 3264,
      "ãģ¯ãģªãģĦ": 3265,
      "ãģĦãģ£ãģŁ": 3266,
      "ãģ§è¡¨": 3267,
      "ãĥ¼ãģ¯": 3268,
      "ãĥ³ãĤ¿": 3269,
      "ãģ®å¢": 3270,
      "ãģ®å¾Į": 3271,
      "ãģĤãĤĮãģ°": 3272,
      "ãģ®æµģ": 3273,
      "ãĥ©ãĤ¹": 3274,
      "çīĩ": 3275,
      "ãģ¤ãģ¤": 3276,
      "ãĥĥãĤ»": 3277,
      "ãģĭãĤīãģªãĤĭ": 3278,
      "çĽĽ": 3279,
      "æĹ¥ç¨ĭ": 3280,
      "æ³ķãģ¯": 3281,
      "æ³ķå¾ĭ": 3282,
      "ä¸Ńãģ«": 3283,
      "ãģĹãģ¦ãģĦãģı": 3284,
      "ãĥŀãĥ¼ãĤ¯": 3285,
      "æĻĤæľŁ": 3286,
      "éŁ³ç¬¦": 3287,
      "ãĤŃãĤ¹ãĥĪ": 3288,
      "é«ĺãģķ": 3289,
      "å°ıãģķ": 3290,
      "çµ±ä¸Ģ": 3291,
      "åı¯èĥ½ãģª": 3292,
      "ãģ®å¼·": 3293,
      "çŃĶãģĪ": 3294,
      "ãģĶãģ¨ãģ«": 3295,
      "ãĤĴä½¿ãģ£ãģ¦": 3296,
      "ä»¥ä¸ĭãģ®": 3297,
      "æ¤ľç´¢ãĤ¨ãĥ³ãĤ¸ãĥ³": 3298,
      "ãĤĵãģ§ãģĦãĤĭ": 3299,
      "èµ¤å¡ļä¸įäºĮå¤«": 3300,
      "ç±į": 3301,
      "ãģ®åĪĨéĩİ": 3302,
      "åħ±éĢļãĥĨãĤ¹ãĥĪ": 3303,
      "ãĥŀãĥ³ãĤ¬": 3304,
      "ç¦ģ": 3305,
      "ãĤĴç¤ºãģĻ": 3306,
      "æĮ¯åĭķ": 3307,
      "ãģ®æĹ¥æľ¬": 3308,
      "å®£è¨Ģ": 3309,
      "ãĤ¤ãĥ³ãĥķãĥ¬": 3310,
      "ãĥŃãĥľãĥĥãĥĪ": 3311,
      "(\\": 3312,
      ")ãĢĤ": 3313,
      "Web": 3314,
      "ss": 3315,
      "Ġq": 3316,
      "Ġï¼ī": 3317,
      "ãĥ²": 3318,
      "ãģĦãģ§": 3319,
      "ãģĮå¾Ĺ": 3320,
      "ï¼ĭ": 3321,
      "ãģ¾ãĤĮ": 3322,
      "ãĤĴæŃ": 3323,
      "äººçī©": 3324,
      "ãģ¨ãģĦãģĨãģĵãģ¨": 3325,
      "å¼ıãģ¯": 3326,
      "å·»": 3327,
      "æİĽ": 3328,
      "æ±Ł": 3329,
      "åł´åĲĪãĤĤãģĤãĤĭ": 3330,
      "ãĥĬãĥĪ": 3331,
      "çŃīãģĹãģĦ": 3332,
      "ãĤ¬ãĥ³ãĥĢãĥł": 3333,
      "ãĤ±ãĥ¼ãĤ·ãĥ§ãĥ³": 3334,
      "çĽ¸æĴ": 3335,
      "åĽŀè·¯": 3336,
      "ä¸īè§Ĵå½¢": 3337,
      "åĳ½é¡Į": 3338,
      "æİ¥ç¶ļ": 3339,
      "2023": 3340,
      "è¨¼åĪ¸": 3341,
      "å¸Ĥåł´": 3342,
      "ãĤŃãĥ£ãĥ©ãĤ¯": 3343,
      "èı¯": 3344,
      "ç¶Ļç¶ļ": 3345,
      "éĤ¦": 3346,
      "ãģ®æ©Łèĥ½": 3347,
      "çĽ¸æĴ²": 3348,
      "foo": 3349,
      "ns": 3350,
      "op": 3351,
      "ow": 3352,
      "rm": 3353,
      "sum": 3354,
      "ub": 3355,
      "Î¼": 3356,
      "ãģ«ç§»": 3357,
      "ãģĦãĤı": 3358,
      "ãģĦãģļãĤĮ": 3359,
      "ãĤ¤ãĤª": 3360,
      "ãģıãģªãĤĭ": 3361,
      "ãĤ¯ãĥª": 3362,
      "ãĤ¯ãĤ·ãĥ§ãĥ³": 3363,
      "ãĤĴæĦıåĳ³": 3364,
      "æĹ©": 3365,
      "çī©ä¾¡": 3366,
      "ãģłãģĭãĤī": 3367,
      "ä¾¿": 3368,
      "åĭ¢": 3369,
      "åįļ": 3370,
      "ãĤ¸ãĤ¿ãĥ«": 3371,
      "ãĥŀãĤ¹": 3372,
      "éĻº": 3373,
      "åĲĮæĻĤãģ«": 3374,
      "ç·´": 3375,
      "è²·": 3376,
      "å¤ļæķ°": 3377,
      "ãĤµãĥ³": 3378,
      "åİŁä½ľ": 3379,
      "ä¸ĭãģ«": 3380,
      "éķ·ãģĦ": 3381,
      "math": 3382,
      "ãĥļãĥĢãĥ«": 3383,
      "ãĥľãĥ¼ãĥī": 3384,
      "æħ£": 3385,
      "çµ±è¨Ī": 3386,
      "ãģ£ãģ¦ãģĦãģ¾ãģĻ": 3387,
      "è³ĩæľ¬": 3388,
      "åıĹé¨ĵçĶŁ": 3389,
      "ãĥ¼ãĥĨãĤ£": 3390,
      "æ°¸éĩİ": 3391,
      "æİ²è¼ī": 3392,
      "Mozilla": 3393,
      "DNA": 3394,
      "ND": 3395,
      "if": 3396,
      "Ĥ¹": 3397,
      "ãģ®ãģ§ãģĻ": 3398,
      "ãĤĴèĢĥãģĪãĤĭ": 3399,
      "å®¢": 3400,
      "ãĥ«ãģ®": 3401,
      "åŃ¦çĶŁ": 3402,
      "å¾ģ": 3403,
      "æĸĩçĮ®": 3404,
      "2020": 3405,
      "åĩºãģĹãģŁ": 3406,
      "ãģĹãģ¦ãģĦãģªãģĦ": 3407,
      "ãĥĩãĤ¸ãĤ¿ãĥ«": 3408,
      "éĥ¨ãģ®": 3409,
      "è²¬": 3410,
      "å½¢ãģ§": 3411,
      "å±Ģ": 3412,
      "å·±": 3413,
      "å°ĳãģĹ": 3414,
      "å°ĳãģªãģı": 3415,
      "çī¹æĴ®": 3416,
      "æ¬¡æĸ¹ç¨ĭå¼ı": 3417,
      "è¿ĳä»£": 3418,
      "åı¯èĥ½ãģ§ãģĤãĤĭ": 3419,
      "éģĭåĭķéĩı": 3420,
      "ãģ®å°İ": 3421,
      "ãĥ©ãĤ¤ãĤº": 3422,
      "çĹĩ": 3423,
      "div": 3424,
      "ãĤµãĥ¼ãĥĲ": 3425,
      "ãģ®æ°ĳ": 3426,
      "ãģ®åĭķ": 3427,
      "HTML": 3428,
      "ãģ®å¾®åĪĨ": 3429,
      "'(": 3430,
      "\\\\": 3431,
      "Ġ9": 3432,
      "Ġ|": 3433,
      "Ġãģ§ãģĻ": 3434,
      "ãģ®ä¸»": 3435,
      "ãĤĴèµ·ãģĵ": 3436,
      "ãģªãģĹ": 3437,
      "å®¤": 3438,
      "ãģ®æ¤ľ": 3439,
      "åŃ¦åķı": 3440,
      "ä½ľæ¥Ń": 3441,
      "ãĤĴæĺ": 3442,
      "å¾Ħ": 3443,
      "äººé¡ŀ": 3444,
      "åĲĪçĲĨ": 3445,
      "è¡Įåĭķ": 3446,
      "ãĤ·ãĥ¼": 3447,
      "æĸ¹ãĤĴ": 3448,
      "ãģ¨ãģĹãģ¦ãĤĤ": 3449,
      "ãģ®ç¬": 3450,
      "æ³ķåīĩ": 3451,
      "è«¾": 3452,
      "ãĥģãĤ§": 3453,
      "ãĥĲãĥ³ãĥī": 3454,
      "çĤ¹ãģĮ": 3455,
      "çµĲå©ļ": 3456,
      "èµ°": 3457,
      "åł´åĲĪãģ«ãģ¯": 3458,
      "ãģ¨ãģįãģ¯": 3459,
      "ä¸ĢèĪ¬çļĦãģª": 3460,
      "ãģ¨è¨ĢãģĪãĤĭ": 3461,
      "ãĤĴæİ¡çĶ¨": 3462,
      "éĥ½å¸Ĥ": 3463,
      "ãģ®æ¥½": 3464,
      "ãģ®æ¼«çĶ»": 3465,
      "ãĤĴæĶ¯": 3466,
      "çĪ¶": 3467,
      "çĽ£çĿ£": 3468,
      "æĪĲãĤĬç«ĭãģ¤": 3469,
      "ä¸ŃæĢ§åŃĲ": 3470,
      "ãĥĬãĥĪãĥªãĤ¦ãĥł": 3471,
      "27": 3472,
      "pr": 3473,
      "Îµ": 3474,
      "Ġthe": 3475,
      "ãģ®éħį": 3476,
      "ãĤĭãģĵãģ¨ãģĮ": 3477,
      "ãģ¨ãĤĬ": 3478,
      "ãģ¨è¦ĭ": 3479,
      "ãģ®å¿": 3480,
      "éĢĶ": 3481,
      "ãĥĥãĥĦ": 3482,
      "ãģĳãģĦ": 3483,
      "æķ°åĢ¤": 3484,
      "åĲĪçī©": 3485,
      "ãĢıãĢİ": 3486,
      "ãģ¨ãģĦãģĨæĦıåĳ³": 3487,
      "æ³ķãģĮ": 3488,
      "æĢ§ãģ®": 3489,
      "ãģĵãĤĮãģĮ": 3490,
      "ind": 3491,
      "éĢļä¿¡": 3492,
      "æķĻç§ĳæĽ¸": 3493,
      "æĸ°ãģŁ": 3494,
      "æ¯Ľ": 3495,
      "ãĥĢãĤ¦": 3496,
      "åĪĿãĤģãģ¦": 3497,
      "ç¤¾ä¼ļä¸»ç¾©": 3498,
      "å¹³åĿĩ": 3499,
      "ãĤĴçĶ¨ãģĦãģŁ": 3500,
      "ãĤĴåıĹãģĳãĤĭ": 3501,
      "éĽ£ãģĹãģĦ": 3502,
      "éĽ£æĺĵ": 3503,
      "ç¹°ãĤĬ": 3504,
      "éĢĨãģ«": 3505,
      "ãĤ¼ãĥŃ": 3506,
      "æĨ¶": 3507,
      "ãģ®éķ·ãģķ": 3508,
      "ãģ®åĪ©çĶ¨": 3509,
      "ãģ®åįĺä½į": 3510,
      "è²©å£²": 3511,
      "sin": 3512,
      "çł´": 3513,
      "ãģ®ãģ«": 3514,
      "ãģ«å¾ĵ": 3515,
      "ãģĮçĻºçĶŁ": 3516,
      "ãģĭãĤĮãĤĭ": 3517,
      "ãģ¾ãģł": 3518,
      "åħĲ": 3519,
      "ãģ®æĭ": 3520,
      "ãĤ¢ãĥĹãĥª": 3521,
      "åŃ¦éĥ¨": 3522,
      "åŃ¦ç§ĳ": 3523,
      "æķħ": 3524,
      "ãĥĥãĤ°": 3525,
      "å¼¾": 3526,
      "ãģªãģ©ãĤĤ": 3527,
      "åľĭ": 3528,
      "ãĤ³ãĥŃ": 3529,
      "ãĥĨãĥ¼ãĥĸ": 3530,
      "ãģ®ç¥": 3531,
      "ãĤĤãģ®ãģ§": 3532,
      "ç¾¤": 3533,
      "è¨ĺæĨ¶": 3534,
      "äºĭæĥħ": 3535,
      "ä¸ĸä»£": 3536,
      "ãĥĲãĥ¼": 3537,
      "æ¬²": 3538,
      "æľŁæĹ¥ç¨ĭ": 3539,
      "ãĥİãĥ¼ãĥī": 3540,
      "éĩıãĤĴ": 3541,
      "åĲįè©ŀ": 3542,
      "ãĥĬãĥ«": 3543,
      "tic": 3544,
      "2006": 3545,
      "ç£ģæ°Ĺ": 3546,
      "ãģ®åĪ¶": 3547,
      "åıįå¯¾": 3548,
      "ãģ®åħĥ": 3549,
      "ä¹Ŀ": 3550,
      "çĬ¶æ³ģ": 3551,
      "å°ĳå¥³æ¼«çĶ»èªĮ": 3552,
      "ãĥķãĤ©ãĥ«": 3553,
      "ãĤ¸ãĥ£ãĥ³": 3554,
      "æ®µéļİ": 3555,
      "éľĢ": 3556,
      "ãģ®å®Łé¨ĵ": 3557,
      "ãĤ¸ãĤ§ãĤ¯ãĥĪ": 3558,
      "ãģłãģĳãģ§ãģªãģı": 3559,
      "ãģ®ç¯ĦåĽ²": 3560,
      "ãģ®åĵ²åŃ¦": 3561,
      "åĭħèªŀ": 3562,
      "90": 3563,
      "con": 3564,
      "ki": 3565,
      "ymb": 3566,
      "âĨĴ": 3567,
      "å¨": 3568,
      "Ġ#": 3569,
      "ĳç´Ħ": 3570,
      "ãģ«ãģĹãģ¦": 3571,
      "ãģĦãĤį": 3572,
      "ãģ®åĤ": 3573,
      "ãģĻãĤĭãģĭ": 3574,
      "ãĤ¤ãĥĻ": 3575,
      "ãĥ«ãĤº": 3576,
      "ãĥ©ãĥ³": 3577,
      "äººãģ«": 3578,
      "ãĥ³ãĥĲ": 3579,
      "é¡ķ": 3580,
      "ãģªãģ©ãģ«": 3581,
      "å¤§éĻ¸": 3582,
      "ãĤ«ãĥª": 3583,
      "ãĥĨãĥ¼ãĥŀ": 3584,
      "æľĪãģ«ãģ¯": 3585,
      "è«ĸçĲĨ": 3586,
      "è¨Ģèªŀãģ¯": 3587,
      "ãģ«ãĤĪãģ£ãģ¦ãģ¯": 3588,
      "çĽ®æĮĩ": 3589,
      "çī¹åĪ¥": 3590,
      "æľĢé«ĺ": 3591,
      "ãĥįãĥŀ": 3592,
      "æ©Łæ¢°": 3593,
      "ãĥĿãĥ¼ãĥĪ": 3594,
      "1971": 3595,
      "ãĤĴæĮģãģ£ãģ¦ãģĦãĤĭ": 3596,
      "æĭ¬": 3597,
      "ello": 3598,
      "äº¤æµģ": 3599,
      "äººæ°Ĺãģ¨ãģªãĤĬ": 3600,
      "ä½İãģĦ": 3601,
      "åĽ£ä½ĵ": 3602,
      "ãģĵãģĨãģĹãģŁ": 3603,
      "åĥįãģı": 3604,
      "ãģ®æĿ¡": 3605,
      "ç·ıåĲĪ": 3606,
      "è¨±è«¾": 3607,
      "éĿĴå¹´": 3608,
      "è¿½åĬł": 3609,
      "ãĤ¢ãĤ¯ãĤ·ãĥ§ãĥ³": 3610,
      "é¦¬": 3611,
      "éŃĶ": 3612,
      "ç°¡åįĺãģ«": 3613,
      "å´©å£Ĭ": 3614,
      "ãģ®æĺł": 3615,
      "ãĥ¼ãĥĩãĤ£": 3616,
      "é«ĺçŃīåŃ¦æł¡": 3617,
      "éĽ£æĺĵåº¦": 3618,
      "ymbol": 3619,
      "Ġ)": 3620,
      "ãģ«åĬł": 3621,
      "ãĤĴåĬł": 3622,
      "åĲ¸": 3623,
      "ãĤ¤ãĥī": 3624,
      "åŃ¦ãģ¯": 3625,
      "ãĤ¯ãĤ¹": 3626,
      "ç´¹": 3627,
      "éģ¿": 3628,
      "ãģĬãģĵ": 3629,
      "å¾¡": 3630,
      "åĲĪæĪĲ": 3631,
      "å¯Ħ": 3632,
      "åį´": 3633,
      "åįĥ": 3634,
      "åĭķçī©": 3635,
      "ãĤ¦ãĤ¹": 3636,
      "éł»": 3637,
      "å¤ļæ§ĺ": 3638,
      "ç¨İ": 3639,
      "å¥³åŃĲ": 3640,
      "æ¬ł": 3641,
      "ãĥĵãĤ¢": 3642,
      "éĢ£åĲĪ": 3643,
      "ãĤ»ãĥ³ãĤ¹": 3644,
      "æħ®": 3645,
      "éĩĳå±ŀ": 3646,
      "è¨Ńç«ĭ": 3647,
      "2016": 3648,
      "2017": 3649,
      "é£Ľ": 3650,
      "é¤Ĭ": 3651,
      "å¡©": 3652,
      "ãģ¨è¨ĢãģĨ": 3653,
      "ãģ®åĽ³": 3654,
      "ãĥķãĤ£ãĥ«ãĥł": 3655,
      "Ġde": 3656,
      "ä¸¡åĽ½": 3657,
      "ook": 3658,
      "ãĥ´ãĤ¡": 3659,
      "æĶ¹æŃ£": 3660,
      "å®ŁéļĽãģ«": 3661,
      "ãģ®æĢĿ": 3662,
      "èªĺéĽ»": 3663,
      "ãģ®åĬĽ": 3664,
      "æĶ¯éħį": 3665,
      "...": 3666,
      "æ¿Ģ": 3667,
      "ãģ®èµ·": 3668,
      "ãģ«éĸ¢ãģĹãģ¦ãģ¯": 3669,
      "ãĤ®ãĥªãĤ·ãĤ¢": 3670,
      "ãģ®æ¯Ķ": 3671,
      "cap": 3672,
      "ds": 3673,
      "km": 3674,
      "æį": 3675,
      "éº": 3676,
      "Ġ}": 3677,
      "ħå½ĵ": 3678,
      "ãĤ¥": 3679,
      "ãĤĭãģĵãģ¨": 3680,
      "ãĢĤãĢį": 3681,
      "ãĤĴè¡¨": 3682,
      "ãģĮçĻº": 3683,
      "ãģªãģ®ãģĭ": 3684,
      "ãģ¾ãģĹãģĦ": 3685,
      "ãģĻãĤĭãģ«ãģ¯": 3686,
      "ãĤ¹ãĥĨãĤ£": 3687,
      "ï¼ĪãĢĮ": 3688,
      "åıĭ": 3689,
      "åħµ": 3690,
      "åħļ": 3691,
      "ãģ®æ´": 3692,
      "ãģ®æ¶Ī": 3693,
      "ãģĭãĤīãĤĤ": 3694,
      "åĪĨéĽ¢": 3695,
      "åĪĨæŀĲ": 3696,
      "è¡ĮãģĨ": 3697,
      "ãĥ¬ãĤ¯ãĥĪ": 3698,
      "æ°ı": 3699,
      "æĪ¸": 3700,
      "çĶ»éĿ¢": 3701,
      "ãģ®èĥ": 3702,
      "ãģ®çĦ": 3703,
      "ä¸Ńãģ§": 3704,
      "å®Łè³ª": 3705,
      "å¤īãĤı": 3706,
      "ãģĪãĤĭãģ¨": 3707,
      "çŁ¥çļĦ": 3708,
      "ãĥĵãĥĩãĤª": 3709,
      "æ¬¡åħĥ": 3710,
      "ãĥĶãĥ¼": 3711,
      "æīĭæ®µ": 3712,
      "åıĹãģĳ": 3713,
      "åĨħãģ«": 3714,
      "ãģ¨åĳ¼ãģ³": 3715,
      "2004": 3716,
      "ç½®æıĽ": 3717,
      "å°İç·ļ": 3718,
      "éģİç¨ĭ": 3719,
      "ãģ®åĲĮ": 3720,
      "è¡ĮåĪĹå¼ı": 3721,
      "ãĥģãĥ£ãĥ¼ãĥĪ": 3722,
      "æĮĩæĳĺ": 3723,
      "ãĥĴãĥĪ": 3724,
      "äººæ°Ĺãģ¨ãģª": 3725,
      "åĶĲ": 3726,
      "ãģ®æĿ±": 3727,
      "åĽºæľī": 3728,
      "æĵįä½ľ": 3729,
      "ãģ®å¤ļãģı": 3730,
      "æĭ¡å¤§": 3731,
      "ãģĭãĤĤãģĹãĤĮãģªãģĦ": 3732,
      "æĸĩèĦĪèĩªçĶ±": 3733,
      "åĬ´åĥį": 3734,
      "ãģ®çĬ¶æħĭ": 3735,
      "ãģĦãĤıãĤĨãĤĭ": 3736,
      "ç´¹ä»ĭ": 3737,
      ",\\": 3738,
      "24": 3739,
      "::": 3740,
      "==": 3741,
      "AB": 3742,
      "OS": 3743,
      "PC": 3744,
      "ld": 3745,
      "to": 3746,
      "é®": 3747,
      "Ġl": 3748,
      "ãģ®è¨Īç®Ĺ": 3749,
      "ãģ®éĥ¨åĪĨ": 3750,
      "ãĤĴãģĹãģ¦ãģĦãĤĭ": 3751,
      "ãģĮé«ĺ": 3752,
      "ãģĮå¤ļãģı": 3753,
      "ãģªãģľ": 3754,
      "ãģĻãĤĭåł´åĲĪ": 3755,
      "ãģ¦ãģĦãģı": 3756,
      "ãģ¦ãģĦãģªãģĦ": 3757,
      "çļ®": 3758,
      "å°¾": 3759,
      "åĲĪè¡Ĩ": 3760,
      "åĪĨæķ°": 3761,
      "ãĥ³ãĥĶ": 3762,
      "ãĤıãģªãģĦ": 3763,
      "çī©èªŀ": 3764,
      "çī©çĲĨåŃ¦": 3765,
      "éĽ»ä½į": 3766,
      "è¨ĢãģĨ": 3767,
      "è©²": 3768,
      "ãģĿãģ®ãģ¾ãģ¾": 3769,
      "ers": 3770,
      "ç¶Ń": 3771,
      "ãĥĲãĥ©": 3772,
      "æľŁå¾ħ": 3773,
      "è£Ĥ": 3774,
      "è¨ĪçĶ»": 3775,
      "åįĺç´Ķ": 3776,
      "çĽ¸äºĴ": 3777,
      "ãģ®åĪĿ": 3778,
      "ãĥ¼ãĤ¸ãĥ§": 3779,
      "ç´Ģåħĥ": 3780,
      "ãĥĶãĤ¢ãĥİãģ¯": 3781,
      "èģ´": 3782,
      "éłħçĽ®": 3783,
      "1960": 3784,
      "çĭ¬èĩª": 3785,
      "éģ©åĪĩ": 3786,
      "ç§»åĭķ": 3787,
      "ãĤĴæ±º": 3788,
      "åķĨåĵģ": 3789,
      "ãģ®åĮ»": 3790,
      "ãģ®æ¼Ķ": 3791,
      "ãĤ¸ãĥ¥ãĥ¼ãĥ«": 3792,
      "print": 3793,
      "ãĤ¤ãĥĻãĥ³ãĥĪ": 3794,
      "ãģ®æĺłçĶ»": 3795,
      "åĲĪè¡ĨåĽ½": 3796,
      "35": 3797,
      "OM": 3798,
      "Sm": 3799,
      "ah": 3800,
      "cos": 3801,
      "ox": 3802,
      "rt": 3803,
      "un": 3804,
      "´åı²": 3805,
      "Ġin": 3806,
      "ĥħ": 3807,
      "ãģ®ãĥĳ": 3808,
      "ãģ®ä½ľåĵģ": 3809,
      "ãģ«ãģĤ": 3810,
      "ãĤĴè¶ħ": 3811,
      "ãģĻãģĲ": 3812,
      "ãģĻãģ¹ãģį": 3813,
      "ä¸¸": 3814,
      "ãĥ³ãģ¨": 3815,
      "ãģĭãģ©ãģĨãģĭ": 3816,
      "ãģ£ãģ": 3817,
      "ãģĻãĤĭæĸ¹æ³ķ": 3818,
      "ãĥ¼ãĥĬ": 3819,
      "ãĤ¹ãģ¯": 3820,
      "å®ĭ": 3821,
      "åı¸": 3822,
      "è¡Ľ": 3823,
      "ãĥ»ãĥ»": 3824,
      "æķĹ": 3825,
      "ãĤ¯ãĤ©": 3826,
      "ãģĪãģªãģĦ": 3827,
      "ãĤĦãĤĦ": 3828,
      "ãĥĥãĤ«": 3829,
      "æĿ¾": 3830,
      "åľı": 3831,
      "æĸ¹ãģ¯": 3832,
      "ãĥ¬ãĤ³ãĥ¼ãĥī": 3833,
      "ãģ¨ãģĦãģĨè¨Ģèĳī": 3834,
      "æĺŁ": 3835,
      "ãģ®èī": 3836,
      "ãĥĨãĤŃãĤ¹ãĥĪ": 3837,
      "ä½ĵåĪ¶": 3838,
      "æīķ": 3839,
      "å¥ĩ": 3840,
      "çķĻ": 3841,
      "ä¸Ĭè¨ĺ": 3842,
      "ä¼ļåł´": 3843,
      "äºĭãģĮ": 3844,
      "æ¸©": 3845,
      "ãĤµãĥ¼": 3846,
      "ãĥģãĥĥãĤ¯": 3847,
      "æİĪ": 3848,
      "è§£æŀĲ": 3849,
      "è»½": 3850,
      "ãĥĻãĥ¼ãĤ¹": 3851,
      "æº¶": 3852,
      "åĳ¼ãģ³": 3853,
      "åĨħéĥ¨": 3854,
      "ãĥļãĥĩãĤ£ãĤ¢": 3855,
      "ãĤ¬ãĥ¬ãĥĥãĥĪ": 3856,
      "ç£ģæĢ§": 3857,
      "éļĽãģ«": 3858,
      "éģĵè·¯": 3859,
      "èĭ¥": 3860,
      "åĵ²åŃ¦ãģ¯": 3861,
      "ç¿»": 3862,
      "ãģ®ä¸Ńãģ«": 3863,
      "é£²": 3864,
      "ä½ķãģĭ": 3865,
      "å»ĥ": 3866,
      "ãģ®åıį": 3867,
      "2025": 3868,
      "åĲĦåĽ½": 3869,
      "ãģ®åĢĭ": 3870,
      "èī²ä½ĵ": 3871,
      "ç¸¾": 3872,
      "ãģĮåĩºé¡Į": 3873,
      "æ£Ħ": 3874,
      "åħ¨ãģ¦ãģ®": 3875,
      "ãĤ«ãĥ¬ãĥ³ãģ¯": 3876,
      "ãĤĴä½¿çĶ¨ãģĹãģ¦": 3877,
      "ãģ®å¤īåĮĸ": 3878,
      "ãĤ½ãĥķãĥĪãĤ¦ãĤ§ãĤ¢": 3879,
      "ãģ®æĮĩ": 3880,
      "ãģ®åħ¬å¼ı": 3881,
      "ãģ®ç·ı": 3882,
      "ãĥŀãĥ¼ãĤ¬ãĥ¬ãĥĥãĥĪ": 3883,
      "èĬ¸è¡ĵ": 3884,
      "ä¾ĿåŃĺ": 3885,
      "ãĤ¦ãĤ£ãĤŃãĥļãĥĩãĤ£ãĤ¢": 3886,
      "èĥĮæĻ¯": 3887,
      "ãģ®ç©į": 3888,
      "ãģ®æĶ¿æ²»": 3889,
      "é®®": 3890,
      "ç´Ģåħĥåīį": 3891,
      "22": 3892,
      "bb": 3893,
      "mp": 3894,
      "}=": 3895,
      "ªĴ": 3896,
      "Ġ^": 3897,
      "Ġge": 3898,
      "ãģ®ãĤ³": 3899,
      "ãģ®éŁ³æ¥½": 3900,
      "ãģ«åĪĨ": 3901,
      "ãģ¨åĲĮ": 3902,
      "ãģĮæĪĲç«ĭ": 3903,
      "ãĤīãģı": 3904,
      "å¤ı": 3905,
      "åı¥": 3906,
      "åħ«": 3907,
      "ãĤ¤ãĥĬãĥ¼": 3908,
      "ãģ®æı": 3909,
      "ãģ¦ãģĦãģ£ãģŁ": 3910,
      "åĽ°": 3911,
      "ãģ©ãģ®ãĤĪãģĨãģª": 3912,
      "ãĥĥãĤ·ãĥ§ãĥ³": 3913,
      "ãģĭãĤīãģ§ãģĤãĤĭ": 3914,
      "å¤§åķı": 3915,
      "å¤§æĪ¦": 3916,
      "ãĥŃãĥĥãĤ¯": 3917,
      "ãĥŃãĥ¼ãĥŀ": 3918,
      "ãĥķãĥª": 3919,
      "ãģ®è£": 3920,
      "æ³ķäºº": 3921,
      "ãĤ¦ãĤ¤ãĥ«": 3922,
      "ãĥ¡ãĤ«": 3923,
      "çĻºéŁ³": 3924,
      "åĲĮå¹´": 3925,
      "éł¼": 3926,
      "ãĤªãĥ¼": 3927,
      "ãģļãģ¤": 3928,
      "æ¸¯": 3929,
      "æľĪåĪĬ": 3930,
      "ç¾©åĭĻ": 3931,
      "æ¬§": 3932,
      "ãĤ¤ãĥ³ãĤº": 3933,
      "ãĥĵãĥ¥ãĥ¼": 3934,
      "ç·ļãĤĴ": 3935,
      "å¤ĸéĥ¨": 3936,
      "ãģĻãĤĭãģĵãģ¨ãĤĤ": 3937,
      "ãĥľãĥ¼": 3938,
      "ãĥľãĥ³": 3939,
      "ç£ģçŁ³": 3940,
      "âĢĿ": 3941,
      "æ®Ĭ": 3942,
      "ãĥĦãĥ¼ãĥ«": 3943,
      "éģĵå¾³": 3944,
      "ãģ®æķ´": 3945,
      "ãĤĴè¡Įãģ£ãģŁ": 3946,
      "ãĤ³ãĥ³ãĥĳ": 3947,
      "å»·": 3948,
      "è·ĿéĽ¢": 3949,
      "å±ķéĸĭ": 3950,
      "è¤ĩéĽĳ": 3951,
      "ãģĹãģıãģ¯": 3952,
      "æ³¨çĽ®": 3953,
      "ãĥ¼ãĥŃãĥ³": 3954,
      "äºĪæĥ³": 3955,
      "æķĻèĤ²åĭħèªŀ": 3956,
      "ãģ®å¯¾è±¡": 3957,
      "åĲĪãĤıãģĽãģ¦": 3958,
      "çĶ·æĢ§": 3959,
      "ç®¡çĲĨ": 3960,
      "ãĤĴæĮĩãģĻ": 3961,
      "æĨ²": 3962,
      "ãģ®æ¥µ": 3963,
      "irc": 3964,
      "ãģ®åŁºæľ¬": 3965,
      "ãĥįãĥĥãĥĪãĥ¯ãĥ¼ãĤ¯": 3966,
      "é³´": 3967,
      "çĤŃç´ł": 3968,
      "ç¹°ãĤĬè¿Ķ": 3969,
      "éľĢè¦ģ": 3970,
      "epsilon": 3971,
      "ry": 3972,
      "{\\": 3973,
      "¿æĺĵ": 3974,
      "éĹ": 3975,
      "Ġr": 3976,
      "ãģ®è¡¨": 3977,
      "ãģ®ä¸¡": 3978,
      "ãĢģï¼Ī": 3979,
      "ãĤĭãģĵãģ¨ãģĮãģ§ãģįãĤĭ": 3980,
      "ãģ«åĩº": 3981,
      "ãģ¨ãģ¿": 3982,
      "ãĤĴéģ¸": 3983,
      "ãĤĴåıĤçħ§": 3984,
      "ãģĮèµ·ãģĵ": 3985,
      "ãģªãĤĵ": 3986,
      "ãģĵãģ®æĻĤ": 3987,
      "ãģĭãģª": 3988,
      "ãģĭãģªãĤĬ": 3989,
      "ãĤĬãģ«": 3990,
      "ãģ®æ¸": 3991,
      "ãĢįãĢģãĢĮ": 3992,
      "ãģĹãģŁãģĦ": 3993,
      "éģĬ": 3994,
      "ãģĭãĤīãģ®": 3995,
      "ãĤıãģ£ãģŁ": 3996,
      "ãĤıãģĭãĤĭ": 3997,
      "åŃĲãģĮ": 3998,
      "åŃĲä¾Ľ": 3999,
      "ãģªãģ©ãģĮãģĤãĤĭ": 4000,
      "ãĤ·ãĥ¼ãĥĪ": 4001,
      "åº«": 4002,
      "åºŃ": 4003,
      "ãģ®è¿": 4004,
      "çĶŁå¾Ĵ": 4005,
      "åĮĸãģķãĤĮãģŁ": 4006,
      "ãĤ³ãĥ¼ãĥ«": 4007,
      "ãģ®ç¤": 4008,
      "ãģ®çı¾": 4009,
      "ä½ĵç³»": 4010,
      "ãģĹãģ¦ãģĦãģ£ãģŁ": 4011,
      "å¥ĳç´Ħ": 4012,
      "ãģ¡ãģª": 4013,
      "è¦ģæ±Ĥ": 4014,
      "çĻºè¡Į": 4015,
      "è§¦": 4016,
      "èĩªãĤī": 4017,
      "èĩªå·±": 4018,
      "ãģĿãĤĮãģ«": 4019,
      "è§£èª¬": 4020,
      "çī¹æ®Ĭ": 4021,
      "éĩįè¦ĸ": 4022,
      "mand": 4023,
      "åĪ¶éĻĲ": 4024,
      "åŁºæºĸ": 4025,
      "éĻĲçķĮ": 4026,
      "åĮ»å¸«": 4027,
      "åĪ¥ãģ®": 4028,
      "åħ±ãģ«": 4029,
      "è¨Ńç½®": 4030,
      "å¹´ä»£å¾ĮåįĬ": 4031,
      "è¶Ĭ": 4032,
      "ãģ®åĲĳ": 4033,
      "å¤§ãģįãģĦ": 4034,
      "ãĤĴåıĹãģĳãģŁ": 4035,
      "è¦³æ¸¬": 4036,
      "ãģ®æŃ´åı²": 4037,
      "ãĥ´ãĤ§": 4038,
      "ãĤ¢ãĤ¤ãĥīãĥ«": 4039,
      "ç¾İè¡ĵ": 4040,
      "ä»¥å¤ĸãģ®": 4041,
      "å½±éŁ¿ãĤĴ": 4042,
      "çī¹å®ļãģ®": 4043,
      "ãģ®å¹³": 4044,
      "ãģ®åĳ½": 4045,
      "è¼¸éĢģ": 4046,
      "ãģ¯ãģĺãĤģ": 4047,
      "äººæł¼æ¨©": 4048,
      "ãĤĴæĺİ": 4049,
      "ãģ®ç¬¬": 4050,
      "ãĥĨãĥ¼ãĥĸãĥ«": 4051,
      "ãģ®çĦ¡": 4052,
      "ĥħåł±": 4053,
      "II": 4054,
      "OR": 4055,
      "ĠY": 4056,
      "ĠâĢ": 4057,
      "ĥåº¦": 4058,
      "ŀľ": 4059,
      "ãģ®ä½¿çĶ¨": 4060,
      "ãģ«åĪĨé¡ŀ": 4061,
      "ãģ¯ä¸Ģ": 4062,
      "ï¼ħ": 4063,
      "ãģ®åº": 4064,
      "ãģ¾ãģ§ãģ¯": 4065,
      "ãĥ©ãĤ¤ãĥĪ": 4066,
      "éĽĦ": 4067,
      "ãĥĥãĤ±": 4068,
      "ãģĬãģĿ": 4069,
      "å¼§": 4070,
      "ãĤĴæ§ĭ": 4071,
      "ãĥ³ãĥķ": 4072,
      "ãģªãģ©ãģ¨": 4073,
      "ãĤ·ãĥ³": 4074,
      "åº·": 4075,
      "ãĤĵãģĮ": 4076,
      "ãĤ¸ãĥ³": 4077,
      "ãģ®çĤ¹": 4078,
      "æī¹åĪ¤": 4079,
      "æŃ¯": 4080,
      "æłª": 4081,
      "åĲĮå£«": 4082,
      "ãĥĸãĥª": 4083,
      "ä½¿ãģĨ": 4084,
      "ãĤŃãĥ³ãĤ°": 4085,
      "è§£éĩĪ": 4086,
      "çµĲãģ³": 4087,
      "åħ¨ãģı": 4088,
      "åĲĳãģį": 4089,
      "åķıé¡Įãģ¯": 4090,
      "ä½įä½ĵ": 4091,
      "ãĤ°ãĥ©ãĥ³ãĥī": 4092,
      "ãĤ»ãĥ«": 4093,
      "ãģ«ãģ¤ãģĦãģ¦ãĤĤ": 4094,
      "ãĥĬãĤ¤": 4095
    },
    "merges": [
      [
        "ã",
        "ģ"
      ],
      [
        "ã",
        "Ĥ"
      ],
      [
        "ã",
        "ĥ"
      ],
      [
        "ã",
        "Ģ"
      ],
      [
        "ãģ",
        "®"
      ],
      [
        "ãĢ",
        "ģ"
      ],
      [
        "ãĤ",
        "ĭ"
      ],
      [
        "ãģ",
        "«"
      ],
      [
        "ãĢ",
        "Ĥ"
      ],
      [
        "ãģ",
        "¨"
      ],
      [
        "ãģ",
        "¯"
      ],
      [
        "ãģ",
        "Ħ"
      ],
      [
        "ãģ",
        "§"
      ],
      [
        "ãĤ",
        "Ĵ"
      ],
      [
        "ãģ",
        "Į"
      ],
      [
        "ãģ",
        "¦"
      ],
      [
        "ãģ",
        "Ĺ"
      ],
      [
        "ãģ",
        "ª"
      ],
      [
        "ãģ",
        "Ł"
      ],
      [
        "ãĤ",
        "Į"
      ],
      [
        "ãĥ",
        "¼"
      ],
      [
        "ï",
        "¼"
      ],
      [
        "ãģ",
        "Ļ"
      ],
      [
        "ä",
        "¸"
      ],
      [
        "ãĥ",
        "³"
      ],
      [
        "ãģ",
        "ĵ"
      ],
      [
        "ãģ®",
        "å"
      ],
      [
        "ãģ",
        "Ĥ"
      ],
      [
        "ãĤ",
        "Ĥ"
      ],
      [
        "å",
        "Ń"
      ],
      [
        "ãģ",
        "ĭ"
      ],
      [
        "ãģ",
        "Ĩ"
      ],
      [
        "ç",
        "Ķ"
      ],
      [
        "ä",
        "½"
      ],
      [
        "ãģ",
        "¾"
      ],
      [
        "ãĤ",
        "Ĭ"
      ],
      [
        "ãģ",
        "£"
      ],
      [
        "ãĤ",
        "ī"
      ],
      [
        "å",
        "Ī"
      ],
      [
        "ãģ",
        "ķ"
      ],
      [
        "æ",
        "ľ"
      ],
      [
        "å",
        "Ĳ"
      ],
      [
        "ãĤ",
        "Ī"
      ],
      [
        "ãģĹ",
        "ãģ¦"
      ],
      [
        "ãģĻ",
        "ãĤĭ"
      ],
      [
        "ãĥ¼",
        "ãĥ"
      ],
      [
        "å",
        "¤"
      ],
      [
        "ãĤ",
        "¹"
      ],
      [
        "ãģĤ",
        "ãĤĭ"
      ],
      [
        "å",
        "¹"
      ],
      [
        "ä",
        "º"
      ],
      [
        "å",
        "®"
      ],
      [
        "ä",
        "»"
      ],
      [
        "æ",
        "ĸ"
      ],
      [
        "ï¼",
        "ī"
      ],
      [
        "ï¼",
        "Ī"
      ],
      [
        "è",
        "ª"
      ],
      [
        "å¹",
        "´"
      ],
      [
        "è",
        "¨"
      ],
      [
        "å",
        "ı"
      ],
      [
        "è",
        "¡"
      ],
      [
        "ãģ",
        "į"
      ],
      [
        "å",
        "ħ"
      ],
      [
        "ãĤ",
        "¤"
      ],
      [
        "ãģ®",
        "æ"
      ],
      [
        "ãģ",
        "ı"
      ],
      [
        "ãģķ",
        "ãĤĮ"
      ],
      [
        "ãĢ",
        "Į"
      ],
      [
        "ãĢ",
        "į"
      ],
      [
        "ãĥ",
        "«"
      ],
      [
        "ãĤ",
        "¢"
      ],
      [
        "ãģĵ",
        "ãģ¨"
      ],
      [
        "ãĥ",
        "»"
      ],
      [
        "åŃ",
        "¦"
      ],
      [
        "é",
        "ĸ"
      ],
      [
        "ãĥ",
        "©"
      ],
      [
        "ãĥ",
        "Ī"
      ],
      [
        "æ",
        "ķ"
      ],
      [
        "ãĥ",
        "ª"
      ],
      [
        "ãģ¦",
        "ãģĦ"
      ],
      [
        "ãģ",
        "Ŀ"
      ],
      [
        "è",
        "¦"
      ],
      [
        "ãĤ",
        "¯"
      ],
      [
        "é",
        "Ľ"
      ],
      [
        "å",
        "Ľ"
      ],
      [
        "é",
        "Ģ"
      ],
      [
        "ãģĹ",
        "ãģŁ"
      ],
      [
        "ç",
        "ī"
      ],
      [
        "ç",
        "ļ"
      ],
      [
        "ãģ",
        "©"
      ],
      [
        "ãģ",
        "¤"
      ],
      [
        "ãģ",
        "Ī"
      ],
      [
        "ãĤ",
        "Ħ"
      ],
      [
        "ç",
        "´"
      ],
      [
        "çļ",
        "Ħ"
      ],
      [
        "ãģ£",
        "ãģŁ"
      ],
      [
        "ãĥ",
        "ĥ"
      ],
      [
        "ãģ§",
        "ãģĤãĤĭ"
      ],
      [
        "ç",
        "µ"
      ],
      [
        "ãģ",
        "ĳ"
      ],
      [
        "ä½",
        "ľ"
      ],
      [
        "å",
        "Į"
      ],
      [
        "é",
        "ģ"
      ],
      [
        "ãģ§",
        "ãģ¯"
      ],
      [
        "ãĤ",
        "ģ"
      ],
      [
        "ãģ",
        "Ĭ"
      ],
      [
        "å",
        "¼"
      ],
      [
        "ãĤĴ",
        "æ"
      ],
      [
        "å",
        "¾"
      ],
      [
        "è",
        "Ģ"
      ],
      [
        "å",
        "°"
      ],
      [
        "æķ",
        "°"
      ],
      [
        "ãģĭ",
        "ãĤī"
      ],
      [
        "æ",
        "Ĺ"
      ],
      [
        "ãģª",
        "ãģĦ"
      ],
      [
        "äº",
        "º"
      ],
      [
        "ãģ¨",
        "ãģĦ"
      ],
      [
        "å",
        "ł"
      ],
      [
        "ãĤ",
        "¿"
      ],
      [
        "åĲ",
        "Ī"
      ],
      [
        "ãģ«",
        "ãģ¯"
      ],
      [
        "åĪ",
        "Ĩ"
      ],
      [
        "å",
        "Ĭ"
      ],
      [
        "ç",
        "Ļ"
      ],
      [
        "ä",
        "¼"
      ],
      [
        "ãĥ³",
        "ãĥ"
      ],
      [
        "é",
        "ĩ"
      ],
      [
        "ä¸",
        "Ģ"
      ],
      [
        "è¡",
        "Į"
      ],
      [
        "ãģ¦ãģĦ",
        "ãĤĭ"
      ],
      [
        "å",
        "½"
      ],
      [
        "ãĤĪ",
        "ãģĨ"
      ],
      [
        "çĶ",
        "¨"
      ],
      [
        "èª",
        "ŀ"
      ],
      [
        "ãĤ",
        "ı"
      ],
      [
        "åŃ",
        "Ĳ"
      ],
      [
        "é",
        "¡"
      ],
      [
        "ãģ£",
        "ãģ¦"
      ],
      [
        "æ",
        "³"
      ],
      [
        "ãģ¾",
        "ãģĻ"
      ],
      [
        "ãģª",
        "ãģ©"
      ],
      [
        "ç",
        "Ľ"
      ],
      [
        "Ġ",
        "\\"
      ],
      [
        "ãĤ",
        "·"
      ],
      [
        "æ",
        "Ŀ"
      ],
      [
        "çī",
        "©"
      ],
      [
        "å¤",
        "§"
      ],
      [
        "ãĥ",
        "Ń"
      ],
      [
        "åł",
        "´"
      ],
      [
        "ãģ",
        "ł"
      ],
      [
        "å",
        "ľ"
      ],
      [
        "ãģ",
        "°"
      ],
      [
        "1",
        "9"
      ],
      [
        "æľ",
        "¬"
      ],
      [
        "ãĢ",
        "ı"
      ],
      [
        "ãĢ",
        "İ"
      ],
      [
        "ãĤ",
        "°"
      ],
      [
        "å",
        "º"
      ],
      [
        "æĸ",
        "¹"
      ],
      [
        "ãĤ",
        "ĵ"
      ],
      [
        "ãĥ",
        "¬"
      ],
      [
        "ãģ¨ãģĦ",
        "ãģĨ"
      ],
      [
        "ãģ«",
        "ãĤĪ"
      ],
      [
        "ä",
        "¾"
      ],
      [
        "æ",
        "Ģ"
      ],
      [
        "æ",
        "°"
      ],
      [
        "ç",
        "Ĳ"
      ],
      [
        "å",
        "ĭ"
      ],
      [
        "æ",
        "Ī"
      ],
      [
        "æĸ",
        "ĩ"
      ],
      [
        "ãĥ",
        "ķ"
      ],
      [
        "çĶ",
        "»"
      ],
      [
        "æ",
        "ĺ"
      ],
      [
        "æĹ",
        "¥"
      ],
      [
        "ãģ¨",
        "ãģĹãģ¦"
      ],
      [
        "ãģ®",
        "è"
      ],
      [
        "éĽ",
        "»"
      ],
      [
        "çĶ",
        "Ł"
      ],
      [
        "å",
        "¿"
      ],
      [
        "ãĤ",
        "«"
      ],
      [
        "å",
        "ī"
      ],
      [
        "åĮ",
        "ĸ"
      ],
      [
        "ãĥ",
        "Ĺ"
      ],
      [
        "å",
        "ĳ"
      ],
      [
        "å",
        "ĩ"
      ],
      [
        "ãĤ",
        "³"
      ],
      [
        "å®",
        "ļ"
      ],
      [
        "åĽ",
        "½"
      ],
      [
        "2",
        "0"
      ],
      [
        "å",
        "¯"
      ],
      [
        "ç",
        "§"
      ],
      [
        "å",
        "į"
      ],
      [
        "æ",
        "¨"
      ],
      [
        "è¨",
        "Ģ"
      ],
      [
        "çĲ",
        "Ĩ"
      ],
      [
        "èĢ",
        "ħ"
      ],
      [
        "æ",
        "Ļ"
      ],
      [
        "ãĥ",
        "Ĩ"
      ],
      [
        "ãĤ",
        "¸"
      ],
      [
        "ãģ®",
        "ç"
      ],
      [
        "ä½",
        "ĵ"
      ],
      [
        "æ³",
        "ķ"
      ],
      [
        "ãĤĮ",
        "ãĤĭ"
      ],
      [
        "ä¸",
        "Ń"
      ],
      [
        "æ",
        "ī"
      ],
      [
        "ä»",
        "£"
      ],
      [
        "ãģĦ",
        "ãģ¦"
      ],
      [
        "ç",
        "¤"
      ],
      [
        "åĩ",
        "º"
      ],
      [
        "æ",
        "¥"
      ],
      [
        "ãģĹãģ¦",
        "ãģĦ"
      ],
      [
        "ãĤ",
        "£"
      ],
      [
        "å",
        "¥"
      ],
      [
        "è¡",
        "¨"
      ],
      [
        "ç",
        "ķ"
      ],
      [
        "ãģ¨",
        "ãģª"
      ],
      [
        "ãĥ",
        "ŀ"
      ],
      [
        "æ",
        "Ľ"
      ],
      [
        "ãĥ",
        "ĩ"
      ],
      [
        "æĢ",
        "§"
      ],
      [
        "æ",
        "Ń"
      ],
      [
        "ãģ«",
        "ãģª"
      ],
      [
        "ãģ",
        "¿"
      ],
      [
        "é",
        "ĥ"
      ],
      [
        "ãĤĤ",
        "ãģ®"
      ],
      [
        "éĸ",
        "¢"
      ],
      [
        "ĳ",
        "Ĺ"
      ],
      [
        "è",
        "ĥ"
      ],
      [
        "ä",
        "¿"
      ],
      [
        "è",
        "ĩ"
      ],
      [
        "é",
        "Ļ"
      ],
      [
        "å",
        "ķ"
      ],
      [
        "ãĥ",
        "ł"
      ],
      [
        "åĭ",
        "ķ"
      ],
      [
        "è",
        "©"
      ],
      [
        "æ",
        "Ķ"
      ],
      [
        "ãģ¾",
        "ãģŁ"
      ],
      [
        "ãģķãĤĮ",
        "ãĤĭ"
      ],
      [
        "ä¸",
        "Ĭ"
      ],
      [
        "é¡",
        "Į"
      ],
      [
        "éĸ",
        "ĵ"
      ],
      [
        "è",
        "³"
      ],
      [
        "ãĤ",
        "¦"
      ],
      [
        "ãĥ",
        "¡"
      ],
      [
        "ãģ",
        "¡"
      ],
      [
        "å¼",
        "ı"
      ],
      [
        "é",
        "Ł"
      ],
      [
        "ãģ",
        "Ľ"
      ],
      [
        "è¦",
        "ģ"
      ],
      [
        "ç",
        "«"
      ],
      [
        "å",
        "Ģ"
      ],
      [
        "æ",
        "¼"
      ],
      [
        "ĳĹ",
        "ä½ľ"
      ],
      [
        "å¯",
        "¾"
      ],
      [
        "å",
        "Ĩ"
      ],
      [
        "ãģĵ",
        "ãģ®"
      ],
      [
        "æ",
        "ł"
      ],
      [
        "è",
        "¿"
      ],
      [
        "åĬ",
        "Ľ"
      ],
      [
        "ç",
        "Ĥ"
      ],
      [
        "ãģĤ",
        "ãĤĬ"
      ],
      [
        "åķ",
        "ı"
      ],
      [
        "ãģŁ",
        "ãĤģ"
      ],
      [
        "ãģĵãģ¨",
        "ãģĮ"
      ],
      [
        "çĻ",
        "º"
      ],
      [
        "ä¼",
        "ļ"
      ],
      [
        "å",
        "¸"
      ],
      [
        "æĻ",
        "Ĥ"
      ],
      [
        "ç",
        "Ń"
      ],
      [
        "è",
        "«"
      ],
      [
        "ãģ§",
        "ãģį"
      ],
      [
        "ç",
        "¾"
      ],
      [
        "ãģĵ",
        "ãĤĮ"
      ],
      [
        "é",
        "Ŀ"
      ],
      [
        "åĲ",
        "Į"
      ],
      [
        "å®",
        "Ł"
      ],
      [
        "è",
        "§"
      ],
      [
        "ı",
        "¾"
      ],
      [
        "æ",
        "Ĭ"
      ],
      [
        "æĪ",
        "Ĳ"
      ],
      [
        "æ¨",
        "©"
      ],
      [
        "èĩ",
        "ª"
      ],
      [
        "å",
        "ĵ"
      ],
      [
        "ãĥ",
        "ĸ"
      ],
      [
        "ç",
        "·"
      ],
      [
        "ç",
        "ı¾"
      ],
      [
        "ãĤ",
        "¨"
      ],
      [
        "éĥ",
        "¨"
      ],
      [
        "ãģķãĤĮ",
        "ãģŁ"
      ],
      [
        "ãģ",
        "ĺ"
      ],
      [
        "i",
        "n"
      ],
      [
        "ãĥ",
        "ī"
      ],
      [
        "å",
        "İ"
      ],
      [
        "ãĥ",
        "ĭ"
      ],
      [
        "é",
        "ł"
      ],
      [
        "ãĥ",
        "¥"
      ],
      [
        "ä½",
        "¿"
      ],
      [
        "è¨",
        "ĺ"
      ],
      [
        "åħ",
        "¥"
      ],
      [
        "è",
        "²"
      ],
      [
        "å¾",
        "Į"
      ],
      [
        "å½",
        "¢"
      ],
      [
        "å¤",
        "ļ"
      ],
      [
        "ãģĿ",
        "ãģ®"
      ],
      [
        "Ġ",
        "="
      ],
      [
        "ç",
        "©"
      ],
      [
        "§",
        "ĭ"
      ],
      [
        "åº",
        "¦"
      ],
      [
        "ä¾",
        "ĭ"
      ],
      [
        "ãĤ",
        "ª"
      ],
      [
        "äº",
        "ĭ"
      ],
      [
        "ãĥ",
        "£"
      ],
      [
        "ç",
        "Ł"
      ],
      [
        "ä¸",
        "»"
      ],
      [
        "æ",
        "Ħ"
      ],
      [
        "ä»",
        "¥"
      ],
      [
        "ãĥ",
        "Ł"
      ],
      [
        "ãģ",
        "ļ"
      ],
      [
        "æ",
        "¸"
      ],
      [
        "æľ",
        "Ī"
      ],
      [
        "ãģĹãģ¦ãģĦ",
        "ãĤĭ"
      ],
      [
        "è",
        "ĳĹä½ľ"
      ],
      [
        "å",
        "±"
      ],
      [
        "ãĤ",
        "µ"
      ],
      [
        "çļĦ",
        "ãģª"
      ],
      [
        "ç",
        "¨"
      ],
      [
        "å",
        "·"
      ],
      [
        "e",
        "r"
      ],
      [
        "å",
        "Ł"
      ],
      [
        "å°",
        "ĳ"
      ],
      [
        "ç",
        "¶"
      ],
      [
        "éŁ",
        "³"
      ],
      [
        "ç¾",
        "©"
      ],
      [
        "ãĥ",
        "ģ"
      ],
      [
        "ãĤ",
        "Ń"
      ],
      [
        "ãĥĥ",
        "ãĤ¯"
      ],
      [
        "å¥",
        "³"
      ],
      [
        "é",
        "ļ"
      ],
      [
        "è«",
        "ĸ"
      ],
      [
        "è¨Ģ",
        "èªŀ"
      ],
      [
        "æĽ",
        "¸"
      ],
      [
        "è¦",
        "ĭ"
      ],
      [
        "ä¸",
        "ĸ"
      ],
      [
        "ãģ«",
        "ãģĬ"
      ],
      [
        "ãĥ",
        "Ĳ"
      ],
      [
        "«",
        "çĶ»"
      ],
      [
        "æ",
        "İ"
      ],
      [
        "r",
        "a"
      ],
      [
        "è",
        "Ń"
      ],
      [
        "èĥ",
        "½"
      ],
      [
        "æ",
        "¬"
      ],
      [
        "ãĤī",
        "ãĤĮ"
      ],
      [
        "ãģ«ãĤĪ",
        "ãģ£ãģ¦"
      ],
      [
        "æ",
        "²"
      ],
      [
        "ãģ§",
        "ãģĻ"
      ],
      [
        "ãģĿ",
        "ãĤĮ"
      ],
      [
        "é",
        "«"
      ],
      [
        "åľ",
        "¨"
      ],
      [
        "æľ",
        "Ł"
      ],
      [
        "æĹ¥",
        "æľ¬"
      ],
      [
        "ç§",
        "ĳ"
      ],
      [
        "çĤ",
        "¹"
      ],
      [
        "è§",
        "£"
      ],
      [
        "ãĤ",
        "º"
      ],
      [
        "èĢ",
        "ĥ"
      ],
      [
        "ãĤĪãģĨ",
        "ãģ«"
      ],
      [
        "ãĤ",
        "½"
      ],
      [
        "æ¼",
        "«çĶ»"
      ],
      [
        "é«",
        "ĺ"
      ],
      [
        "è³",
        "ª"
      ],
      [
        "ãģĮ",
        "ãģĤãĤĭ"
      ],
      [
        "å¤",
        "ī"
      ],
      [
        "ãĤ¹",
        "ãĥĪ"
      ],
      [
        "ç´",
        "ł"
      ],
      [
        "ç",
        "Ħ"
      ],
      [
        "ç",
        "®"
      ],
      [
        "ç«",
        "ĭ"
      ],
      [
        "è",
        "»"
      ],
      [
        "çµ",
        "Ĳ"
      ],
      [
        "Ġ",
        "-"
      ],
      [
        "åī",
        "į"
      ],
      [
        "ãĥ¼ãĥ",
        "ī"
      ],
      [
        "ç¤",
        "¾"
      ],
      [
        "è",
        "µ"
      ],
      [
        "ãĥ³",
        "ãĤ°"
      ],
      [
        "åħ",
        "¨"
      ],
      [
        "ãĤĪãģĨ",
        "ãģª"
      ],
      [
        "çĽ",
        "®"
      ],
      [
        "æĺ",
        "İ"
      ],
      [
        "é",
        "¨"
      ],
      [
        "ãģ®",
        "ãģ§"
      ],
      [
        "çī",
        "¹"
      ],
      [
        "ç",
        "¬"
      ],
      [
        "éĢ",
        "ļ"
      ],
      [
        "æ°",
        "Ĺ"
      ],
      [
        "ãĥ¼ãĥ",
        "ł"
      ],
      [
        "ãĥĹ",
        "ãĥŃ"
      ],
      [
        "æ",
        "´"
      ],
      [
        "1",
        "0"
      ],
      [
        "æ",
        "µ"
      ],
      [
        "æ",
        "Į"
      ],
      [
        "ãģĪ",
        "ãĤĭ"
      ],
      [
        "©",
        "Ł"
      ],
      [
        "ãĥ",
        "İ"
      ],
      [
        "åİ",
        "Ł"
      ],
      [
        "æľ",
        "Ģ"
      ],
      [
        "éĸ",
        "ĭ"
      ],
      [
        "é¨",
        "ĵ"
      ],
      [
        "åŃ",
        "ĺ"
      ],
      [
        "ãĥ¼ãĥ",
        "«"
      ],
      [
        "æ",
        "ŀ"
      ],
      [
        "è",
        "£"
      ],
      [
        "ãģ",
        "»"
      ],
      [
        "ãĥķ",
        "ãĤ"
      ],
      [
        "ãĥ",
        "Ļ"
      ],
      [
        "åľ",
        "°"
      ],
      [
        "Ġ",
        "("
      ],
      [
        "ãĥĥ",
        "ãĥĪ"
      ],
      [
        "ãĥ",
        "ĳ"
      ],
      [
        "è",
        "Ī"
      ],
      [
        "ãģ",
        "³"
      ],
      [
        "ãĤ¤",
        "ãĥ³"
      ],
      [
        "çŁ",
        "¥"
      ],
      [
        "ãĥ",
        "ĵ"
      ],
      [
        "e",
        "n"
      ],
      [
        "åĲ",
        "ĳ"
      ],
      [
        "ãģ§",
        "ãĤĤ"
      ],
      [
        "ãģ«",
        "ãģ¤"
      ],
      [
        "ãĤĪ",
        "ãĤĬ"
      ],
      [
        "æ¬",
        "¡"
      ],
      [
        "æ",
        "º"
      ],
      [
        "çĻ",
        "»"
      ],
      [
        "ra",
        "c"
      ],
      [
        "çµ",
        "Į"
      ],
      [
        "ãģ£",
        "ãģ¦ãģĦãĤĭ"
      ],
      [
        "éĢ",
        "£"
      ],
      [
        "åķı",
        "é¡Į"
      ],
      [
        "ä¸",
        "ĭ"
      ],
      [
        "f",
        "rac"
      ],
      [
        "æĶ",
        "¿"
      ],
      [
        "æ",
        "±"
      ],
      [
        "æ",
        "ı"
      ],
      [
        "é",
        "ķ"
      ],
      [
        "éķ",
        "·"
      ],
      [
        "ãĤ",
        "į"
      ],
      [
        "æ",
        "ĥ"
      ],
      [
        "æĦ",
        "ı"
      ],
      [
        "ç¶",
        "ļ"
      ],
      [
        "ãĥ",
        "Ķ"
      ],
      [
        "éĽ",
        "Ĩ"
      ],
      [
        "ãĥ",
        "į"
      ],
      [
        "ãģĳ",
        "ãĤĭ"
      ],
      [
        "å®",
        "¶"
      ],
      [
        "èª",
        "¬"
      ],
      [
        "é",
        "ħ"
      ],
      [
        "ãĤ",
        "¶"
      ],
      [
        "éĩ",
        "ı"
      ],
      [
        "æ",
        "©Ł"
      ],
      [
        "ãģª",
        "ãģı"
      ],
      [
        "ãģ",
        "¹"
      ],
      [
        "ãĤ",
        "®"
      ],
      [
        "ãĥ",
        "§"
      ],
      [
        "ãĤī",
        "ãĤĮãĤĭ"
      ],
      [
        "ãĤĮ",
        "ãģ°"
      ],
      [
        "ä½",
        "į"
      ],
      [
        "åł´",
        "åĲĪ"
      ],
      [
        "ãĤ°",
        "ãĥ©"
      ],
      [
        "ãģ§ãģį",
        "ãĤĭ"
      ],
      [
        "ç¤",
        "º"
      ],
      [
        "æī",
        "ĭ"
      ],
      [
        "çĻ»",
        "åł´"
      ],
      [
        "å¹´",
        "ãģ«"
      ],
      [
        "åı",
        "Ĺ"
      ],
      [
        "çļĦ",
        "ãģ«"
      ],
      [
        "è¨",
        "Ī"
      ],
      [
        "åĳ",
        "¼"
      ],
      [
        "ç",
        "½"
      ],
      [
        "åĪ",
        "Ĺ"
      ],
      [
        "ç®",
        "Ĺ"
      ],
      [
        "ç",
        "İ"
      ],
      [
        "é¡",
        "ŀ"
      ],
      [
        "æ¥",
        "Ń"
      ],
      [
        "ãĥ¼ãĥ",
        "Ī"
      ],
      [
        "r",
        "i"
      ],
      [
        "æĿ",
        "±"
      ],
      [
        "ãĢģ",
        "ãĢĮ"
      ],
      [
        "ãģ®å",
        "¤"
      ],
      [
        "åĲ",
        "į"
      ],
      [
        "å",
        "£"
      ],
      [
        "éĩ",
        "į"
      ],
      [
        "ãĤ",
        "»"
      ],
      [
        "ãĥ",
        "Ŀ"
      ],
      [
        "ãģ¨",
        "ãģ¯"
      ],
      [
        "ãģķãĤĮ",
        "ãģ¦ãģĦãĤĭ"
      ],
      [
        "ãģ«ãģ¤",
        "ãģĦãģ¦"
      ],
      [
        "åĪ",
        "©"
      ],
      [
        "ãĥ",
        "Ĭ"
      ],
      [
        "çķ",
        "Į"
      ],
      [
        "æķ",
        "Ļ"
      ],
      [
        "ãĤ",
        "§"
      ],
      [
        "ãģ¨",
        "ãģį"
      ],
      [
        "ãĤ¿",
        "ãĥ¼"
      ],
      [
        "ãģ«ãģĬ",
        "ãģĦãģ¦"
      ],
      [
        "ç¬",
        "¬"
      ],
      [
        "ãĤ",
        "²"
      ],
      [
        "ãĥ",
        "¢"
      ],
      [
        "ãĤĴæ",
        "Į"
      ],
      [
        "æ²",
        "»"
      ],
      [
        "æĿ",
        "¡"
      ],
      [
        "ä»",
        "ĸ"
      ],
      [
        "}",
        "{"
      ],
      [
        "ä¸",
        "į"
      ],
      [
        "åĨ",
        "ħ"
      ],
      [
        "m",
        "a"
      ],
      [
        "åŃ",
        "Ĺ"
      ],
      [
        "éĿ",
        "¢"
      ],
      [
        "ãģ¦ãģĦ",
        "ãģŁ"
      ],
      [
        "ãģ§",
        "ãģĤãĤĬ"
      ],
      [
        "æĸ",
        "°"
      ],
      [
        "æ°",
        "ĳ"
      ],
      [
        "åı",
        "ĸ"
      ],
      [
        "ãģĿ",
        "ãģ®å"
      ],
      [
        "æľ",
        "ī"
      ],
      [
        "å°",
        "ı"
      ],
      [
        "ç·",
        "ļ"
      ],
      [
        "å¤",
        "ĸ"
      ],
      [
        "å¿",
        "ħ"
      ],
      [
        "ç´",
        "°"
      ],
      [
        "å",
        "ŀ"
      ],
      [
        "ãģ«",
        "å¯¾"
      ],
      [
        "æ¥",
        "½"
      ],
      [
        "ä¿",
        "Ŀ"
      ],
      [
        "ãģĹ",
        "ãģĭ"
      ],
      [
        "åĪ",
        "¶"
      ],
      [
        "l",
        "e"
      ],
      [
        "æ",
        "¯"
      ],
      [
        "o",
        "n"
      ],
      [
        "æ",
        "¶"
      ],
      [
        "å½",
        "ĵ"
      ],
      [
        "æŃ",
        "£"
      ],
      [
        "åĬ",
        "ł"
      ],
      [
        "ãģ«ãĤĪ",
        "ãĤĭ"
      ],
      [
        "ãģ",
        "¸"
      ],
      [
        "ãģ¾",
        "ãģ§"
      ],
      [
        "ãģĪ",
        "ãģ°"
      ],
      [
        "åŁ",
        "º"
      ],
      [
        "ãģĬ",
        "ãĤĬ"
      ],
      [
        "ç¨",
        "ĭ"
      ],
      [
        "è",
        "¼"
      ],
      [
        "ãģĻãĤĭ",
        "ãģĵãģ¨"
      ],
      [
        "çŃ",
        "ī"
      ],
      [
        "å°ĳ",
        "å¥³"
      ],
      [
        "ãĥ",
        "ļ"
      ],
      [
        "éĻ",
        "Ĳ"
      ],
      [
        "£",
        "ģ"
      ],
      [
        "æ",
        "§ĭ"
      ],
      [
        "m",
        "e"
      ],
      [
        "t",
        "i"
      ],
      [
        "è",
        "¾"
      ],
      [
        "ãģ¨",
        "åĳ¼"
      ],
      [
        "20",
        "0"
      ],
      [
        "ï¼ī",
        "ãĢĤ"
      ],
      [
        "ãĢı",
        "ï¼Ī"
      ],
      [
        "æĺ",
        "ł"
      ],
      [
        "ãĤ",
        "¬"
      ],
      [
        "ãĥ",
        "Ģ"
      ],
      [
        "åĮ",
        "»"
      ],
      [
        "è©",
        "¦"
      ],
      [
        "åŀ",
        "ĭ"
      ],
      [
        "ãĥ³ãĥ",
        "ī"
      ],
      [
        "åį",
        "ĺ"
      ],
      [
        "¢",
        "º"
      ],
      [
        "ãĤ",
        "±"
      ],
      [
        "åħ",
        "ĥ"
      ],
      [
        "ãģ«ãģª",
        "ãĤĭ"
      ],
      [
        "è",
        "±"
      ],
      [
        "åħ",
        "¬"
      ],
      [
        "Ĵ",
        "Į"
      ],
      [
        "ãģ¨",
        "ãģĻãĤĭ"
      ],
      [
        "ä¼",
        "Ŀ"
      ],
      [
        "èĳĹä½ľ",
        "æ¨©"
      ],
      [
        "ãĥ",
        "ı"
      ],
      [
        "åı",
        "·"
      ],
      [
        "æī",
        "Ģ"
      ],
      [
        "ãĢ",
        "ħ"
      ],
      [
        "è",
        "ī"
      ],
      [
        "ãĥ¼",
        "ãĤ¹"
      ],
      [
        "ãĥ",
        "ľ"
      ],
      [
        "åĵ",
        "ģ"
      ],
      [
        "ç",
        "¢º"
      ],
      [
        "åĪ",
        "Ŀ"
      ],
      [
        "åŃĺ",
        "åľ¨"
      ],
      [
        "æ",
        "ħ"
      ],
      [
        "ç",
        "£ģ"
      ],
      [
        "â",
        "Ģ"
      ],
      [
        "åĪ",
        "¥"
      ],
      [
        "ãĤ·",
        "ãĥ§"
      ],
      [
        "æ",
        "®"
      ],
      [
        "ãģª",
        "ãĤĭ"
      ],
      [
        "å",
        "Ĥ"
      ],
      [
        "çĽ",
        "¸"
      ],
      [
        "éļ",
        "Ľ"
      ],
      [
        "ãģ¨",
        "ãĤĤ"
      ],
      [
        "§",
        "ĺ"
      ],
      [
        "ä¾",
        "¡"
      ],
      [
        "è¿",
        "°"
      ],
      [
        "ãģ¨ãģª",
        "ãĤĭ"
      ],
      [
        "è±",
        "¡"
      ],
      [
        "²",
        "åŃ¦"
      ],
      [
        "æµ",
        "ģ"
      ],
      [
        "ãģĤ",
        "ãģ£ãģŁ"
      ],
      [
        "ãĤ",
        "Ģ"
      ],
      [
        "å¾",
        "Ĺ"
      ],
      [
        "19",
        "7"
      ],
      [
        "ç",
        "ľ"
      ],
      [
        "ãģ®å",
        "Ī"
      ],
      [
        "åı",
        "¯"
      ],
      [
        "ç½",
        "®"
      ],
      [
        "æĪ",
        "¦"
      ],
      [
        "äº",
        "Į"
      ],
      [
        "æŀ",
        "ľ"
      ],
      [
        "å°",
        "İ"
      ],
      [
        "ãĤı",
        "ãĤĮ"
      ],
      [
        "èª",
        "Į"
      ],
      [
        "å",
        "ĥ"
      ],
      [
        "ãģĮ",
        "çĻ»åł´"
      ],
      [
        "ãģĹ",
        "ãģĦ"
      ],
      [
        "è¦",
        "ı"
      ],
      [
        "ç´",
        "Ħ"
      ],
      [
        "åĢ",
        "¤"
      ],
      [
        "ãĥĹãĥŃ",
        "ãĤ°ãĥ©"
      ],
      [
        "ãĤ",
        "ĩ"
      ],
      [
        "t",
        "a"
      ],
      [
        "å",
        "ģ"
      ],
      [
        "å¿",
        "ľ"
      ],
      [
        "éĩ",
        "İ"
      ],
      [
        "éĸ¢",
        "æķ°"
      ],
      [
        "éĩ",
        "ĳ"
      ],
      [
        "l",
        "a"
      ],
      [
        "å",
        "¢"
      ],
      [
        "Ġ",
        "1"
      ],
      [
        "ãģ«",
        "ãĤĤ"
      ],
      [
        "ãģ®å",
        "®"
      ],
      [
        "èµ",
        "·"
      ],
      [
        "è¿",
        "ĳ"
      ],
      [
        "å",
        "ĴĮ"
      ],
      [
        "æ",
        "§ĺ"
      ],
      [
        "ãģ",
        "Ĵ"
      ],
      [
        "ãĥ³",
        "ãĥĪ"
      ],
      [
        "ãģĵãģ¨",
        "ãĤĴ"
      ],
      [
        "æĿ",
        "¥"
      ],
      [
        "èĪ",
        "¬"
      ],
      [
        "åĽ",
        "ŀ"
      ],
      [
        "ä»",
        "ĺ"
      ],
      [
        "åħ",
        "±"
      ],
      [
        "çİ",
        "ĩ"
      ],
      [
        "ãĥ",
        "Ħ"
      ],
      [
        "è¨",
        "Ń"
      ],
      [
        "åı",
        "į"
      ],
      [
        "ãĥ¼",
        "ãĤ¸"
      ],
      [
        "èĢĥ",
        "ãģĪ"
      ],
      [
        "ãģ®å",
        "ħ"
      ],
      [
        "ãĥĩ",
        "ãĤ£"
      ],
      [
        "ãĤ²",
        "ãĥ¼ãĥł"
      ],
      [
        "c",
        "h"
      ],
      [
        "ä¸Ģ",
        "èĪ¬"
      ],
      [
        "ãĥķãĤ",
        "¡"
      ],
      [
        "çĦ",
        "¡"
      ],
      [
        "ãģ¾",
        "ãĤĬ"
      ],
      [
        "èĥ",
        "ŀ"
      ],
      [
        "ãģ",
        "¶"
      ],
      [
        "çµ",
        "Ħ"
      ],
      [
        "ä",
        "¹"
      ],
      [
        "ãģª",
        "ãĤī"
      ],
      [
        "å¹´",
        "ãģ«ãģ¯"
      ],
      [
        "ç",
        "¥"
      ],
      [
        "çµ",
        "±"
      ],
      [
        "çĽ",
        "´"
      ],
      [
        "ãģ«ãĤĪ",
        "ãĤĬ"
      ],
      [
        "æ°",
        "´"
      ],
      [
        "éĽ»",
        "åŃĲ"
      ],
      [
        "ãģĦ",
        "ãģŁ"
      ],
      [
        "éħ",
        "į"
      ],
      [
        "ç´°",
        "èĥŀ"
      ],
      [
        "ãģĹ",
        "ãģ¾ãģĻ"
      ],
      [
        "éģ",
        "ĵ"
      ],
      [
        "åĳ",
        "³"
      ],
      [
        "ãģĹãģĭ",
        "ãģĹ"
      ],
      [
        "ç",
        "³"
      ],
      [
        "ãĥ¼",
        "ãĤ¿"
      ],
      [
        "æł",
        "¼"
      ],
      [
        "¤",
        "ľ"
      ],
      [
        "éģ",
        "İ"
      ],
      [
        "ç¤¾",
        "ä¼ļ"
      ],
      [
        "å¿ħ",
        "è¦ģ"
      ],
      [
        "ä½¿",
        "çĶ¨"
      ],
      [
        "ç",
        "Ĭ"
      ],
      [
        "è",
        "ĭ"
      ],
      [
        "ãĤ¯",
        "ãĥ©"
      ],
      [
        "åĢ",
        "ĭ"
      ],
      [
        "_",
        "{"
      ],
      [
        "Ġ",
        "x"
      ],
      [
        "çĶ",
        "£"
      ],
      [
        "å¿",
        "ĥ"
      ],
      [
        "å¤ļ",
        "ãģı"
      ],
      [
        "ãĤĴæĮ",
        "ģ"
      ],
      [
        "ãģł",
        "ãģĳ"
      ],
      [
        "æĬ",
        "Ģ"
      ],
      [
        "åī",
        "ĩ"
      ],
      [
        "æ´",
        "»"
      ],
      [
        "ł",
        "´"
      ],
      [
        "å¼",
        "ķ"
      ],
      [
        "éģ",
        "ĭ"
      ],
      [
        "éģ",
        "¸"
      ],
      [
        "æ¸",
        "Ī"
      ],
      [
        "çĶ",
        "±"
      ],
      [
        "æĺł",
        "çĶ»"
      ],
      [
        "ãģ«",
        "éĸ¢"
      ],
      [
        "ï¼ī",
        "ãĢģ"
      ],
      [
        "å¹´",
        "ä»£"
      ],
      [
        "ä¸ĸ",
        "çķĮ"
      ],
      [
        "åĵ",
        "²åŃ¦"
      ],
      [
        "è",
        "į"
      ],
      [
        "ãģ®",
        "ãĤĪãģĨãģ«"
      ],
      [
        "ç",
        "¿"
      ],
      [
        "æĸĩ",
        "åŃĹ"
      ],
      [
        "ç§",
        "°"
      ],
      [
        "ãĤ¢",
        "ãĥ«"
      ],
      [
        "19",
        "8"
      ],
      [
        "20",
        "1"
      ],
      [
        "ç©",
        "į"
      ],
      [
        "ç³",
        "»"
      ],
      [
        "o",
        "r"
      ],
      [
        "æ",
        "ĭ"
      ],
      [
        "ãģ®",
        "ä¸Ń"
      ],
      [
        "è»",
        "į"
      ],
      [
        "ä¸",
        "ī"
      ],
      [
        "çķ",
        "°"
      ],
      [
        "åĲĮ",
        "ãģĺ"
      ],
      [
        "ãĤĩ",
        "ãģĨ"
      ],
      [
        "çµĮ",
        "æ¸Ī"
      ],
      [
        "æł",
        "¡"
      ],
      [
        "åı¯",
        "èĥ½"
      ],
      [
        "ç´",
        "Ģ"
      ],
      [
        "ä¿",
        "Ĥ"
      ],
      [
        "ãĥĶ",
        "ãĤ¢"
      ],
      [
        "ãģĻãĤĭ",
        "ãģ¨"
      ],
      [
        "ãģ®æ",
        "ķ"
      ],
      [
        "ç©",
        "¶"
      ],
      [
        "è",
        "Ĥ"
      ],
      [
        "é",
        "£"
      ],
      [
        "ãĤĤ",
        "ãģĤãĤĭ"
      ],
      [
        "ł",
        "Ķ"
      ],
      [
        "ãĤ·ãĥ§",
        "ãĥ³"
      ],
      [
        "é",
        "¤"
      ],
      [
        "ãģª",
        "ãģĭ"
      ],
      [
        "0",
        "0"
      ],
      [
        "Ġ",
        "A"
      ],
      [
        "æĹ",
        "ı"
      ],
      [
        "è¡",
        "ĵ"
      ],
      [
        "æĥ",
        "ħ"
      ],
      [
        "ãĥª",
        "ãĥ¼"
      ],
      [
        "éĢ",
        "ł"
      ],
      [
        "åĲ",
        "«"
      ],
      [
        "éĢ",
        "²"
      ],
      [
        "ãĤģ",
        "ãĤĭ"
      ],
      [
        "å¸",
        "¸"
      ],
      [
        "ãĤĬ",
        "ãģ¾ãģĻ"
      ],
      [
        "å",
        "¡"
      ],
      [
        "ãĤĴ",
        "è¡Į"
      ],
      [
        "åł",
        "±"
      ],
      [
        "éŁ³",
        "æ¥½"
      ],
      [
        "çĦ",
        "¶"
      ],
      [
        "è",
        "º"
      ],
      [
        "Ġ",
        "f"
      ],
      [
        "ãĤ¤",
        "ãĥ«"
      ],
      [
        "è¨Ī",
        "ç®Ĺ"
      ],
      [
        "ãĤ³",
        "ãĥ³ãĥ"
      ],
      [
        "ï¼",
        "ļ"
      ],
      [
        "æĢ",
        "Ŀ"
      ],
      [
        "åİŁ",
        "åŃĲ"
      ],
      [
        "ä¸»",
        "ç¾©"
      ],
      [
        "ãģķ",
        "ãģĽ"
      ],
      [
        "å¹",
        "³"
      ],
      [
        "åĽ",
        "³"
      ],
      [
        "e",
        "l"
      ],
      [
        "æ¥",
        "µ"
      ],
      [
        "łĶ",
        "ç©¶"
      ],
      [
        "ãģĦ",
        "ãĤĭ"
      ],
      [
        "ãģ¨ãģª",
        "ãģ£ãģŁ"
      ],
      [
        "ãĤ¹",
        "ãĤ¿"
      ],
      [
        "éŁ",
        "¿"
      ],
      [
        "s",
        "i"
      ],
      [
        "ãĥĶãĤ¢",
        "ãĥİ"
      ],
      [
        "åĳ",
        "½"
      ],
      [
        "19",
        "9"
      ],
      [
        "æĶ¿",
        "æ²»"
      ],
      [
        "çķ",
        "ª"
      ],
      [
        "å",
        "§ĭ"
      ],
      [
        "Ġ",
        "2"
      ],
      [
        "ãĥĨ",
        "ãĤ£"
      ],
      [
        "ç",
        "¯"
      ],
      [
        "è",
        "¶"
      ],
      [
        "ãģ®",
        "ãĤĪãģĨãģª"
      ],
      [
        "å·",
        "¥"
      ],
      [
        "ãĤı",
        "ãĤĮãĤĭ"
      ],
      [
        "ãģ®",
        "ãģ¯"
      ],
      [
        "èª",
        "į"
      ],
      [
        "åı",
        "²"
      ],
      [
        "ãĥª",
        "ãĤ«"
      ],
      [
        "ãĤ¤",
        "ãĥĪ"
      ],
      [
        "åį",
        "Ĭ"
      ],
      [
        "å¼",
        "·"
      ],
      [
        "åĮ",
        "Ĺ"
      ],
      [
        "è¼",
        "ī"
      ],
      [
        "ä½",
        "ķ"
      ],
      [
        "ãģŁãĤģ",
        "ãģ«"
      ],
      [
        "ãĥ³",
        "ãĤ¹"
      ],
      [
        "ãģ®å",
        "Ĳ"
      ],
      [
        "åı",
        "¤"
      ],
      [
        "èŃ",
        "·"
      ],
      [
        "æĶ",
        "¾"
      ],
      [
        "çµĲ",
        "æŀľ"
      ],
      [
        "æ",
        "¤ľ"
      ],
      [
        "ç",
        "ĭ"
      ],
      [
        "è",
        "ģ"
      ],
      [
        "ãģĵ",
        "ãģĵ"
      ],
      [
        "å¤§",
        "åŃ¦"
      ],
      [
        "è¡¨",
        "ç¤º"
      ],
      [
        "èº",
        "«"
      ],
      [
        "ãģ",
        "²"
      ],
      [
        "ä¸",
        "İ"
      ],
      [
        "ãĤĪãģĨ",
        "ãģ«ãģª"
      ],
      [
        "ãģªãģ©",
        "ãģ®"
      ],
      [
        "æł",
        "¸"
      ],
      [
        "èį",
        "·"
      ],
      [
        "Ġ",
        "a"
      ],
      [
        "ãģ®å",
        "ł´"
      ],
      [
        "åŁ",
        "Ł"
      ],
      [
        "ãģĮ",
        "ãģĤãĤĬ"
      ],
      [
        "ç´",
        "¢"
      ],
      [
        "ç",
        "²"
      ],
      [
        "åĪ",
        "¤"
      ],
      [
        "ãģĵãĤĮ",
        "ãģ¯"
      ],
      [
        "ãģ",
        "¼"
      ],
      [
        "ãģ®å",
        "½"
      ],
      [
        "èĭ",
        "±"
      ],
      [
        "ãĤĴ",
        "çĶ¨"
      ],
      [
        "é¤",
        "¨"
      ],
      [
        "o",
        "t"
      ],
      [
        "å",
        "Ħ"
      ],
      [
        "ãģĹ",
        "ãĤĩãģĨ"
      ],
      [
        "çĬ",
        "¶"
      ],
      [
        "å",
        "»"
      ],
      [
        "ãģ",
        "¥"
      ],
      [
        "è¡Į",
        "åĪĹ"
      ],
      [
        "éĸ¢",
        "ä¿Ĥ"
      ],
      [
        "æħ",
        "ĭ"
      ],
      [
        "Ġ",
        "ãģ¯"
      ],
      [
        "ä¾ĭ",
        "ãģĪãģ°"
      ],
      [
        "ãĥģ",
        "ãĥ£"
      ],
      [
        "ãģ®",
        "ä¸Ģ"
      ],
      [
        "æ±",
        "º"
      ],
      [
        "ãģ®å",
        "¼"
      ],
      [
        "è¦ģ",
        "ç´ł"
      ],
      [
        "å",
        "Ļ"
      ],
      [
        "çī",
        "Ī"
      ],
      [
        "æİ",
        "¥"
      ],
      [
        "ãĥ",
        "¯"
      ],
      [
        "å¤§",
        "ãģį"
      ],
      [
        "è§",
        "Ĵ"
      ],
      [
        "æ",
        "Ł"
      ],
      [
        "ãģ®å",
        "ı"
      ],
      [
        "å¤ļ",
        "ãģĦ"
      ],
      [
        "æº",
        "ĸ"
      ],
      [
        "å®",
        "¹"
      ],
      [
        "ä»",
        "¶"
      ],
      [
        "ãģĵãĤĮ",
        "ãĤī"
      ],
      [
        "ä¿Ŀ",
        "èŃ·"
      ],
      [
        "ãĤĮ",
        "ãģŁ"
      ],
      [
        "20",
        "2"
      ],
      [
        "ãģĽ",
        "ãĤĵ"
      ],
      [
        "æı",
        "Ľ"
      ],
      [
        "1",
        "2"
      ],
      [
        "Ġ",
        "{"
      ],
      [
        "èµ",
        "¤"
      ],
      [
        "Ġ",
        "B"
      ],
      [
        "Ġ",
        "P"
      ],
      [
        "éĢ",
        "Ł"
      ],
      [
        "ãģ®è",
        "ĳĹä½ľ"
      ],
      [
        "æĮ",
        "ĩ"
      ],
      [
        "åĥ",
        "ı"
      ],
      [
        "¾",
        "Į"
      ],
      [
        "è",
        "·"
      ],
      [
        "èª",
        "¿"
      ],
      [
        "ä¿",
        "¡"
      ],
      [
        "ä¸ĸ",
        "ç´Ģ"
      ],
      [
        "åĻ",
        "¨"
      ],
      [
        "ãĥ",
        "Ĵ"
      ],
      [
        "ãģ«ãģĬ",
        "ãģĳãĤĭ"
      ],
      [
        "ãģ®å¤",
        "§"
      ],
      [
        "æ¶",
        "Ī"
      ],
      [
        "a",
        "l"
      ],
      [
        "ï",
        "½"
      ],
      [
        "ãģ®æ",
        "Ļ"
      ],
      [
        "ä½ľ",
        "åĵģ"
      ],
      [
        "åĪ©",
        "çĶ¨"
      ],
      [
        "å°ĳå¥³",
        "æ¼«çĶ»"
      ],
      [
        "Ġ",
        "C"
      ],
      [
        "ãģ£",
        "ãģ¦ãģĦ"
      ],
      [
        "çĤ",
        "º"
      ],
      [
        "æĥ",
        "³"
      ],
      [
        "æ¯",
        "Ķ"
      ],
      [
        "éĽ»",
        "èį·"
      ],
      [
        "ç¨",
        "®"
      ],
      [
        "ãģ§",
        "ãģĤãģ£ãģŁ"
      ],
      [
        "ãĥª",
        "ãĤ¹"
      ],
      [
        "çŃ",
        "Ķ"
      ],
      [
        "èŃ",
        "ĺ"
      ],
      [
        "ãģ¨",
        "è¨Ģ"
      ],
      [
        "çµ",
        "Ĥ"
      ],
      [
        "æĸ¹",
        "æ³ķ"
      ],
      [
        "Ġ",
        "+"
      ],
      [
        "ãĤĴ",
        "åıĹ"
      ],
      [
        "è¦",
        "³"
      ],
      [
        "éĽ",
        "£"
      ],
      [
        "éģĭ",
        "åĭķ"
      ],
      [
        "åĪ",
        "ĩ"
      ],
      [
        "ãĤ¢",
        "ãĥ¡"
      ],
      [
        "ãģ®å",
        "°"
      ],
      [
        "åĲ",
        "Ħ"
      ],
      [
        "±",
        "éŁ¿"
      ],
      [
        "åı",
        "Ĭ"
      ],
      [
        "ãĥĥ",
        "ãĥĹ"
      ],
      [
        "r",
        "e"
      ],
      [
        "è©",
        "±"
      ],
      [
        "éł",
        "ħ"
      ],
      [
        "åı",
        "Ĥ"
      ],
      [
        "ãĥ©",
        "ãĤ¤"
      ],
      [
        "ãĤ",
        "´"
      ],
      [
        "ãģª",
        "ãģĬ"
      ],
      [
        "åĮ»",
        "åŃ¦"
      ],
      [
        "r",
        "o"
      ],
      [
        "ãģ",
        "Ķ"
      ],
      [
        "è©",
        "ŀ"
      ],
      [
        "ãĤ¦",
        "ãĤ§"
      ],
      [
        "ç¥",
        "ŀ"
      ],
      [
        "åº",
        "ĥ"
      ],
      [
        "ãģ®åł´",
        "åĲĪ"
      ],
      [
        "é",
        "Į"
      ],
      [
        "ãĥ¼",
        "ãĤ¯"
      ],
      [
        "ãĥ¼ãĥ",
        "Ħ"
      ],
      [
        "æ¼",
        "Ķ"
      ],
      [
        "çľ",
        "Ł"
      ],
      [
        "A",
        "I"
      ],
      [
        "ãģĹ",
        "ãģªãģĦ"
      ],
      [
        "ãģĹãģ¦ãģĦ",
        "ãģŁ"
      ],
      [
        "ãĤ¢ãĥ¡",
        "ãĥªãĤ«"
      ],
      [
        "èª",
        "Ń"
      ],
      [
        "m",
        "b"
      ],
      [
        "¤",
        "ĩ"
      ],
      [
        "ãģĻãĤĭ",
        "ãģĵãģ¨ãģĮ"
      ],
      [
        "e",
        "t"
      ],
      [
        "ç",
        "¹"
      ],
      [
        "ãĤ¯",
        "ãĥĪ"
      ],
      [
        "19",
        "6"
      ],
      [
        "ç",
        "łĶç©¶"
      ],
      [
        "ãģ®å",
        "Ľ"
      ],
      [
        "å®ļ",
        "ç¾©"
      ],
      [
        "åĵ",
        "¡"
      ],
      [
        "ç©",
        "º"
      ],
      [
        "åĨ",
        "Ĩ"
      ],
      [
        "æ",
        "Ĵ"
      ],
      [
        "ãĤĭ",
        "ãģ¨"
      ],
      [
        "åĪ",
        "Ĭ"
      ],
      [
        "äº",
        "¬"
      ],
      [
        "çŃ",
        "ĸ"
      ],
      [
        "éĿ",
        "ŀ"
      ],
      [
        "g",
        "h"
      ],
      [
        "ãĥķ",
        "ãĤ£"
      ],
      [
        "å¢",
        "Ĺ"
      ],
      [
        "ãģĬ",
        "ãĤĪ"
      ],
      [
        "çĶŁ",
        "çī©"
      ],
      [
        "æĻĤ",
        "ä»£"
      ],
      [
        "ç§ĳ",
        "åŃ¦"
      ],
      [
        "ç¿",
        "Ĵ"
      ],
      [
        "å¡",
        "ļ"
      ],
      [
        "ãĤį",
        "ãģĨ"
      ],
      [
        "ãģªãģĭ",
        "ãģ£ãģŁ"
      ],
      [
        "i",
        "s"
      ],
      [
        "Ġ",
        "d"
      ],
      [
        "ãģ®å",
        "Ģ"
      ],
      [
        "èĤ",
        "²"
      ],
      [
        "Ġ",
        "\""
      ],
      [
        "å°",
        "Ĩ"
      ],
      [
        "ä¸Ģ",
        "æĸ¹"
      ],
      [
        "ãĤ®",
        "ãĥ¼"
      ],
      [
        "¥",
        "¿"
      ],
      [
        "æĸĩ",
        "åĮĸ"
      ],
      [
        "ãĥĨ",
        "ãĤ¹"
      ],
      [
        "çı¾",
        "åľ¨"
      ],
      [
        "ãĤīãĤĮ",
        "ãģŁ"
      ],
      [
        "ãģ¨åĳ¼",
        "ãģ°"
      ],
      [
        "ãĤĴ",
        "ä½¿"
      ],
      [
        "äº",
        "¤"
      ],
      [
        "ä»¥",
        "ä¸ĭ"
      ],
      [
        "å±",
        "ķ"
      ],
      [
        "ãģ®æĻ",
        "Ĥ"
      ],
      [
        "ãĤ¢",
        "ãĥĭ"
      ],
      [
        "å¼",
        "µ"
      ],
      [
        "èĳĹä½ľ",
        "çī©"
      ],
      [
        "ãģ«å¯¾",
        "ãģĹãģ¦"
      ],
      [
        "ãĥį",
        "ãĥ«"
      ],
      [
        "èī",
        "²"
      ],
      [
        "ãĤ¹",
        "ãĥĿ"
      ],
      [
        "ãĢį",
        "ãĢĮ"
      ],
      [
        "è¡¨",
        "çı¾"
      ],
      [
        "ãĤ¯ãĥ©",
        "ãĥĨãĤ¹"
      ],
      [
        "ãģ§ãģ¯",
        "ãģªãģĦ"
      ],
      [
        "ãģ¨ãģª",
        "ãĤĬ"
      ],
      [
        "t",
        "h"
      ],
      [
        "ãģ",
        "ŀ"
      ],
      [
        "ãģŁ",
        "ãģł"
      ],
      [
        "ï¼",
        "Ŀ"
      ],
      [
        "çī©",
        "è³ª"
      ],
      [
        "æĽ",
        "²"
      ],
      [
        "æľŁ",
        "éĸĵ"
      ],
      [
        "æ±",
        "Ĥ"
      ],
      [
        "ãģ",
        "Ń"
      ],
      [
        "éĢ",
        "ģ"
      ],
      [
        "ä¸Ń",
        "åĽ½"
      ],
      [
        "éĮ",
        "²"
      ],
      [
        "I",
        "C"
      ],
      [
        "è",
        "¤ĩ"
      ],
      [
        "ãģ¾",
        "ãģĽãĤĵ"
      ],
      [
        "ãģĳ",
        "ãģ¦"
      ],
      [
        "ãģ«",
        "ãģĤãĤĭ"
      ],
      [
        "ä¸",
        "¡"
      ],
      [
        "ãģķ",
        "ãģĦ"
      ],
      [
        "äºº",
        "æ°Ĺ"
      ],
      [
        "ãĥĨ",
        "ãĥ¬"
      ],
      [
        "è³",
        "ĩ"
      ],
      [
        "ãĤīãĤĮ",
        "ãģ¦ãģĦãĤĭ"
      ],
      [
        "ãĤ½",
        "ãĤ¯ãĥ©ãĥĨãĤ¹"
      ],
      [
        "ãĥĹãĥŃãĤ°ãĥ©",
        "ãĥł"
      ],
      [
        "å¿",
        "µ"
      ],
      [
        "o",
        "o"
      ],
      [
        "ãĥ¼ãĥ",
        "Ĺ"
      ],
      [
        "æĸ¹",
        "ç¨ĭ"
      ],
      [
        "æ¨",
        "Ļ"
      ],
      [
        "åıĸ",
        "ãĤĬ"
      ],
      [
        "èī",
        "¯"
      ],
      [
        "çĭ",
        "¬"
      ],
      [
        "æĸ¹ç¨ĭ",
        "å¼ı"
      ],
      [
        "è",
        "Ħ"
      ],
      [
        "éĥ¨",
        "åĪĨ"
      ],
      [
        "ãĥĻ",
        "ãĥ«"
      ],
      [
        "æ¶",
        "²"
      ],
      [
        "ç",
        "¸"
      ],
      [
        "ãģĦ",
        "ãģ¾ãģĻ"
      ],
      [
        "ãĤ¹",
        "ãĥĨ"
      ],
      [
        "åĬ",
        "¹"
      ],
      [
        "æĻĤ",
        "éĸĵ"
      ],
      [
        "ãģ®æķ",
        "°"
      ],
      [
        "1",
        "8"
      ],
      [
        "ãģ®",
        "ãģ¿"
      ],
      [
        "ãģŁ",
        "ãģ¨"
      ],
      [
        "ãģ¤",
        "ãģ¾ãĤĬ"
      ],
      [
        "æĥħ",
        "åł±"
      ],
      [
        "è¨",
        "¼"
      ],
      [
        "èĩª",
        "çĦ¶"
      ],
      [
        "ãĤĴ",
        "ãĤĤ"
      ],
      [
        "ãĢį",
        "ï¼Ī"
      ],
      [
        "ãĥĩ",
        "ãĤ¶"
      ],
      [
        "æº",
        "Ĳ"
      ],
      [
        "ãĤ",
        "ĥ"
      ],
      [
        "ãģ®æ",
        "Ń"
      ],
      [
        "éĽ",
        "¢"
      ],
      [
        "éģ",
        "ķ"
      ],
      [
        "ãĤ¨",
        "ãĥįãĥ«"
      ],
      [
        "è£",
        "½"
      ],
      [
        "ri",
        "gh"
      ],
      [
        "ãĤ¨ãĥįãĥ«",
        "ãĤ®ãĥ¼"
      ],
      [
        "ä»",
        "ķ"
      ],
      [
        "ãģĬãĤĪ",
        "ãģ³"
      ],
      [
        "ãģ®",
        "ãģĭ"
      ],
      [
        "æĸ",
        "Ń"
      ],
      [
        "è²",
        "»"
      ],
      [
        "ãģĿãģ®å",
        "¾Į"
      ],
      [
        "æ¤ľ",
        "ç´¢"
      ],
      [
        "è",
        "¥¿"
      ],
      [
        "ãĤ",
        "Ĩ"
      ],
      [
        "ãĥ",
        "´"
      ],
      [
        "åī",
        "²"
      ],
      [
        "A",
        "S"
      ],
      [
        "f",
        "t"
      ],
      [
        "ãĤģ",
        "ãģ¦"
      ],
      [
        "ãĤĵ",
        "ãģ§"
      ],
      [
        "èª¬",
        "æĺİ"
      ],
      [
        "¦",
        "Ĥ"
      ],
      [
        "åħ",
        "Ī"
      ],
      [
        "ãĥĸ",
        "ãĥ©"
      ],
      [
        "è",
        "Ĭ"
      ],
      [
        "Ġ",
        "S"
      ],
      [
        "o",
        "l"
      ],
      [
        "åħ",
        "ī"
      ],
      [
        "ãģ©",
        "ãģĨ"
      ],
      [
        "å½",
        "¼"
      ],
      [
        "ãĥķãĤ",
        "©"
      ],
      [
        "Ġ",
        "ãģ®"
      ],
      [
        "ãĤ¢",
        "ãĤ¤"
      ],
      [
        "ãģ¾ãģŁ",
        "ãģ¯"
      ],
      [
        "éĽĨ",
        "åĲĪ"
      ],
      [
        "ãģķ",
        "ãĤī"
      ],
      [
        "ãĥ",
        "¦"
      ],
      [
        "ãģĮ",
        "åĩº"
      ],
      [
        "ãģĹ",
        "ãģı"
      ],
      [
        "å¤",
        "·"
      ],
      [
        "ãģĳ",
        "ãģŁ"
      ],
      [
        "ãģ§ãģį",
        "ãģ¾ãģĻ"
      ],
      [
        "è¨ĺ",
        "åı·"
      ],
      [
        "è¾",
        "¼"
      ],
      [
        "ãĤ¢ãĥĭ",
        "ãĥ¡"
      ],
      [
        "a",
        "r"
      ],
      [
        "ãĥ",
        "Į"
      ],
      [
        "åİ",
        "»"
      ],
      [
        "ãģ§ãģ¯",
        "ãģªãģı"
      ],
      [
        "ãģ¨ãģĦ",
        "ãģ£ãģŁ"
      ],
      [
        "er",
        "l"
      ],
      [
        "å±",
        "ŀ"
      ],
      [
        "åıĹ",
        "é¨ĵ"
      ],
      [
        "éģ",
        "©"
      ],
      [
        "åĽ",
        "²"
      ],
      [
        "éģ",
        "Ķ"
      ],
      [
        "åŃĺåľ¨",
        "ãģĻãĤĭ"
      ],
      [
        "ãĥĨãĥ¬",
        "ãĥĵ"
      ],
      [
        "3",
        "0"
      ],
      [
        "İ",
        "Ł"
      ],
      [
        "ãĥ³",
        "ãĤ¸"
      ],
      [
        "ãĤ³",
        "ãĥŁ"
      ],
      [
        "ãĥĩ",
        "ãĥ¼ãĤ¿"
      ],
      [
        "ãģ«éĸ¢",
        "ãģĻãĤĭ"
      ],
      [
        "æľ",
        "Ŀ"
      ],
      [
        "æ³",
        "¢"
      ],
      [
        "æ³",
        "¨"
      ],
      [
        "çĲĨ",
        "åŃ¦"
      ],
      [
        "ãĤ¹ãĥĿ",
        "ãĥ¼ãĥĦ"
      ],
      [
        "ãģĦ",
        "ãģ¯"
      ],
      [
        "çĲĨ",
        "è«ĸ"
      ],
      [
        "a",
        "n"
      ],
      [
        "å",
        "ĸ"
      ],
      [
        "ãĥª",
        "ãĥ³"
      ],
      [
        "ãģ»",
        "ãģĭ"
      ],
      [
        "éģ¸",
        "æĬ"
      ],
      [
        "ãĥ",
        "Ľ"
      ],
      [
        "ãģ®å",
        "Ń"
      ],
      [
        "èĢħ",
        "ãģĮ"
      ],
      [
        "å¸",
        "Ĥ"
      ],
      [
        "ãģĵãĤĮ",
        "ãĤĴ"
      ],
      [
        "ãģĿãĤĮ",
        "ãģŀ"
      ],
      [
        "ãģĿãĤĮãģŀ",
        "ãĤĮ"
      ],
      [
        "ãĥ",
        "¤"
      ],
      [
        "ãĥī",
        "ãĥ©"
      ],
      [
        "ä»¥",
        "ä¸Ĭ"
      ],
      [
        "èŃ",
        "°"
      ],
      [
        "ãģª",
        "ãĤĬ"
      ],
      [
        "çĶ",
        "°"
      ],
      [
        "ä½",
        "İ"
      ],
      [
        "å®",
        "ī"
      ],
      [
        "in",
        "t"
      ],
      [
        "*",
        "*"
      ],
      [
        "æ",
        "»"
      ],
      [
        "äº",
        "ī"
      ],
      [
        "çī©",
        "ä½ĵ"
      ],
      [
        "ä¾",
        "Ľ"
      ],
      [
        "æĶ",
        "¹"
      ],
      [
        "å½¢",
        "å¼ı"
      ],
      [
        "ãĥŁ",
        "ãĥ³ãĤ°"
      ],
      [
        "çī¹",
        "ãģ«"
      ],
      [
        "æĦı",
        "åĳ³"
      ],
      [
        "é£",
        "Ł"
      ],
      [
        "Ġ",
        "_"
      ],
      [
        "ãĢģ",
        "ãĢİ"
      ],
      [
        "ãģĹ",
        "ãģ¾"
      ],
      [
        "ãģ®å",
        "İŁ"
      ],
      [
        "ãģķãĤĮ",
        "ãģ¦"
      ],
      [
        "è¡Į",
        "çĤº"
      ],
      [
        "æŃ",
        "»"
      ],
      [
        "AS",
        "IC"
      ],
      [
        "d",
        "a"
      ],
      [
        "ä¸",
        "ĩ"
      ],
      [
        "è¦",
        "ĸ"
      ],
      [
        "éĻ",
        "į"
      ],
      [
        "å®Ł",
        "éļĽ"
      ],
      [
        "Ġ",
        "3"
      ],
      [
        "åı",
        "İ"
      ],
      [
        "çĶ»",
        "åĥı"
      ],
      [
        "æ¨",
        "¡"
      ],
      [
        "æĮ",
        "ģ"
      ],
      [
        "1",
        "5"
      ],
      [
        "å",
        "§"
      ],
      [
        "æ",
        "·"
      ],
      [
        "Ħ",
        "ı"
      ],
      [
        "ãĥ³",
        "ãĤ¿ãĥ¼"
      ],
      [
        "ãģ®å",
        "į"
      ],
      [
        "åŃ¦",
        "æł¡"
      ],
      [
        "åĽ",
        "£"
      ],
      [
        "ãĤĴæ",
        "ı"
      ],
      [
        "me",
        "s"
      ],
      [
        "æ",
        "ģ"
      ],
      [
        "ãģ",
        "İ"
      ],
      [
        "ãģĵãģ®",
        "ãĤĪãģĨãģª"
      ],
      [
        "è²",
        "¡"
      ],
      [
        "ãģ¹",
        "ãģ¦"
      ],
      [
        "Ŀ",
        "¦"
      ],
      [
        "ãģ¨",
        "ãģ®"
      ],
      [
        "å¤",
        "©"
      ],
      [
        "ãģĿ",
        "ãģĹãģ¦"
      ],
      [
        "éĽ",
        "ĳ"
      ],
      [
        "ãĤĴæ",
        "İ"
      ],
      [
        "ãĥ¬",
        "ãĤ¤"
      ],
      [
        "ç§",
        "»"
      ],
      [
        "èµ¤",
        "å¡ļ"
      ],
      [
        "ãĤģ",
        "ãģŁ"
      ],
      [
        "ãĤĴæ",
        "±"
      ],
      [
        "å£",
        "²"
      ],
      [
        "ãĥĹãĥŃãĤ°ãĥ©",
        "ãĥŁãĥ³ãĤ°"
      ],
      [
        "ãģį",
        "ãģŁ"
      ],
      [
        "ãģĹãģŁ",
        "ãģĮ"
      ],
      [
        "è¡Į",
        "ãĤıãĤĮ"
      ],
      [
        "è¨ĺ",
        "è¿°"
      ],
      [
        "è¾",
        "º"
      ],
      [
        "ãģĵ",
        "ãģĨ"
      ],
      [
        "ãĥ¼ãĥ",
        "ŀ"
      ],
      [
        "ä»",
        "»"
      ],
      [
        "ãģĪ",
        "ãģ¦"
      ],
      [
        "ãĤı",
        "ãĤĬ"
      ],
      [
        "èĢħ",
        "ãģ¯"
      ],
      [
        "ç·",
        "¨"
      ],
      [
        "Ġ",
        "0"
      ],
      [
        "äºº",
        "éĸĵ"
      ],
      [
        "ãĥ³ãĥ",
        "Ģ"
      ],
      [
        "å¥",
        "ı"
      ],
      [
        "t",
        "e"
      ],
      [
        "æķ",
        "´"
      ],
      [
        "ãģ¤",
        "ãģ®"
      ],
      [
        "éĽ»",
        "æ°Ĺ"
      ],
      [
        "ãĤ³",
        "ãĥ³"
      ],
      [
        "ãĤ¸",
        "ãĥ£"
      ],
      [
        "Ŀ¦",
        "å¤·"
      ],
      [
        "ç",
        "±"
      ],
      [
        "Ġ",
        "s"
      ],
      [
        "ãĥ¼ãĥ",
        "Ń"
      ],
      [
        "éĢ",
        "Ĩ"
      ],
      [
        "ãģ¡",
        "ãĤĥ"
      ],
      [
        "1",
        "1"
      ],
      [
        "ãĥ¼",
        "ãĤ·ãĥ§ãĥ³"
      ],
      [
        "ãģ®å",
        "Ĩ"
      ],
      [
        "ãģĵãģ¨",
        "ãģ¯"
      ],
      [
        "ãģĪ",
        "ãģŁ"
      ],
      [
        "ãģł",
        "ãģ£ãģŁ"
      ],
      [
        "ãģ¨ãģĹãģ¦",
        "ãģ¯"
      ],
      [
        "å®Ł",
        "è¡Į"
      ],
      [
        "çı¾",
        "ä»£"
      ],
      [
        "åĲĳ",
        "ãģĳ"
      ],
      [
        "éĢ£",
        "è¼ī"
      ],
      [
        "ãĤ¤",
        "ãĥĦ"
      ],
      [
        "éĥ",
        "½"
      ],
      [
        "ãģŁãģ¨",
        "ãģĪãģ°"
      ],
      [
        "Ġ",
        "c"
      ],
      [
        "ãģ®æ",
        "³"
      ],
      [
        "éģ",
        "º"
      ],
      [
        "å¾",
        "®"
      ],
      [
        "çĻ",
        "Ĥ"
      ],
      [
        "ãģł",
        "ãĤįãģĨ"
      ],
      [
        "ãĤĵ",
        "ãģł"
      ],
      [
        "ãĤŃ",
        "ãĥ£"
      ],
      [
        "ti",
        "mes"
      ],
      [
        "g",
        "e"
      ],
      [
        "è",
        "ı"
      ],
      [
        "è",
        "ĳ"
      ],
      [
        "Ġ",
        "ãĤĴ"
      ],
      [
        "ãģ£",
        "ãģ¦ãģĦãģŁ"
      ],
      [
        "è¨",
        "³"
      ],
      [
        "åĭ",
        "Ļ"
      ],
      [
        "èĩª",
        "çĶ±"
      ],
      [
        "éĩį",
        "è¦ģ"
      ],
      [
        "l",
        "i"
      ],
      [
        "t",
        "ri"
      ],
      [
        "Ĵ",
        "åŃĲ"
      ],
      [
        "ãģ",
        "ĸ"
      ],
      [
        "äº",
        "Ī"
      ],
      [
        "åĳ",
        "¨"
      ],
      [
        "æŃ",
        "¢"
      ],
      [
        "æ§ĭ",
        "éĢł"
      ],
      [
        "ãģ¨åĳ¼",
        "ãģ¶"
      ],
      [
        "è©¦",
        "é¨ĵ"
      ],
      [
        "èµ·",
        "ãģĵ"
      ],
      [
        "ãģ¨",
        "ãģĹãģŁ"
      ],
      [
        "ãĥª",
        "ãĤ¹ãĥĪ"
      ],
      [
        "éĸĭ",
        "çĻº"
      ],
      [
        "Ġ",
        "b"
      ],
      [
        "å®",
        "Į"
      ],
      [
        "æķ°",
        "åŃ¦"
      ],
      [
        "ãĤı",
        "ãģĽ"
      ],
      [
        "ãĥī",
        "ãĤ¤ãĥĦ"
      ],
      [
        "Ġ",
        "E"
      ],
      [
        "ä»",
        "¤"
      ],
      [
        "ãģ®æ",
        "ī"
      ],
      [
        "ãģĵãģ¨",
        "ãĤĤ"
      ],
      [
        "æĺ",
        "ĵ"
      ],
      [
        "ãģ«ãģ¤ãģĦãģ¦",
        "ãģ¯"
      ],
      [
        "âĢ",
        "»"
      ],
      [
        "åģ",
        "´"
      ],
      [
        "å°Ĩ",
        "è»į"
      ],
      [
        "ãģķãĤī",
        "ãģ«"
      ],
      [
        "ãģ®å",
        "¯"
      ],
      [
        "ãģ®æ",
        "Ķ"
      ],
      [
        "åĮĸ",
        "åŃ¦"
      ],
      [
        "10",
        "0"
      ],
      [
        "æ´»",
        "åĭķ"
      ],
      [
        "ãĥĩãĤ¶",
        "ãĤ¤ãĥ³"
      ],
      [
        "B",
        "ASIC"
      ],
      [
        "æ",
        "£"
      ],
      [
        "Ġ",
        "ãģ¨"
      ],
      [
        "æĸ",
        "Ļ"
      ],
      [
        "ãĥª",
        "ãĤ¢"
      ],
      [
        "åĮ",
        "º"
      ],
      [
        "æĸ¹",
        "åĲĳ"
      ],
      [
        "ãģ®åĪ",
        "Ĩ"
      ],
      [
        "åĪĨ",
        "é¡ŀ"
      ],
      [
        "åī",
        "µ"
      ],
      [
        "çĻº",
        "çĶŁ"
      ],
      [
        "ä»¥",
        "éĻį"
      ],
      [
        "ãģŁãģł",
        "ãģĹ"
      ],
      [
        "5",
        "0"
      ],
      [
        "å",
        "Ķ"
      ],
      [
        "ãģ",
        "Ĳ"
      ],
      [
        "ãĥ³",
        "ãģ¯"
      ],
      [
        "ãģ®å",
        "ķ"
      ],
      [
        "ä»",
        "Ĭ"
      ],
      [
        "ãģĿ",
        "ãģĨ"
      ],
      [
        "æŃ",
        "´"
      ],
      [
        "å¤ī",
        "åĮĸ"
      ],
      [
        "æĿ¡",
        "ç´Ħ"
      ],
      [
        "çķ°",
        "ãģªãĤĭ"
      ],
      [
        "ãģ®åĢ",
        "¤"
      ],
      [
        "ç",
        "Ĩ"
      ],
      [
        "ãĤ³",
        "ãĥ¼ãĥī"
      ],
      [
        "å¤ī",
        "æķ°"
      ],
      [
        "ç¶ļ",
        "ãģį"
      ],
      [
        "ti",
        "on"
      ],
      [
        "ãģ§",
        "ãģĤ"
      ],
      [
        "ãĤĮ",
        "ãģ¦ãģĦãĤĭ"
      ],
      [
        "éĻ",
        "¤"
      ],
      [
        "ãĤ¦",
        "ãĤ£"
      ],
      [
        "æ®",
        "µ"
      ],
      [
        "ï½",
        "ŀ"
      ],
      [
        "Ġ",
        "p"
      ],
      [
        "ãĤ¯",
        "ãĥŃ"
      ],
      [
        "åĳ",
        "Ĭ"
      ],
      [
        "åĨ",
        "į"
      ],
      [
        "ãģ«ãģĬãģĦãģ¦",
        "ãģ¯"
      ],
      [
        "Ġ",
        "_{"
      ],
      [
        "çļĦ",
        "ãģ«ãģ¯"
      ],
      [
        "ãĥķ",
        "ãĥ©"
      ],
      [
        "ãĤ«",
        "ãĥ¼ãĥ"
      ],
      [
        "ç¾",
        "İ"
      ],
      [
        "c",
        "d"
      ],
      [
        "ãĤĴ",
        "è¦ĭ"
      ],
      [
        "åħ",
        "¸"
      ],
      [
        "ä¼",
        "ģ"
      ],
      [
        "ãĤµ",
        "ãĤ¤ãĥĪ"
      ],
      [
        "æµ",
        "·"
      ],
      [
        "ç",
        "Ŀ"
      ],
      [
        "è",
        "Ĩ"
      ],
      [
        "ãģĦ",
        "ãģı"
      ],
      [
        "éĸ",
        "Ģ"
      ],
      [
        "æ©Ł",
        "èĥ½"
      ],
      [
        "ãĤĴæĮģ",
        "ãģ¤"
      ],
      [
        "n",
        "d"
      ],
      [
        "Ã",
        "Ĺ"
      ],
      [
        "ãģ",
        "µ"
      ],
      [
        "ãģª",
        "ãģĮ"
      ],
      [
        "ãĤ·",
        "ãĥ£"
      ],
      [
        "ä¸Ń",
        "å¿ĥ"
      ],
      [
        "ãĤ¦",
        "ãĥł"
      ],
      [
        "æĿ±",
        "äº¬"
      ],
      [
        "v",
        "e"
      ],
      [
        "ç",
        "ħ"
      ],
      [
        "ãĥ¥",
        "ãĥ¼"
      ],
      [
        "æķĻ",
        "èĤ²"
      ],
      [
        "ãģ¨åĳ¼ãģ°",
        "ãĤĮãĤĭ"
      ],
      [
        "ãģĵãģ¨",
        "ãģ§"
      ],
      [
        "åľ",
        "§"
      ],
      [
        "éł",
        "Ń"
      ],
      [
        "èĳĹä½ľ",
        "èĢħ"
      ],
      [
        "èĢĥ",
        "ãģĪãĤĭ"
      ],
      [
        "è·",
        "¯"
      ],
      [
        "mb",
        "da"
      ],
      [
        ":",
        "\\"
      ],
      [
        "ãĥ",
        "ĺ"
      ],
      [
        "ãģĳ",
        "ãĤĮãģ°"
      ],
      [
        "çĲ",
        "ĥ"
      ],
      [
        "æĦ",
        "Ł"
      ],
      [
        "éļ",
        "İ"
      ],
      [
        "la",
        "mbda"
      ],
      [
        "èĭ±",
        "èªŀ"
      ],
      [
        "èĳ",
        "ī"
      ],
      [
        "è",
        "Ŀ¦å¤·"
      ],
      [
        "é",
        "ľ"
      ],
      [
        "å¤",
        "±"
      ],
      [
        "in",
        "e"
      ],
      [
        "ä»¥",
        "å¤ĸ"
      ],
      [
        "æ",
        "¦Ĥ"
      ],
      [
        "Ġ",
        "ãģĮ"
      ],
      [
        "ãģ®",
        "äºº"
      ],
      [
        "ãĤĴ",
        "ä½ľ"
      ],
      [
        "ãģĵ",
        "ãĤį"
      ],
      [
        "æĻ",
        "¶"
      ],
      [
        "åĢ",
        "į"
      ],
      [
        "å¸",
        "Ŀ"
      ],
      [
        "è»",
        "¢"
      ],
      [
        "ãģ®å®",
        "ļ"
      ],
      [
        "ãģ®å®",
        "Ł"
      ],
      [
        "åħ±",
        "éĢļ"
      ],
      [
        "ãĥĩãĤ£",
        "ãĤ¢"
      ],
      [
        "ä¿ĿèŃ·",
        "æľŁéĸĵ"
      ],
      [
        "R",
        "I"
      ],
      [
        "å¾",
        "ĭ"
      ],
      [
        "åį",
        "Ĺ"
      ],
      [
        "æ´",
        "¾"
      ],
      [
        "éħ",
        "¸"
      ],
      [
        "è¶",
        "³"
      ],
      [
        "ç²",
        "ĴåŃĲ"
      ],
      [
        "ãģ®",
        "ãģĮ"
      ],
      [
        "ãģł",
        "ãģĮ"
      ],
      [
        "æ´",
        "ĭ"
      ],
      [
        "åĤ",
        "Ļ"
      ],
      [
        "åĲ«",
        "ãģ¾"
      ],
      [
        "æ",
        "Ĥ"
      ],
      [
        "ãģĨ",
        "ãģ¡"
      ],
      [
        "ãģĤãĤĭ",
        "ãģĦãģ¯"
      ],
      [
        "ãĤ¤",
        "ãĥ³ãĥ"
      ],
      [
        "ãģ«ãģª",
        "ãģ£ãģŁ"
      ],
      [
        "ãĥĥãĤ¯",
        "ãĤ¹"
      ],
      [
        "å£",
        "«"
      ],
      [
        "l",
        "o"
      ],
      [
        "ç",
        "Ĺ"
      ],
      [
        "ãģĹ",
        "ãģ°"
      ],
      [
        "éł",
        "Ĩ"
      ],
      [
        "æ¸",
        "Ľ"
      ],
      [
        "æı",
        "Ĳ"
      ],
      [
        "æĬĢ",
        "è¡ĵ"
      ],
      [
        "o",
        "m"
      ],
      [
        "è",
        "ĸ"
      ],
      [
        "ãģ§",
        "ãģ®"
      ],
      [
        "ãĥ³",
        "ãģ®"
      ],
      [
        "ãģ¤",
        "ãģĭ"
      ],
      [
        "åĪĨ",
        "ãģĭ"
      ],
      [
        "è¡¨",
        "ãģĻ"
      ],
      [
        "åĤ",
        "¬"
      ],
      [
        "éģİ",
        "åİ»"
      ],
      [
        "æ»",
        "ħ"
      ],
      [
        "éģº",
        "ä¼Ŀ"
      ],
      [
        "Ľ",
        "¸"
      ],
      [
        "ãĢĤ",
        "ï¼Ī"
      ],
      [
        "ãģĵãģ¨ãģĮ",
        "ãģ§ãģįãĤĭ"
      ],
      [
        "èģ",
        "ŀ"
      ],
      [
        "åĦ",
        "ª"
      ],
      [
        "ãģ®åķ",
        "ı"
      ],
      [
        "1",
        "4"
      ],
      [
        "ç",
        "Į"
      ],
      [
        "Ġ",
        "v"
      ],
      [
        "ãģŁ",
        "ãĤĬ"
      ],
      [
        "ãĤĪ",
        "ãģı"
      ],
      [
        "æĸ",
        "½"
      ],
      [
        "ãģ®æ",
        "Ģ"
      ],
      [
        "ãĤĦ",
        "ãģĻ"
      ],
      [
        "ãĤ·",
        "ãĥ¥"
      ],
      [
        "å¥",
        "½"
      ],
      [
        "éł",
        "ĺ"
      ],
      [
        "æĦ",
        "Ľ"
      ],
      [
        "ãĤĪãģĨãģ«ãģª",
        "ãģ£ãģŁ"
      ],
      [
        "å½",
        "¹"
      ],
      [
        "å¾Į",
        "ãģ«"
      ],
      [
        "åħ¨",
        "ãģ¦"
      ],
      [
        "ãģ»",
        "ãģ©"
      ],
      [
        "ç¨ĭ",
        "åº¦"
      ],
      [
        "s",
        "e"
      ],
      [
        "ãģª",
        "ãģĳãĤĮãģ°"
      ],
      [
        "åĪĨ",
        "éĩİ"
      ],
      [
        "ãĥĹ",
        "ãĥ©"
      ],
      [
        "çĻº",
        "å±ķ"
      ],
      [
        "å±",
        "±"
      ],
      [
        "åŁº",
        "æľ¬"
      ],
      [
        "ãĤ³ãĥ³ãĥ",
        "Ķ"
      ],
      [
        "ãģķãģĽ",
        "ãĤĭ"
      ],
      [
        "çħ",
        "§"
      ],
      [
        "d",
        "i"
      ],
      [
        "Ġ",
        "t"
      ],
      [
        "ï¼",
        "Į"
      ],
      [
        "ãĤĤ",
        "ãģĹ"
      ],
      [
        "åĪ",
        "ĳ"
      ],
      [
        "å¹´",
        "åº¦"
      ],
      [
        "åı",
        "°"
      ],
      [
        "å½",
        "±éŁ¿"
      ],
      [
        "ãĤ«",
        "ãĥ¬"
      ],
      [
        "è©",
        "ķ"
      ],
      [
        "ãĤĪãĤĬ",
        "ãĤĤ"
      ],
      [
        "ç¯",
        "Ģ"
      ],
      [
        "ãĥīãĥ©",
        "ãĥŀ"
      ],
      [
        "æ",
        "¡"
      ],
      [
        "ç",
        "°"
      ],
      [
        "ãĤī",
        "ãģªãģĦ"
      ],
      [
        "ãĥķ",
        "ãĥĪ"
      ],
      [
        "åĩ",
        "¦"
      ],
      [
        "ãĥŀ",
        "ãĤ¤"
      ],
      [
        "ç«",
        "¶"
      ],
      [
        "ãģ§ãģį",
        "ãģªãģĦ"
      ],
      [
        "ç¶",
        "Ļ"
      ],
      [
        "Ġ",
        "D"
      ],
      [
        "ãĤĴ",
        "ä½¿çĶ¨"
      ],
      [
        "ãģŁ",
        "ãģ¡"
      ],
      [
        "è¦",
        "ª"
      ],
      [
        "è¿",
        "Ķ"
      ],
      [
        "ãģ®å¤",
        "ī"
      ],
      [
        "ãĤĴè¡Į",
        "ãģĨ"
      ],
      [
        "ãģĵãģĵ",
        "ãģ§"
      ],
      [
        "ä¸İ",
        "ãģĪ"
      ],
      [
        "ç",
        "ª"
      ],
      [
        "è",
        "¬"
      ],
      [
        "ãĥ",
        "¨"
      ],
      [
        "å®",
        "³"
      ],
      [
        "åĪĨ",
        "åŃĲ"
      ],
      [
        "åĩº",
        "é¡Į"
      ],
      [
        "å°ĳ",
        "å¹´"
      ],
      [
        "çµĲ",
        "åĲĪ"
      ],
      [
        "ãĤ",
        "¼"
      ],
      [
        "ãģ®",
        "éĸĵ"
      ],
      [
        "ä»",
        "®"
      ],
      [
        "ãģ®è",
        "³"
      ],
      [
        "ma",
        "tri"
      ],
      [
        "æ°ĳ",
        "æĹı"
      ],
      [
        "æ§ĭ",
        "æĪĲ"
      ],
      [
        "åĥ",
        "į"
      ],
      [
        "ãģ®å¯",
        "¾"
      ],
      [
        "cd",
        "ot"
      ],
      [
        "matri",
        "x"
      ],
      [
        "ãģ¨",
        "èĢĥãģĪ"
      ],
      [
        "èª",
        "ĺ"
      ],
      [
        "åħ",
        "·"
      ],
      [
        "åº",
        "ľ"
      ],
      [
        "ãĤ¦",
        "ãĤ¶"
      ],
      [
        "åĲĮ",
        "æ§ĺ"
      ],
      [
        "ãģ®å½",
        "¢"
      ],
      [
        "Ħı",
        "åĳ³"
      ],
      [
        "}",
        "\\"
      ],
      [
        "é",
        "ī"
      ],
      [
        "Ġ",
        "4"
      ],
      [
        "ãģ®æ",
        "Ŀ"
      ],
      [
        "ãģķãĤĮ",
        "ãģ¦ãģĦãģŁ"
      ],
      [
        "å¼",
        "¦"
      ],
      [
        "çĻ",
        "½"
      ],
      [
        "çĲĨ",
        "è§£"
      ],
      [
        "ç¬",
        "¦"
      ],
      [
        "æľĢ",
        "åĪĿ"
      ],
      [
        "ãĤ¤ãĥ³",
        "ãĤ¿"
      ],
      [
        "çİ",
        "ĭ"
      ],
      [
        "ãģĮçĻ»åł´",
        "ãģĹãģŁ"
      ],
      [
        "å¼ķ",
        "ãģį"
      ],
      [
        "çĬ¶",
        "æħĭ"
      ],
      [
        "ãĥ¼",
        "ãĥ³"
      ],
      [
        "ãģĹãģ¦",
        "ãģĬãĤĬ"
      ],
      [
        "ãĥĥ",
        "ãĥģ"
      ],
      [
        "ãĤ·",
        "ãĤ¹ãĥĨ"
      ],
      [
        "åĩº",
        "æĿ¥"
      ],
      [
        "le",
        "ft"
      ],
      [
        "å¸¸",
        "ãģ«"
      ],
      [
        "ãģ®å¼",
        "ı"
      ],
      [
        "ãĤĴæ±",
        "Ĥ"
      ],
      [
        "ãĤ·ãĤ¹ãĥĨ",
        "ãĥł"
      ],
      [
        "^",
        "{"
      ],
      [
        "b",
        "e"
      ],
      [
        "Ġ",
        "M"
      ],
      [
        "ãģĮ",
        "çĶŁ"
      ],
      [
        "ãģ®å",
        "Ĭ"
      ],
      [
        "å¤",
        "«"
      ],
      [
        "åĲĪ",
        "ãĤıãģĽ"
      ],
      [
        "çī©",
        "çĲĨ"
      ],
      [
        "19",
        "5"
      ],
      [
        "æĸĩ",
        "æ³ķ"
      ],
      [
        "åķ",
        "Ĩ"
      ],
      [
        "æİ",
        "¨"
      ],
      [
        "é«ĺ",
        "ãģĦ"
      ],
      [
        "ä»ĸ",
        "ãģ®"
      ],
      [
        "å¢",
        "ĥ"
      ],
      [
        "righ",
        "t"
      ],
      [
        "ãģ®åķı",
        "é¡Į"
      ],
      [
        "g",
        "a"
      ],
      [
        "ãģª",
        "ãģ®ãģ§"
      ],
      [
        "ç´",
        "Ķ"
      ],
      [
        "ãĥ³ãĥ",
        "ĳ"
      ],
      [
        "ãĤĵ",
        "ãģ©"
      ],
      [
        "æī",
        "±"
      ],
      [
        "ç·",
        "ı"
      ],
      [
        "åħ¨",
        "ä½ĵ"
      ],
      [
        "ç",
        "Ĵ"
      ],
      [
        "é",
        "»"
      ],
      [
        "Ń",
        "åĴĮ"
      ],
      [
        "çĶ",
        "·"
      ],
      [
        "ãĥª",
        "ãĥĥãĤ¯"
      ],
      [
        "åį",
        "ģ"
      ],
      [
        "éĻ",
        "½"
      ],
      [
        "è³",
        "ŀ"
      ],
      [
        "ãĤµ",
        "ãĥ¼ãĥ"
      ],
      [
        "ãĥļ",
        "ãĥ¼ãĤ¸"
      ],
      [
        "197",
        "0"
      ],
      [
        "ãĥĸãĥ©",
        "ãĤ¦ãĤ¶"
      ],
      [
        "ãģ®æ³",
        "ķ"
      ],
      [
        "å",
        "³"
      ],
      [
        "è¦",
        "ļ"
      ],
      [
        "ãĥĹ",
        "ãĥª"
      ],
      [
        "æĻ",
        "®"
      ],
      [
        "å±",
        "¤"
      ],
      [
        "è£",
        "ħ"
      ],
      [
        "ãĤĮ",
        "ãģ¦"
      ],
      [
        "ãĤĮ",
        "ãģªãģĦ"
      ],
      [
        "ãģĭ",
        "ãģ¤"
      ],
      [
        "ãģķ",
        "ãĤĵ"
      ],
      [
        "ãĥ¼ãĥ",
        "ª"
      ],
      [
        "ãģı",
        "ãģł"
      ],
      [
        "åĽ½",
        "å®¶"
      ],
      [
        "æĬ",
        "Ĺ"
      ],
      [
        "ãĤ¨",
        "ãĥ³ãĤ¸"
      ],
      [
        "çŁ",
        "³"
      ],
      [
        "ç£ģ",
        "åł´"
      ],
      [
        "ãģ²",
        "ãģ¨"
      ],
      [
        "ãĢ",
        "ľ"
      ],
      [
        "ãģ«",
        "åħ¥"
      ],
      [
        "ãģ®å",
        "ĩ"
      ],
      [
        "ãģ®å",
        "ī"
      ],
      [
        "åı",
        "³"
      ],
      [
        "ãĥª",
        "ãĥģãĥ£"
      ],
      [
        "åĬĽ",
        "ãĤĴ"
      ],
      [
        "æĻĤ",
        "ãģ«"
      ],
      [
        "èĩª",
        "åĪĨ"
      ],
      [
        "çĽ®",
        "çļĦ"
      ],
      [
        "âĢ",
        "¦"
      ],
      [
        "ãĥķãĤ¡",
        "ãĤ¤ãĥ«"
      ],
      [
        "ãĤ¦ãĤ§",
        "ãĥĸ"
      ],
      [
        "ãģ®åĽ",
        "½"
      ],
      [
        "æĴ",
        "®"
      ],
      [
        "çĨ",
        "±"
      ],
      [
        "ä¼ģ",
        "æ¥Ń"
      ],
      [
        "ãģªãģĮ",
        "ãĤī"
      ],
      [
        "ãĥªãĥģãĥ£",
        "ãĥ¼ãĥī"
      ],
      [
        "u",
        "m"
      ],
      [
        "å",
        "¦"
      ],
      [
        "é",
        "Ĭ"
      ],
      [
        "Ġ",
        "/"
      ],
      [
        "ï¼",
        "į"
      ],
      [
        "è¨",
        "±"
      ],
      [
        "æĺ",
        "ŃåĴĮ"
      ],
      [
        "éĿ",
        "Ĵ"
      ],
      [
        "å¥³",
        "æĢ§"
      ],
      [
        "ãģĮçĻ»åł´",
        "ãģĹ"
      ],
      [
        "æĸĩåŃĹ",
        "åĪĹ"
      ],
      [
        "ç¹",
        "Ķ"
      ],
      [
        "éģ¸æĬ",
        "ŀ"
      ],
      [
        "è",
        "ĳĹ"
      ],
      [
        "é",
        "į"
      ],
      [
        "Ġ",
        "L"
      ],
      [
        "ãģ®",
        "ä¾ĭ"
      ],
      [
        "ãĤĴ",
        "åĲ«"
      ],
      [
        "ãģ®è",
        "§"
      ],
      [
        "in",
        "g"
      ],
      [
        "ç®",
        "¡"
      ],
      [
        "å½ĵ",
        "æĻĤ"
      ],
      [
        "o",
        "v"
      ],
      [
        "ãģ¨",
        "ãģķãĤĮãĤĭ"
      ],
      [
        "ãģ®å",
        "¾"
      ],
      [
        "ãģ¾",
        "ãģļ"
      ],
      [
        "ãĤī",
        "ãģĭ"
      ],
      [
        "ãģªãģ©",
        "ãģĮ"
      ],
      [
        "åľ",
        "Ł"
      ],
      [
        "éĽ»",
        "åł´"
      ],
      [
        "å¯",
        "Ĩ"
      ],
      [
        "æĶ",
        "¯"
      ],
      [
        "å¾Į",
        "ãģ®"
      ],
      [
        "å·",
        "®"
      ],
      [
        "ãĤĴæĮ",
        "ĩ"
      ],
      [
        "ãģ®å¤§",
        "ãģį"
      ],
      [
        "ãĥĹãĥŃãĤ°ãĥ©ãĥŁãĥ³ãĤ°",
        "è¨Ģèªŀ"
      ],
      [
        "å",
        "Ŀ"
      ],
      [
        "ļ",
        "ãĥ³ãĤ¿ãĥ¼"
      ],
      [
        "ãģ¾",
        "ãģĹãģŁ"
      ],
      [
        "ãģ®æ",
        "¨"
      ],
      [
        "ãģ®æ",
        "§ĭ"
      ],
      [
        "ãĥ«",
        "ãĥĪ"
      ],
      [
        "çļ",
        "ĩ"
      ],
      [
        "ãĥ¥",
        "ãĥ¼ãĤ¿"
      ],
      [
        "ãĤ½",
        "ãĥķãĥĪ"
      ],
      [
        "ãĤ«ãĥ¼ãĥ",
        "ļãĥ³ãĤ¿ãĥ¼"
      ],
      [
        "ç°",
        "¡"
      ],
      [
        "ãģıãģł",
        "ãģķãģĦ"
      ],
      [
        "Ġ",
        "F"
      ],
      [
        "è¡",
        "Ĩ"
      ],
      [
        "ãģķãĤĮ",
        "ãģ¦ãģĦ"
      ],
      [
        "å¾",
        "´"
      ],
      [
        "æķ°",
        "ãģ®"
      ],
      [
        "ãģĭãĤī",
        "ãģ¯"
      ],
      [
        "ãĤ·",
        "ãĤ¢"
      ],
      [
        "ãģ®è",
        "ĩ"
      ],
      [
        "ãĥŀ",
        "ãĥ³"
      ],
      [
        "ãģ«ãģª",
        "ãĤĬãģ¾ãģĻ"
      ],
      [
        "ç«",
        "ł"
      ],
      [
        "ãģĮãģĤãĤĬ",
        "ãģ¾ãģĻ"
      ],
      [
        "éĢŁ",
        "åº¦"
      ],
      [
        "C",
        "H"
      ],
      [
        "s",
        "t"
      ],
      [
        "æķ°",
        "ãĤĴ"
      ],
      [
        "è¿",
        "½"
      ],
      [
        "è«",
        "¸"
      ],
      [
        "æ¸",
        "¬"
      ],
      [
        "éĸĭ",
        "åĤ¬"
      ],
      [
        "ãģ»",
        "ãģ¨"
      ],
      [
        "ãģ¹",
        "ãģį"
      ],
      [
        "çµĦ",
        "ãģ¿"
      ],
      [
        "h",
        "e"
      ],
      [
        "é",
        "§"
      ],
      [
        "ãģ«",
        "ãģ¨"
      ],
      [
        "ãģĻ",
        "ãģ¹ãģ¦"
      ],
      [
        "ãĤī",
        "ãģļ"
      ],
      [
        "äº",
        "Ĵ"
      ],
      [
        "ãĤ¢",
        "ãĤ¯"
      ],
      [
        "ãģĿ",
        "ãģĵ"
      ],
      [
        "æĸ¹",
        "å¼ı"
      ],
      [
        "æĽ",
        "´"
      ],
      [
        "éĻ",
        "¢"
      ],
      [
        "ãģĵãģ®",
        "ãĤĪãģĨãģ«"
      ],
      [
        "ãģĤãĤĬ",
        "ãģ¾ãģĻ"
      ],
      [
        "æĿ¡",
        "ä»¶"
      ],
      [
        "ç¢º",
        "çİĩ"
      ],
      [
        "ãĤĴçĶ¨",
        "ãģĦãģ¦"
      ],
      [
        "ç±",
        "³"
      ],
      [
        "ãģ»ãģ¨",
        "ãĤĵãģ©"
      ],
      [
        "é",
        "ĺ"
      ],
      [
        "å®",
        "Ĺ"
      ],
      [
        "ç«",
        "¯"
      ],
      [
        "ãĥĸ",
        "ãĥ¼ãĥł"
      ],
      [
        "æĮ",
        "Ļ"
      ],
      [
        "ãģ«å¯¾",
        "ãģĻãĤĭ"
      ],
      [
        "el",
        "ta"
      ],
      [
        ".",
        "."
      ],
      [
        "Ġ",
        "m"
      ],
      [
        "ãģ®",
        "ãģĤãĤĭ"
      ],
      [
        "æľ",
        "ª"
      ],
      [
        "äº",
        "Ĩ"
      ],
      [
        "çĶ¨",
        "ãģĦ"
      ],
      [
        "çī©",
        "ãģ®"
      ],
      [
        "å·",
        "ŀ"
      ],
      [
        "æīĭ",
        "ç¶ļãģį"
      ],
      [
        "æŃ´",
        "åı²"
      ],
      [
        "ãĤ³ãĥ³ãĥĶ",
        "ãĥ¥ãĥ¼ãĤ¿"
      ],
      [
        "i",
        "c"
      ],
      [
        "ãĢĤ",
        "ï¼ī"
      ],
      [
        "ãģķ",
        "ãģ¾"
      ],
      [
        "æľ",
        "«"
      ],
      [
        "ãģĻãĤĭ",
        "ãģŁãĤģ"
      ],
      [
        "ãĥ¼ãĥ",
        "Ĩ"
      ],
      [
        "å°",
        "Ĥ"
      ],
      [
        "ãĤĤãģ®",
        "ãģ®"
      ],
      [
        "æ¼",
        "¢"
      ],
      [
        "åĨ",
        "Ļ"
      ],
      [
        "å®Ł",
        "é¨ĵ"
      ],
      [
        "ãĥĭ",
        "ãĤ¢"
      ],
      [
        "çŁ",
        "Ń"
      ],
      [
        ")",
        "="
      ],
      [
        "æ",
        "Ĩ"
      ],
      [
        "ç",
        "¦"
      ],
      [
        "å®",
        "ĺ"
      ],
      [
        "ãĤ¤",
        "ãĥ©"
      ],
      [
        "ãĤ¤",
        "ãĤ®"
      ],
      [
        "ãģ®æ",
        "¥"
      ],
      [
        "ãģ®æ",
        "°"
      ],
      [
        "ãģ®æ",
        "Į"
      ],
      [
        "ãģ§ãģĤãĤĭ",
        "ãģĮ"
      ],
      [
        "ä¼",
        "´"
      ],
      [
        "éĽ»",
        "æµģ"
      ],
      [
        "çĶŁ",
        "æĪĲ"
      ],
      [
        "è¨Ģ",
        "èĳī"
      ],
      [
        "åĩº",
        "çīĪ"
      ],
      [
        "ãģ¨ãģª",
        "ãģ£ãģ¦ãģĦãĤĭ"
      ],
      [
        "æŃ",
        "Į"
      ],
      [
        "æľĢ",
        "ãĤĤ"
      ],
      [
        "åł´åĲĪ",
        "ãģ¯"
      ],
      [
        "çµĦ",
        "ç¹Ķ"
      ],
      [
        "å¤§ãģį",
        "ãģı"
      ],
      [
        "æ¡",
        "Ī"
      ],
      [
        "çĴ",
        "°"
      ],
      [
        "ãĤ¤ãĤ®",
        "ãĥªãĤ¹"
      ],
      [
        "a",
        "t"
      ],
      [
        "ãģ¨",
        "åĲĮãģĺ"
      ],
      [
        "ãĥ¼",
        "ãģĮ"
      ],
      [
        "ãģ®å",
        "Į"
      ],
      [
        "ä½",
        "ı"
      ],
      [
        "å¤",
        "ª"
      ],
      [
        "å°",
        "Ħ"
      ],
      [
        "ãģ£ãģ¦",
        "ãĤĤ"
      ],
      [
        "ãĤ«",
        "ãĥ«"
      ],
      [
        "ä½į",
        "ç½®"
      ],
      [
        "éĿ¢",
        "ç©į"
      ],
      [
        "åıį",
        "å¿ľ"
      ],
      [
        "ãģ®å½",
        "±éŁ¿"
      ],
      [
        "ãģ®èĳĹä½ľ",
        "æ¨©"
      ],
      [
        "ãģ®å®ļ",
        "ç¾©"
      ],
      [
        "1",
        "6"
      ],
      [
        "å",
        "©"
      ],
      [
        "Ġ",
        "â"
      ],
      [
        "ãģ®å",
        "Ł"
      ],
      [
        "ä»",
        "ĭ"
      ],
      [
        "ãģ®æ",
        "Ī"
      ],
      [
        "äºº",
        "å·¥"
      ],
      [
        "éł",
        "ĥ"
      ],
      [
        "ç©į",
        "åĪĨ"
      ],
      [
        "æ³¨",
        "æĦı"
      ],
      [
        "ãģ®åĨ",
        "ħ"
      ],
      [
        "å³",
        "¶"
      ],
      [
        "éį",
        "µ"
      ],
      [
        "o",
        "u"
      ],
      [
        "æ",
        "ļ"
      ],
      [
        "é",
        "¦"
      ],
      [
        "Ħ",
        "åĽ²"
      ],
      [
        "ŀ",
        "į"
      ],
      [
        "ãģ«",
        "åŁº"
      ],
      [
        "ãģĦ",
        "ãģĨ"
      ],
      [
        "éĢ",
        "±"
      ],
      [
        "ä¼",
        "¼"
      ],
      [
        "ãģ®è",
        "©"
      ],
      [
        "åĢĭ",
        "äºº"
      ],
      [
        "æ¶²",
        "æĻ¶"
      ],
      [
        "å¾®",
        "åĪĨ"
      ],
      [
        "ãģ®èĩ",
        "ª"
      ],
      [
        "1",
        "7"
      ],
      [
        "Ġ",
        "I"
      ],
      [
        "ãĤ",
        "©"
      ],
      [
        "ãģ«",
        "è¿ĳ"
      ],
      [
        "ãĤĴ",
        "ç¤º"
      ],
      [
        "ãģ¦",
        "ãĤĤ"
      ],
      [
        "ï¼",
        "Ł"
      ],
      [
        "ãĥ©",
        "ãĥ¼"
      ],
      [
        "å¾",
        "ĵ"
      ],
      [
        "ãĤĤãģ®",
        "ãģĮ"
      ],
      [
        "ä¸Ĭ",
        "ãģĴ"
      ],
      [
        "æĬ",
        "ķ"
      ],
      [
        "çī¹",
        "å®ļ"
      ],
      [
        "en",
        "t"
      ],
      [
        "ãĥ¦",
        "ãĥ¼"
      ],
      [
        "å¹´",
        "ãģ®"
      ],
      [
        "åı",
        "£"
      ],
      [
        "ãģĵãģ¨",
        "ãģĭãĤī"
      ],
      [
        "åĽ",
        "º"
      ],
      [
        "ãĤĴæ",
        "ī"
      ],
      [
        "ãĤĴæ",
        "Ĭ"
      ],
      [
        "é«ĺ",
        "æł¡"
      ],
      [
        "è¦ı",
        "åīĩ"
      ],
      [
        "ãģ®åĲ",
        "į"
      ],
      [
        "è§Ĵ",
        "å½¢"
      ],
      [
        "åıĤ",
        "çħ§"
      ],
      [
        "éī",
        "Ħ"
      ],
      [
        "N",
        "T"
      ],
      [
        "d",
        "e"
      ],
      [
        "i",
        "e"
      ],
      [
        "i",
        "g"
      ],
      [
        "Ġ",
        "G"
      ],
      [
        "Ġ",
        "n"
      ],
      [
        "ãĥ³",
        "ãģĮ"
      ],
      [
        "ç´",
        "ļ"
      ],
      [
        "ãĥ³ãĥ",
        "Ħ"
      ],
      [
        "çĲĨ",
        "ç§ĳ"
      ],
      [
        "çķ",
        "¥"
      ],
      [
        "ãĥĸ",
        "ãĥ«"
      ],
      [
        "æŀ",
        "Ĳ"
      ],
      [
        "åľ°",
        "æĸ¹"
      ],
      [
        "æ¯",
        "į"
      ],
      [
        "æ",
        "¿"
      ],
      [
        "ãģ¨",
        "ãģĵãĤį"
      ],
      [
        "ãĤĴ",
        "éĢļ"
      ],
      [
        "ãĤĪ",
        "ãģĦ"
      ],
      [
        "ãģ®æ",
        "Ĺ"
      ],
      [
        "ãĥª",
        "ãĤ¦ãĥł"
      ],
      [
        "ãĥĥ",
        "ãĥĳ"
      ],
      [
        "çĽ",
        "¤"
      ],
      [
        "æĿ",
        "¿"
      ],
      [
        "éĿ",
        "Ļ"
      ],
      [
        "åħ¥",
        "è©¦"
      ],
      [
        "çī¹",
        "å¾´"
      ],
      [
        "åĮ»",
        "çĻĤ"
      ],
      [
        "èĳĹä½ľæ¨©",
        "æ³ķ"
      ],
      [
        "èµ·",
        "ãģį"
      ],
      [
        "¾",
        "åĲĳ"
      ],
      [
        "ãĢĤ",
        "ãĢĮ"
      ],
      [
        "ãģŁ",
        "ãģĻ"
      ],
      [
        "ãģ®å",
        "¹"
      ],
      [
        "ãģ®æ",
        "¼"
      ],
      [
        "ç´",
        "Ļ"
      ],
      [
        "ç¤",
        "İ"
      ],
      [
        "æĽ",
        "¿"
      ],
      [
        "éĸ¢",
        "éĢ£"
      ],
      [
        "ãĢħ",
        "ãģª"
      ],
      [
        "ta",
        "r"
      ],
      [
        "ãģ®åħ",
        "¬"
      ],
      [
        "ä¹",
        "±"
      ],
      [
        "ãĤ¯ãĥĪ",
        "ãĥ«"
      ],
      [
        "ãģ®å¤§ãģį",
        "ãģķ"
      ],
      [
        "åĿ",
        "ĩ"
      ],
      [
        "ãģ«åŁº",
        "ãģ¥"
      ],
      [
        "1",
        "3"
      ],
      [
        "Ġ",
        "ãģ§"
      ],
      [
        "ãģ®",
        "ãģŁãĤģ"
      ],
      [
        "ä¸",
        "¦"
      ],
      [
        "ãģ¾",
        "ãģĹãĤĩãģĨ"
      ],
      [
        "åĩº",
        "ãģĻ"
      ],
      [
        "åĨħ",
        "å®¹"
      ],
      [
        "ä¼Ŀ",
        "çµ±"
      ],
      [
        "ãĥªãĥ¼",
        "ãĤº"
      ],
      [
        "ro",
        "w"
      ],
      [
        "ãĥķãĥ©",
        "ãĥ³ãĤ¹"
      ],
      [
        "èĨ",
        "ľ"
      ],
      [
        "i",
        "r"
      ],
      [
        "ãģ¨",
        "ãģ«"
      ],
      [
        "ãģ®å",
        "ĳ"
      ],
      [
        "ãĥ¼ãĥ",
        "©"
      ],
      [
        "ãĤĴæ",
        "Ķ"
      ],
      [
        "ãĤ·",
        "ãĥ³ãĤ°"
      ],
      [
        "è²",
        "ł"
      ],
      [
        "äºĭ",
        "è±¡"
      ],
      [
        "å£",
        "°"
      ],
      [
        "å§",
        "Ķ"
      ],
      [
        "7",
        "0"
      ],
      [
        "S",
        "S"
      ],
      [
        "ãģ§",
        "ãģĹãĤĩãģĨ"
      ],
      [
        "ãģĵãģ¨",
        "ãģ«"
      ],
      [
        "çµ",
        "µ"
      ],
      [
        "çĶŁ",
        "çĶ£"
      ],
      [
        "çĲĨ",
        "çĶ±"
      ],
      [
        "ãĤĤãģ®",
        "ãģ§ãģĤãĤĭ"
      ],
      [
        "ä¸Ĭ",
        "ãģ§"
      ],
      [
        "å¯¾",
        "è±¡"
      ],
      [
        "å¸",
        "«"
      ],
      [
        "ãģªãĤī",
        "ãģ°"
      ],
      [
        "éĽĳ",
        "èªĮ"
      ],
      [
        "ãģ®è§",
        "£"
      ],
      [
        "ãģ¾",
        "ãĤĭ"
      ],
      [
        "æķ",
        "£"
      ],
      [
        "åĽ",
        "ł"
      ],
      [
        "ãĤĴæ",
        "Ľ¸"
      ],
      [
        "æķ°",
        "ãģ¯"
      ],
      [
        "ãĤı",
        "ãģĳ"
      ],
      [
        "ãģ¨ãģª",
        "ãĤĬãģ¾ãģĻ"
      ],
      [
        "çŁ¥",
        "èĥ½"
      ],
      [
        "åıĸ",
        "å¼ķ"
      ],
      [
        "è¦ı",
        "å®ļ"
      ],
      [
        "ä¹",
        "Ĺ"
      ],
      [
        "ãĤ³ãĥŁ",
        "ãĥĥãĤ¯"
      ],
      [
        "èĸ",
        "¬"
      ],
      [
        "æķ°",
        "ãģĮ"
      ],
      [
        "æĸ¹",
        "ãģĮ"
      ],
      [
        "ãĥĩ",
        "ãĥ«"
      ],
      [
        "åĬĽ",
        "ãģĮ"
      ],
      [
        "éĿ",
        "©"
      ],
      [
        "ãģĿãģ®",
        "ãģŁãĤģ"
      ],
      [
        "æĮ",
        "¯"
      ],
      [
        "çŁ¥",
        "èŃĺ"
      ],
      [
        "æº",
        "Ģ"
      ],
      [
        "éĢ£",
        "ç¶ļ"
      ],
      [
        "å¿ħ",
        "ãģļ"
      ],
      [
        "çµĮæ¸Ī",
        "åŃ¦"
      ],
      [
        "å»",
        "¶"
      ],
      [
        "æ¶Ī",
        "æ»ħ"
      ],
      [
        "æ¨¡",
        "è©¦"
      ],
      [
        "ãĥ¼ãĥŃ",
        "ãĥĥãĥĳ"
      ],
      [
        "RI",
        "NT"
      ],
      [
        "ãĥ¨",
        "ãĥ¼ãĥŃãĥĥãĥĳ"
      ],
      [
        "i",
        "l"
      ],
      [
        "è",
        "Ĳ"
      ],
      [
        "é",
        "Ń"
      ],
      [
        "éĢ",
        "ı"
      ],
      [
        "åį",
        "ł"
      ],
      [
        "ãĤ¸",
        "ãĤ§"
      ],
      [
        "éĻ",
        "¸"
      ],
      [
        "å·",
        "¦"
      ],
      [
        "è£",
        "ı"
      ],
      [
        "ãģ¨ãĤĤ",
        "ãģ«"
      ],
      [
        "å¤ļãģı",
        "ãģ®"
      ],
      [
        "ãģłãģĳ",
        "ãģ§"
      ],
      [
        "æ¨Ļ",
        "æºĸ"
      ],
      [
        "è²¡",
        "çĶ£"
      ],
      [
        "è",
        "ŀį"
      ],
      [
        "Ġ",
        "g"
      ],
      [
        "ãģĭ",
        "ãĤĬ"
      ],
      [
        "ãģĻãĤĭ",
        "ãģŁãĤģãģ«"
      ],
      [
        "ãģªãģ©",
        "ãĤĴ"
      ],
      [
        "å¯",
        "Ł"
      ],
      [
        "ç§",
        "ģ"
      ],
      [
        "å¸",
        "°"
      ],
      [
        "è²",
        "¨"
      ],
      [
        "ä¸»",
        "å¼µ"
      ],
      [
        "è»",
        "Ĭ"
      ],
      [
        "æĿ±",
        "å¤§"
      ],
      [
        "}{",
        "\\"
      ],
      [
        "ãģ®æī",
        "ĭ"
      ],
      [
        "a",
        "d"
      ],
      [
        "g",
        "le"
      ],
      [
        "i",
        "t"
      ],
      [
        "¡",
        "çĶ¨"
      ],
      [
        "Ġ",
        "T"
      ],
      [
        "ãģ®",
        "éķ·"
      ],
      [
        "ãĤĴ",
        "ãģ¤"
      ],
      [
        "åĽ",
        "Ľ"
      ],
      [
        "ãģĹãģŁ",
        "ãĤĬ"
      ],
      [
        "ä¸Ģ",
        "éĥ¨"
      ],
      [
        "å½",
        "±"
      ],
      [
        "ãĤı",
        "ãĤĭ"
      ],
      [
        "ãĤ·",
        "ãĥªãĥ¼ãĤº"
      ],
      [
        "ãĥķ",
        "ãĥ¬"
      ],
      [
        "èĩª",
        "èº«"
      ],
      [
        "ãĥĭ",
        "ãĥ¥"
      ],
      [
        "åħ¥",
        "åĬĽ"
      ],
      [
        "ãĤª",
        "ãĥ³"
      ],
      [
        "æ¸",
        "¡"
      ],
      [
        "ãĤº",
        "ãĥł"
      ],
      [
        "en",
        "d"
      ],
      [
        "ãģªãĤī",
        "ãģªãģĦ"
      ],
      [
        "åİŁåŃĲ",
        "æł¸"
      ],
      [
        "éģºä¼Ŀ",
        "åŃĲ"
      ],
      [
        "çª",
        "ģ"
      ],
      [
        "ç°¡",
        "åįĺ"
      ],
      [
        "tar",
        "row"
      ],
      [
        "g",
        "in"
      ],
      [
        "æ",
        "ĵ"
      ],
      [
        "ãģ®",
        "ãģĵãģ¨"
      ],
      [
        "æ³",
        "ģ"
      ],
      [
        "ãĤ¸",
        "ãĤ¢"
      ],
      [
        "ãĤĤãģ®",
        "ãģ¯"
      ],
      [
        "ãģ¡",
        "ãĤī"
      ],
      [
        "ãģĵãģ¨ãģĮ",
        "å¤ļãģĦ"
      ],
      [
        "å¸",
        "ĥ"
      ],
      [
        "æ¨©",
        "åĪ©"
      ],
      [
        "ä»¥",
        "åīį"
      ],
      [
        "åħ¬",
        "éĸĭ"
      ],
      [
        "ä¾¡",
        "åĢ¤"
      ],
      [
        "ãĤ¢ãĥ«",
        "ãĥĲ"
      ],
      [
        "è¶",
        "ħ"
      ],
      [
        "æŁ",
        "»"
      ],
      [
        "éĿŀ",
        "å¸¸ãģ«"
      ],
      [
        "äººå·¥",
        "çŁ¥èĥ½"
      ],
      [
        "6",
        "0"
      ],
      [
        "ãģ¨",
        "æĢĿ"
      ],
      [
        "ãĤĴ",
        "ãģĻãĤĭ"
      ],
      [
        "19",
        "4"
      ],
      [
        "ãĥ¬",
        "ãĥĻãĥ«"
      ],
      [
        "ãģ®ç",
        "Ł"
      ],
      [
        "å®Ł",
        "æĸ½"
      ],
      [
        "ä¸»",
        "ãģ«"
      ],
      [
        "æĶ¿",
        "çŃĸ"
      ],
      [
        "åħ¬",
        "è¡¨"
      ],
      [
        "æĪ¦",
        "äºī"
      ],
      [
        "ä»ĺ",
        "ãģĳ"
      ],
      [
        "æĶ¿æ²»",
        "åŃ¦"
      ],
      [
        "ç¨®",
        "é¡ŀ"
      ],
      [
        "çĿ",
        "Ģ"
      ],
      [
        "D",
        "elta"
      ],
      [
        "a",
        "b"
      ],
      [
        "e",
        "b"
      ],
      [
        "ç",
        "ĸ"
      ],
      [
        "Ġ",
        "y"
      ],
      [
        "ãģ®",
        "ãģĵãģ¨ãĤĴ"
      ],
      [
        "ãģŁ",
        "ãģĦ"
      ],
      [
        "ãģĻ",
        "ãĤĮãģ°"
      ],
      [
        "èª",
        "²"
      ],
      [
        "ãĤ¤",
        "ãĥ³ãĥī"
      ],
      [
        "çĶŁ",
        "æ´»"
      ],
      [
        "çĻº",
        "è¦ĭ"
      ],
      [
        "è¨ĺ",
        "éĮ²"
      ],
      [
        "æĽ¸",
        "ãģį"
      ],
      [
        "ãĥĻ",
        "ãĤ¯ãĥĪãĥ«"
      ],
      [
        "åįĺ",
        "ä½į"
      ],
      [
        "æ¶Ī",
        "è²»"
      ],
      [
        "ãģĸ",
        "ãģ¾"
      ],
      [
        "ãģ®åĩ",
        "º"
      ],
      [
        "å",
        "´"
      ],
      [
        "ç",
        "Ī"
      ],
      [
        "Ġ",
        "&"
      ],
      [
        "ãĤĴ",
        "åĪ©çĶ¨"
      ],
      [
        "æľ",
        "¨"
      ],
      [
        "æľ",
        "Ľ"
      ],
      [
        "ãģı",
        "ãĤĭ"
      ],
      [
        "éĽ»",
        "ç£ģ"
      ],
      [
        "ãģ®ç",
        "·"
      ],
      [
        "æĪĲ",
        "ç«ĭ"
      ],
      [
        "æı",
        "ı"
      ],
      [
        "ãĤ³ãĥ³ãĥ",
        "Ĩ"
      ],
      [
        "èī¯",
        "ãģĦ"
      ],
      [
        "èĬ",
        "±"
      ],
      [
        "ãģ®åŃ",
        "¦"
      ],
      [
        "åĩ¦",
        "çĲĨ"
      ],
      [
        "ãģķãģ¾",
        "ãģĸãģ¾"
      ],
      [
        ")",
        ")"
      ],
      [
        "n",
        "e"
      ],
      [
        "¢",
        "¨"
      ],
      [
        "ãģĦ",
        "ãģ¦ãģĦãĤĭ"
      ],
      [
        "ãĥ³",
        "ãĤ¯"
      ],
      [
        "ãĤ¤",
        "ãĤ¹"
      ],
      [
        "ãĥ©",
        "ãĤ¯"
      ],
      [
        "çĶ¨",
        "èªŀ"
      ],
      [
        "åĽ½",
        "éļĽ"
      ],
      [
        "æĹ¥æľ¬",
        "èªŀ"
      ],
      [
        "ãĤ®",
        "ãĥ£"
      ],
      [
        "ãģ¸",
        "ãģ®"
      ],
      [
        "æ§ĺ",
        "ãĢħãģª"
      ],
      [
        "åı¯èĥ½",
        "æĢ§"
      ],
      [
        "éģķ",
        "ãģĦ"
      ],
      [
        "ve",
        "c"
      ],
      [
        ":",
        "*"
      ],
      [
        "o",
        "me"
      ],
      [
        "ãĤĴ",
        "å¾Ĺ"
      ],
      [
        "ãģª",
        "ãģ£ãģŁ"
      ],
      [
        "ãĥĥ",
        "ãĥī"
      ],
      [
        "å¾",
        "³"
      ],
      [
        "ãĤ¿",
        "ãĤ¤"
      ],
      [
        "ä¼",
        "ĳ"
      ],
      [
        "ãģ£ãģ¦",
        "ãģĬãĤĬ"
      ],
      [
        "ãĤ°",
        "ãĥ«"
      ],
      [
        "çı¾",
        "è±¡"
      ],
      [
        "ãģ»",
        "ãģ¼"
      ],
      [
        "æĶ¿",
        "åºľ"
      ],
      [
        "ãģ¸",
        "ãģ¨"
      ],
      [
        "æĬĢ",
        "é¤¨"
      ],
      [
        "æ±º",
        "å®ļ"
      ],
      [
        "éĩįè¦ģ",
        "ãģª"
      ],
      [
        "ãģ®åŁ",
        "º"
      ],
      [
        "å§Ķ",
        "åĵ¡"
      ],
      [
        "a",
        "p"
      ],
      [
        "è",
        "Ĺ"
      ],
      [
        "Ġ",
        "H"
      ],
      [
        "ãģ®å",
        "ľ"
      ],
      [
        "ãģĹãģ¦",
        "ãĤĤ"
      ],
      [
        "ãĥ¼ãĥ",
        "į"
      ],
      [
        "åĬ",
        "ĩ"
      ],
      [
        "ãĥ³ãĥ",
        "Ĺ"
      ],
      [
        "ãģªãģ©",
        "ãģ§"
      ],
      [
        "æĻ",
        "¯"
      ],
      [
        "å¯¾",
        "çŃĸ"
      ],
      [
        "ãģĵãģ®",
        "ãģ¨ãģį"
      ],
      [
        "æĬ",
        "µ"
      ],
      [
        "ãĥŁ",
        "ãĥ¥"
      ],
      [
        "éĢļ",
        "å¸¸"
      ],
      [
        "æ¥½",
        "åĻ¨"
      ],
      [
        "åĪĿ",
        "æľŁ"
      ],
      [
        "è¨Ń",
        "å®ļ"
      ],
      [
        "198",
        "0"
      ],
      [
        "ãģ®èĳĹä½ľ",
        "çī©"
      ],
      [
        "ãĤĴæı",
        "Ĳ"
      ],
      [
        "éłĺ",
        "åŁŁ"
      ],
      [
        "ãĤ¢ãĥ«ãĥĲ",
        "ãĥł"
      ],
      [
        "é",
        "Ĥ"
      ],
      [
        "ãģ¾",
        "ãģ£ãģŁ"
      ],
      [
        "äº",
        "Ķ"
      ],
      [
        "ãģ®æ",
        "ĺ"
      ],
      [
        "ãĥª",
        "ãĥ³ãĤ°"
      ],
      [
        "è¡Į",
        "ãĤıãĤĮãĤĭ"
      ],
      [
        "æĿ",
        "Ł"
      ],
      [
        "èĢħ",
        "ãģ®"
      ],
      [
        "ãĤ¸",
        "ãĥ§"
      ],
      [
        "ãģ«ãģª",
        "ãĤĬ"
      ],
      [
        "ãģĽ",
        "ãĤĭ"
      ],
      [
        "ãĥĭ",
        "ãĥ¼"
      ],
      [
        "ç§ĳ",
        "çĽ®"
      ],
      [
        "èĪ",
        "Ī"
      ],
      [
        "å£",
        "Ĭ"
      ],
      [
        "è¿°",
        "ãģ¹"
      ],
      [
        "å°İ",
        "ä½ĵ"
      ],
      [
        "ch",
        "e"
      ],
      [
        "æ°´",
        "ç´ł"
      ],
      [
        "æĭ",
        "ł"
      ],
      [
        "ãģĵãĤĮãĤī",
        "ãģ®"
      ],
      [
        "è©ķ",
        "ä¾¡"
      ],
      [
        "be",
        "gin"
      ],
      [
        "ãģ®æ³ķ",
        "åīĩ"
      ],
      [
        "ãĤ«ãĥ¼ãĥļãĥ³ãĤ¿ãĥ¼",
        "ãĤº"
      ],
      [
        "O",
        "si"
      ],
      [
        "o",
        "s"
      ],
      [
        "p",
        "matrix"
      ],
      [
        "ãĤĴ",
        "ãģ¨"
      ],
      [
        "ãģ¾",
        "ãģ¾"
      ],
      [
        "ï¼ī",
        "ãĢį"
      ],
      [
        "å¹´",
        "ãĤĪãĤĬ"
      ],
      [
        "ä½ľ",
        "æĪĲ"
      ],
      [
        "æĹ",
        "§"
      ],
      [
        "åĽ½",
        "æ°ĳ"
      ],
      [
        "ãĤ¸",
        "ãĥ¥"
      ],
      [
        "ä»£",
        "è¡¨"
      ],
      [
        "ãĥŀ",
        "ãĥ«"
      ],
      [
        "ä¿",
        "®"
      ],
      [
        "ä½¿",
        "ãĤıãĤĮ"
      ],
      [
        "ãĥį",
        "ãĥĥãĥĪ"
      ],
      [
        "ãĤĴåıĹ",
        "ãģĳ"
      ],
      [
        "ãģ®å°",
        "ĳ"
      ],
      [
        "ãģĦãģı",
        "ãģ¤ãģĭ"
      ],
      [
        "åĲ«ãģ¾",
        "ãĤĮãĤĭ"
      ],
      [
        "ãģķãģ¾ãģĸãģ¾",
        "ãģª"
      ],
      [
        "Osi",
        "ri"
      ],
      [
        "Ġ",
        "e"
      ],
      [
        "ãģĮ",
        "å¿ħè¦ģ"
      ],
      [
        "ãģĵ",
        "ãģ®ç"
      ],
      [
        "ãģĤ",
        "ãģ¾ãĤĬ"
      ],
      [
        "ãĥ¼ãĥ",
        "ĩ"
      ],
      [
        "ãĤ¹",
        "ãĤ±"
      ],
      [
        "ãģĵãģ¨",
        "ãģ«ãģªãĤĭ"
      ],
      [
        "ãģĬ",
        "ãģı"
      ],
      [
        "ãģ¨ãģĦ",
        "ãģĦãģ¾ãģĻ"
      ],
      [
        "ãĥ³ãĥ",
        "ŀ"
      ],
      [
        "çĽ",
        "£"
      ],
      [
        "åł´",
        "æīĢ"
      ],
      [
        "æĹ¥",
        "ãģ«"
      ],
      [
        "ãĥĹ",
        "ãĥ¬ãĤ¤"
      ],
      [
        "åĽ½",
        "æĬĢé¤¨"
      ],
      [
        "ãĥŀ",
        "ãĥ¼"
      ],
      [
        "åĢ",
        "«"
      ],
      [
        "çĻº",
        "è¡¨"
      ],
      [
        "ãģĿãĤĮ",
        "ãĤī"
      ],
      [
        "æ¬¡",
        "ãģ®"
      ],
      [
        "ãĥ¢",
        "ãĥĩãĥ«"
      ],
      [
        "æ®",
        "ĭ"
      ],
      [
        "ãģ¡ãĤĥ",
        "ãģĬ"
      ],
      [
        "æ¦Ĥ",
        "å¿µ"
      ],
      [
        "éĢ±",
        "åĪĬ"
      ],
      [
        "ãģ®æĹ",
        "¥"
      ],
      [
        "Osiri",
        "X"
      ],
      [
        "å",
        "²"
      ],
      [
        "ç",
        "į"
      ],
      [
        "Ġ",
        "R"
      ],
      [
        "ãĤ",
        "ħ"
      ],
      [
        "ãģ®",
        "ãĤĤ"
      ],
      [
        "ãĤĴ",
        "ä¸İ"
      ],
      [
        "ãģ®å",
        "·"
      ],
      [
        "ãģ®å",
        "ĭ"
      ],
      [
        "ãĤĬ",
        "ç«ĭ"
      ],
      [
        "ãģ®è",
        "µ"
      ],
      [
        "ãĤ«",
        "ãĥ¼"
      ],
      [
        "ãģĵãģ¨ãģĮ",
        "ãģĤãĤĭ"
      ],
      [
        "ãģĺ",
        "ãĤĭ"
      ],
      [
        "æĽ¸",
        "ãģĭ"
      ],
      [
        "è£",
        "ľ"
      ],
      [
        "è¼",
        "ĥ"
      ],
      [
        "ä¸ĢèĪ¬",
        "ãģ«"
      ],
      [
        "çĬ",
        "¯"
      ],
      [
        "åı¤",
        "ä»£"
      ],
      [
        "ãģĵãģĵ",
        "ãģ§ãģ¯"
      ],
      [
        "ãģ®æĻĤ",
        "ä»£"
      ],
      [
        "èĬ",
        "¸"
      ],
      [
        "å®Į",
        "åħ¨"
      ],
      [
        "cdot",
        "s"
      ],
      [
        "éĻ½",
        "åŃĲ"
      ],
      [
        "N",
        "A"
      ],
      [
        "º",
        "Ģ"
      ],
      [
        "æ",
        "ĳ"
      ],
      [
        "Ġ",
        "w"
      ],
      [
        "ãģ®",
        "ãģĨãģ¡"
      ],
      [
        "ãģĮ",
        "åŃĺåľ¨ãģĻãĤĭ"
      ],
      [
        "ãĥ¼ãĥ",
        "ĸ"
      ],
      [
        "èª",
        "¤"
      ],
      [
        "ãģ®æ",
        "©Ł"
      ],
      [
        "ãĥĪ",
        "ãĥ³"
      ],
      [
        "ãģªãģ©",
        "ãģ¯"
      ],
      [
        "åį",
        "Ķ"
      ],
      [
        "ãĥĨ",
        "ãĤ¹ãĥĪ"
      ],
      [
        "æĢ§",
        "ãĤĴ"
      ],
      [
        "æŃ",
        "¦"
      ],
      [
        "ãĥ¡",
        "ãĥ³ãĥĪ"
      ],
      [
        "ãĥ¡",
        "ãĥĩãĤ£ãĤ¢"
      ],
      [
        "çŃ",
        "Ĩ"
      ],
      [
        "ãĤµ",
        "ãĤ¤"
      ],
      [
        "æĸ°",
        "èģŀ"
      ],
      [
        "éĻĲ",
        "ãĤĬ"
      ],
      [
        "ãģ®åĪ",
        "©"
      ],
      [
        "ãģ®ä¸Ń",
        "ãģ§"
      ],
      [
        "å¤§ãģį",
        "ãģª"
      ],
      [
        "åıĬ",
        "ãģ³"
      ],
      [
        "righ",
        "tarrow"
      ],
      [
        "ãģ®åį",
        "ĺ"
      ],
      [
        "ãĥ¦ãĥ¼",
        "ãĤ¶"
      ],
      [
        "¤",
        "į"
      ],
      [
        "æ",
        "¢"
      ],
      [
        "é",
        "¢¨"
      ],
      [
        "Ġ",
        "6"
      ],
      [
        "Ġ",
        "ãģ«"
      ],
      [
        "ãģĻ",
        "ãģª"
      ],
      [
        "åĲ",
        "¦"
      ],
      [
        "ãģĿ",
        "ãĤĤ"
      ],
      [
        "çµ",
        "¶"
      ],
      [
        "å¾",
        "©"
      ],
      [
        "äºº",
        "ãģĮ"
      ],
      [
        "æ°",
        "¸"
      ],
      [
        "èĩ",
        "´"
      ],
      [
        "åĭķ",
        "è©ŀ"
      ],
      [
        "æĪĲ",
        "ãĤĬç«ĭ"
      ],
      [
        "ç§ĳ",
        "æĽ¸"
      ],
      [
        "è§£",
        "çŃĶ"
      ],
      [
        "åľ°",
        "åŁŁ"
      ],
      [
        "ãģĻãĤĭãģĵãģ¨",
        "ãģ¯"
      ],
      [
        "ãģĮçĻ»åł´",
        "ãģĹãģ¦"
      ],
      [
        "æĶ¾",
        "éĢģ"
      ],
      [
        "å»",
        "º"
      ],
      [
        "çµĤ",
        "äºĨ"
      ],
      [
        "th",
        "e"
      ],
      [
        "ãĤĨ",
        "ãĤĭ"
      ],
      [
        "åĸ",
        "¶"
      ],
      [
        "ãĤĴæı",
        "ı"
      ],
      [
        "ãģ®æĢ",
        "§"
      ],
      [
        "åĩºæĿ¥",
        "ãĤĭ"
      ],
      [
        "ãĤ¨ãĥ³ãĤ¸",
        "ãĥ³"
      ],
      [
        "ãĥ¼ãĥį",
        "ãĥĥãĥĪ"
      ],
      [
        "µ",
        "ģ"
      ],
      [
        "æ",
        "½"
      ],
      [
        "Ġ",
        "u"
      ],
      [
        "ãģ",
        "ľ"
      ],
      [
        "ãĤ",
        "¡"
      ],
      [
        "ãĤī",
        "ãģĦ"
      ],
      [
        "ãģķãĤĮ",
        "ãģ¾ãģĻ"
      ],
      [
        "åŃ¦",
        "ç¿Ĵ"
      ],
      [
        "æ¨",
        "ª"
      ],
      [
        "ãģ®ç",
        "¨"
      ],
      [
        "èĩª",
        "ä½ĵ"
      ],
      [
        "å½¢",
        "æĪĲ"
      ],
      [
        "æľĪ",
        "ãģ«"
      ],
      [
        "ãģĿãĤĮ",
        "ãĤĴ"
      ],
      [
        "è³ª",
        "éĩı"
      ],
      [
        "ãĤ°ãĥ©",
        "ãĥķ"
      ],
      [
        "ãģ®å¤",
        "ļ"
      ],
      [
        "åĤ",
        "¾åĲĳ"
      ],
      [
        "åĢ¤",
        "ãĤĴ"
      ],
      [
        "æĭ",
        "¡"
      ],
      [
        "ãģĹãģŁãģĮ",
        "ãģ£ãģ¦"
      ],
      [
        "ç·¨",
        "éĽĨ"
      ],
      [
        "ãģ«ãģ¨",
        "ãģ£ãģ¦"
      ],
      [
        "ome",
        "ga"
      ],
      [
        "Ġ",
        "5"
      ],
      [
        "ãģ®",
        "ãģŁãĤģãģ«"
      ],
      [
        "å¤",
        "®"
      ],
      [
        "ãģĵãģ¨",
        "ãĤĤãģĤãĤĭ"
      ],
      [
        "çĻ",
        "¾"
      ],
      [
        "å¿",
        "Ĺ"
      ],
      [
        "ãģĺ",
        "ãģ¦"
      ],
      [
        "ãĤŃ",
        "ãĥ¼"
      ],
      [
        "ãģ»",
        "ãģĨ"
      ],
      [
        "æ§ĭ",
        "æĸĩ"
      ],
      [
        "å°İ",
        "åħ¥"
      ],
      [
        "æĢĿ",
        "æĥ³"
      ],
      [
        "ç²",
        "¾"
      ],
      [
        "èªŃ",
        "ãģ¿"
      ],
      [
        "ãģķãĤĮãģ¦",
        "ãģĬãĤĬ"
      ],
      [
        "æ·",
        "·"
      ],
      [
        "Ĩ",
        "Ĵ"
      ],
      [
        "ãģĵ",
        "ãģ®æ"
      ],
      [
        "ãģĭ",
        "ãģĳ"
      ],
      [
        "ãģĭ",
        "ãĤĤãģĹ"
      ],
      [
        "ãģ¾",
        "ãģ¨"
      ],
      [
        "ãĥ¼ãĥ",
        "Ģ"
      ],
      [
        "ãĤ¹",
        "ãĤ¯"
      ],
      [
        "ãĤ¹",
        "ãĥļ"
      ],
      [
        "ãĤ¿",
        "ãĥ«"
      ],
      [
        "ãĥ³ãĥ",
        "ĩ"
      ],
      [
        "åº",
        "ı"
      ],
      [
        "ãĥ¬",
        "ãĤ¹"
      ],
      [
        "ãĤ¨",
        "ãĥ«"
      ],
      [
        "éĸĭ",
        "å§ĭ"
      ],
      [
        "å°ı",
        "èª¬"
      ],
      [
        "åĪ¶",
        "åº¦"
      ],
      [
        "åħĥ",
        "ç´ł"
      ],
      [
        "ãģ«éĸ¢",
        "ãģĹãģ¦"
      ],
      [
        "æ¥µ",
        "éĻĲ"
      ],
      [
        "æ¼Ķ",
        "å¥ı"
      ],
      [
        "ä¸Ģæĸ¹",
        "ãģ§"
      ],
      [
        "ãĤĴä½¿",
        "ãģĨ"
      ],
      [
        "èĦ",
        "Ī"
      ],
      [
        "ãĤ¢ãĥĭãĥ¡",
        "åĮĸ"
      ],
      [
        "èı",
        "Į"
      ],
      [
        "li",
        "m"
      ],
      [
        "ãĤĦãģĻ",
        "ãģĦ"
      ],
      [
        "éĬ",
        "Ģ"
      ],
      [
        "å®Ĺ",
        "æķĻ"
      ],
      [
        "èĲ",
        "½"
      ],
      [
        "c",
        "m"
      ],
      [
        "Ġ",
        "W"
      ],
      [
        "Ġ",
        "h"
      ],
      [
        "ãĤĴæ",
        "ĭ"
      ],
      [
        "åĲĪ",
        "æł¼"
      ],
      [
        "ä¸Ģ",
        "ãģ¤"
      ],
      [
        "ãĤı",
        "ãģ¡"
      ],
      [
        "ä¸Ĭ",
        "ãģ®"
      ],
      [
        "ä½¿",
        "ãĤıãĤĮãĤĭ"
      ],
      [
        "æİ",
        "¢"
      ],
      [
        "æĸ°",
        "ãģĹãģĦ"
      ],
      [
        "äºĮ",
        "æ¬¡"
      ],
      [
        "ãĥĻãĥ«",
        "ãĥĮ"
      ],
      [
        "æ·",
        "±"
      ],
      [
        "æģ",
        "ĭ"
      ],
      [
        "çĮ",
        "®"
      ],
      [
        "ãĤ·ãĥ³ãĤ°",
        "ãĥ«"
      ],
      [
        "ãģĻãģª",
        "ãĤıãģ¡"
      ],
      [
        "D",
        "P"
      ],
      [
        "d",
        "x"
      ],
      [
        "t",
        "er"
      ],
      [
        "u",
        "l"
      ],
      [
        "é",
        "³"
      ],
      [
        "ãģĮ",
        "ãģªãģĦ"
      ],
      [
        "ãģĮ",
        "å¢Ĺ"
      ],
      [
        "ãģŁ",
        "ãĤĭ"
      ],
      [
        "ãģĭ",
        "ãĤĭ"
      ],
      [
        "ãĤĬ",
        "ãģ¼"
      ],
      [
        "å¹",
        "£"
      ],
      [
        "è¡",
        "Ŀ"
      ],
      [
        "ãģ®æ",
        "Ħıåĳ³"
      ],
      [
        "ãĥĪ",
        "ãĥ©"
      ],
      [
        "ãģ®è",
        "²"
      ],
      [
        "å®ļ",
        "æķ°"
      ],
      [
        "éĥ",
        "İ"
      ],
      [
        "ãģĽ",
        "ãģļ"
      ],
      [
        "åİ",
        "³"
      ],
      [
        "å¾Į",
        "åįĬ"
      ],
      [
        "ãĥģ",
        "ãĥ¥"
      ],
      [
        "çµĮ",
        "é¨ĵ"
      ],
      [
        "ãĤ®",
        "ãĥª"
      ],
      [
        "ãģ¨ãģĻãĤĭ",
        "ãģ¨"
      ],
      [
        "ç«¶",
        "æĬĢ"
      ],
      [
        "ãģ²ãģ¨",
        "ãģ¤"
      ],
      [
        "ãĤĴåĲ«",
        "ãĤĢ"
      ],
      [
        "å§Ķåĵ¡",
        "ä¼ļ"
      ],
      [
        "e",
        "s"
      ],
      [
        "q",
        "u"
      ],
      [
        "v",
        "a"
      ],
      [
        "Ġ",
        "10"
      ],
      [
        "ãģ¨",
        "ãģĹ"
      ],
      [
        "å®",
        "£"
      ],
      [
        "ãĤ¢",
        "ãĥĥãĥĹ"
      ],
      [
        "é¡",
        "į"
      ],
      [
        "æĿ",
        "ĳ"
      ],
      [
        "ä¾",
        "Ŀ"
      ],
      [
        "æī",
        "ĵ"
      ],
      [
        "è©",
        "³"
      ],
      [
        "å¯¾",
        "å¿ľ"
      ],
      [
        "ä¼ļ",
        "ç¤¾"
      ],
      [
        "ãĥī",
        "ãĥ«"
      ],
      [
        "å·",
        "Ŀ"
      ],
      [
        "è¦ĭ",
        "ãĤīãĤĮãĤĭ"
      ],
      [
        "çĤ¹",
        "ãĤĴ"
      ],
      [
        "ãĥ¢",
        "ãĥ³"
      ],
      [
        "ãģĻãĤĭãģĵãģ¨",
        "ãģ§"
      ],
      [
        "åĽ³",
        "å½¢"
      ],
      [
        "èªį",
        "èŃĺ"
      ],
      [
        "åĬ¹",
        "æŀľ"
      ],
      [
        "è¬",
        "Ľ"
      ],
      [
        "ãģ®æĪ",
        "Ĳ"
      ],
      [
        "æĬµ",
        "æĬĹ"
      ],
      [
        "che",
        "me"
      ],
      [
        "ãĥĻãĥ«ãĥĮ",
        "æĿ¡ç´Ħ"
      ],
      [
        "p",
        "i"
      ],
      [
        "ç",
        "ģ"
      ],
      [
        "Ġ",
        "k"
      ],
      [
        "Ġ",
        "ãĢĮ"
      ],
      [
        "Ŀ",
        "éĽ¢"
      ],
      [
        "ãģĮ",
        "è¡ĮãĤıãĤĮ"
      ],
      [
        "ãĥ¼",
        "ãĤ¿ãĥ¼"
      ],
      [
        "ãģĭ",
        "ãģ£ãģŁ"
      ],
      [
        "ãģĹãģ¦",
        "ãģıãģłãģķãģĦ"
      ],
      [
        "ãģĻãĤĭ",
        "ãĤĤãģ®"
      ],
      [
        "ãĤ¹",
        "ãĤ¿ãĥ¼"
      ],
      [
        "ãĥª",
        "ãĥª"
      ],
      [
        "éģ",
        "ł"
      ],
      [
        "åº",
        "ķ"
      ],
      [
        "ãģ¨ãģĹãģ¦",
        "ãģĦãĤĭ"
      ],
      [
        "åį",
        "°"
      ],
      [
        "ãģ®ç",
        "łĶç©¶"
      ],
      [
        "ãģ«ãģª",
        "ãģ£ãģ¦ãģĦãĤĭ"
      ],
      [
        "å¸",
        "¯"
      ],
      [
        "æĽ¸",
        "ãģı"
      ],
      [
        "æİ",
        "²"
      ],
      [
        "ãĤ½",
        "ãĥ¼ãĤ¹"
      ],
      [
        "æŀ",
        "ļ"
      ],
      [
        "ç¬¬",
        "ä¸Ģ"
      ],
      [
        "åŁº",
        "ç¤İ"
      ],
      [
        "è¼",
        "¸"
      ],
      [
        "ç¢º",
        "èªį"
      ],
      [
        "si",
        "l"
      ],
      [
        "åĪ¤",
        "æĸŃ"
      ],
      [
        "ãģ®ä¸Ģ",
        "ãģ¤"
      ],
      [
        "çĭ¬",
        "ç«ĭ"
      ],
      [
        "ãĥ³ãĥĢ",
        "ãĥł"
      ],
      [
        "æĤ",
        "ª"
      ],
      [
        "ãģ®è³",
        "ª"
      ],
      [
        "çĴ°",
        "å¢ĥ"
      ],
      [
        "ãĤĬãģ¼",
        "ãĤĵ"
      ],
      [
        "4",
        "0"
      ],
      [
        "M",
        "L"
      ],
      [
        "u",
        "s"
      ],
      [
        "ãģ®",
        "ãĤĤãģ®"
      ],
      [
[...]
