{
  "version": "1.0",
  "truncation": null,
  "padding": null,
  "added_tokens": [
    {
      "id": 0,
      "content": "<PAD>",
      "single_word": false,
      "lstrip": false,
      "rstrip": false,
      "normalized": false,
      "special": true
    },
    {
      "id": 1,
      "content": "<BOS>",
      "single_word": false,
      "lstrip": false,
      "rstrip": false,
      "normalized": false,
      "special": true
    },
    {
      "id": 2,
      "content": "<EOS>",
      "single_word": false,
      "lstrip": false,
      "rstrip": false,
      "normalized": false,
      "special": true
    },
    {
      "id": 3,
      "content": "<UNK>",
      "single_word": false,
      "lstrip": false,
      "rstrip": false,
      "normalized": false,
      "special": true
    },
    {
      "id": 4,
      "content": "<USER>",
      "single_word": false,
      "lstrip": false,
      "rstrip": false,
      "normalized": false,
      "special": true
    },
    {
      "id": 5,
      "content": "<ASSISTANT>",
      "single_word": false,
      "lstrip": false,
      "rstrip": false,
      "normalized": false,
      "special": true
    },
    {
      "id": 6,
      "content": "<SYSTEM>",
      "single_word": false,
      "lstrip": false,
      "rstrip": false,
      "normalized": false,
      "special": true
    }
  ],
  "normalizer": null,
  "pre_tokenizer": {
    "type": "ByteLevel",
    "add_prefix_space": false,
    "trim_offsets": true,
    "use_regex": true
  },
  "post_processor": null,
  "decoder": {
    "type": "ByteLevel",
    "add_prefix_space": true,
    "trim_offsets": true,
    "use_regex": true
  },
  "model": {
    "type": "BPE",
    "dropout": null,
    "unk_token": "<UNK>",
    "continuing_subword_prefix": null,
    "end_of_word_suffix": null,
    "fuse_unk": false,
    "byte_fallback": false,
    "ignore_merges": false,
    "vocab": {
      "<PAD>": 0,
      "<BOS>": 1,
      "<EOS>": 2,
      "<UNK>": 3,
      "<USER>": 4,
      "<ASSISTANT>": 5,
      "<SYSTEM>": 6,
      "!": 7,
      "\"": 8,
      "#": 9,
      "$": 10,
      "%": 11,
      "&": 12,
      "'": 13,
      "(": 14,
      ")": 15,
      "*": 16,
      "+": 17,
      ",": 18,
      "-": 19,
      ".": 20,
      "/": 21,
      "0": 22,
      "1": 23,
      "2": 24,
      "3": 25,
      "4": 26,
      "5": 27,
      "6": 28,
      "7": 29,
      "8": 30,
      "9": 31,
      ":": 32,
      ";": 33,
      "<": 34,
      "=": 35,
      ">": 36,
      "?": 37,
      "@": 38,
      "A": 39,
      "B": 40,
      "C": 41,
      "D": 42,
      "E": 43,
      "F": 44,
      "G": 45,
      "H": 46,
      "I": 47,
      "J": 48,
      "K": 49,
      "L": 50,
      "M": 51,
      "N": 52,
      "O": 53,
      "P": 54,
      "Q": 55,
      "R": 56,
      "S": 57,
      "T": 58,
      "U": 59,
      "V": 60,
      "W": 61,
      "X": 62,
      "Y": 63,
      "Z": 64,
      "[": 65,
      "\\": 66,
      "]": 67,
      "^": 68,
      "_": 69,
      "`": 70,
      "a": 71,
      "b": 72,
      "c": 73,
      "d": 74,
      "e": 75,
      "f": 76,
      "g": 77,
      "h": 78,
      "i": 79,
      "j": 80,
      "k": 81,
      "l": 82,
      "m": 83,
      "n": 84,
      "o": 85,
      "p": 86,
      "q": 87,
      "r": 88,
      "s": 89,
      "t": 90,
      "u": 91,
      "v": 92,
      "w": 93,
      "x": 94,
      "y": 95,
      "z": 96,
      "{": 97,
      "|": 98,
      "}": 99,
      "~": 100,
      "¡": 101,
      "¢": 102,
      "£": 103,
      "¤": 104,
      "¥": 105,
      "¦": 106,
      "§": 107,
      "¨": 108,
      "©": 109,
      "ª": 110,
      "«": 111,
      "¬": 112,
      "®": 113,
      "¯": 114,
      "°": 115,
      "±": 116,
      "²": 117,
      "³": 118,
      "´": 119,
      "µ": 120,
      "¶": 121,
      "·": 122,
      "¸": 123,
      "¹": 124,
      "º": 125,
      "»": 126,
      "¼": 127,
      "½": 128,
      "¾": 129,
      "¿": 130,
      "À": 131,
      "Á": 132,
      "Â": 133,
      "Ã": 134,
      "Ä": 135,
      "Å": 136,
      "Æ": 137,
      "Ç": 138,
      "È": 139,
      "É": 140,
      "Ê": 141,
      "Ë": 142,
      "Ì": 143,
      "Í": 144,
      "Î": 145,
      "Ï": 146,
      "Ð": 147,
      "Ñ": 148,
      "Ò": 149,
      "Ó": 150,
      "Ô": 151,
      "Õ": 152,
      "Ö": 153,
      "×": 154,
      "Ø": 155,
      "Ù": 156,
      "Ú": 157,
      "Û": 158,
      "Ü": 159,
      "Ý": 160,
      "Þ": 161,
      "ß": 162,
      "à": 163,
      "á": 164,
      "â": 165,
      "ã": 166,
      "ä": 167,
      "å": 168,
      "æ": 169,
      "ç": 170,
      "è": 171,
      "é": 172,
      "ê": 173,
      "ë": 174,
      "ì": 175,
      "í": 176,
      "î": 177,
      "ï": 178,
      "ð": 179,
      "ñ": 180,
      "ò": 181,
      "ó": 182,
      "ô": 183,
      "õ": 184,
      "ö": 185,
      "÷": 186,
      "ø": 187,
      "ù": 188,
      "ú": 189,
      "û": 190,
      "ü": 191,
      "ý": 192,
      "þ": 193,
      "ÿ": 194,
      "Ā": 195,
      "ā": 196,
      "Ă": 197,
      "ă": 198,
      "Ą": 199,
      "ą": 200,
      "Ć": 201,
      "ć": 202,
      "Ĉ": 203,
      "ĉ": 204,
      "Ċ": 205,
      "ċ": 206,
      "Č": 207,
      "č": 208,
      "Ď": 209,
      "ď": 210,
      "Đ": 211,
      "đ": 212,
      "Ē": 213,
      "ē": 214,
      "Ĕ": 215,
      "ĕ": 216,
      "Ė": 217,
      "ė": 218,
      "Ę": 219,
      "ę": 220,
      "Ě": 221,
      "ě": 222,
      "Ĝ": 223,
      "ĝ": 224,
      "Ğ": 225,
      "ğ": 226,
      "Ġ": 227,
      "ġ": 228,
      "Ģ": 229,
      "ģ": 230,
      "Ĥ": 231,
      "ĥ": 232,
      "Ħ": 233,
      "ħ": 234,
      "Ĩ": 235,
      "ĩ": 236,
      "Ī": 237,
      "ī": 238,
      "Ĭ": 239,
      "ĭ": 240,
      "Į": 241,
      "į": 242,
      "İ": 243,
      "ı": 244,
      "Ĳ": 245,
      "ĳ": 246,
      "Ĵ": 247,
      "ĵ": 248,
      "Ķ": 249,
      "ķ": 250,
      "ĸ": 251,
      "Ĺ": 252,
      "ĺ": 253,
      "Ļ": 254,
      "ļ": 255,
      "Ľ": 256,
      "ľ": 257,
      "Ŀ": 258,
      "ŀ": 259,
      "Ł": 260,
      "ł": 261,
      "Ń": 262,
      "ãģ": 263,
      "ãĤ": 264,
      "ãĥ": 265,
      "ãĢ": 266,
      "ãģ®": 267,
      "ãĢģ": 268,
      "ãĤĭ": 269,
      "ãģ«": 270,
      "ãĢĤ": 271,
      "ãģ¨": 272,
      "ãģ¯": 273,
      "ãģĦ": 274,
      "ãģ§": 275,
      "ãĤĴ": 276,
      "ãģĮ": 277,
      "ãģ¦": 278,
      "ãģĹ": 279,
      "ãģª": 280,
      "ãģŁ": 281,
      "ãĤĮ": 282,
      "ãĥ¼": 283,
      "ï¼": 284,
      "ãģĻ": 285,
      "ä¸": 286,
      "ãĥ³": 287,
      "ãģĵ": 288,
      "ãģ®å": 289,
      "ãģĤ": 290,
      "ãĤĤ": 291,
      "åŃ": 292,
      "ãģĭ": 293,
      "ãģĨ": 294,
      "çĶ": 295,
      "ä½": 296,
      "ãģ¾": 297,
      "ãĤĬ": 298,
      "ãģ£": 299,
      "ãĤī": 300,
      "åĪ": 301,
      "ãģķ": 302,
      "æľ": 303,
      "åĲ": 304,
      "ãĤĪ": 305,
      "ãģĹãģ¦": 306,
      "ãģĻãĤĭ": 307,
      "ãĥ¼ãĥ": 308,
      "å¤": 309,
      "ãĤ¹": 310,
      "ãģĤãĤĭ": 311,
      "å¹": 312,
      "äº": 313,
      "å®": 314,
      "ä»": 315,
      "æĸ": 316,
      "ï¼ī": 317,
      "ï¼Ī": 318,
      "èª": 319,
      "å¹´": 320,
      "è¨": 321,
      "åı": 322,
      "è¡": 323,
      "ãģį": 324,
      "åħ": 325,
      "ãĤ¤": 326,
      "ãģ®æ": 327,
      "ãģı": 328,
      "ãģķãĤĮ": 329,
      "ãĢĮ": 330,
      "ãĢį": 331,
      "ãĥ«": 332,
      "ãĤ¢": 333,
      "ãģĵãģ¨": 334,
      "ãĥ»": 335,
      "åŃ¦": 336,
      "éĸ": 337,
      "ãĥ©": 338,
      "ãĥĪ": 339,
      "æķ": 340,
      "ãĥª": 341,
      "ãģ¦ãģĦ": 342,
      "ãģĿ": 343,
      "è¦": 344,
      "ãĤ¯": 345,
      "éĽ": 346,
      "åĽ": 347,
      "éĢ": 348,
      "ãģĹãģŁ": 349,
      "çī": 350,
      "çļ": 351,
      "ãģ©": 352,
      "ãģ¤": 353,
      "ãģĪ": 354,
      "ãĤĦ": 355,
      "ç´": 356,
      "çļĦ": 357,
      "ãģ£ãģŁ": 358,
      "ãĥĥ": 359,
      "ãģ§ãģĤãĤĭ": 360,
      "çµ": 361,
      "ãģĳ": 362,
      "ä½ľ": 363,
      "åĮ": 364,
      "éģ": 365,
      "ãģ§ãģ¯": 366,
      "ãĤģ": 367,
      "ãģĬ": 368,
      "å¼": 369,
      "ãĤĴæ": 370,
      "å¾": 371,
      "èĢ": 372,
      "å°": 373,
      "æķ°": 374,
      "ãģĭãĤī": 375,
      "æĹ": 376,
      "ãģªãģĦ": 377,
      "äºº": 378,
      "ãģ¨ãģĦ": 379,
      "åł": 380,
      "ãĤ¿": 381,
      "åĲĪ": 382,
      "ãģ«ãģ¯": 383,
      "åĪĨ": 384,
      "åĬ": 385,
      "çĻ": 386,
      "ä¼": 387,
      "ãĥ³ãĥ": 388,
      "éĩ": 389,
      "ä¸Ģ": 390,
      "è¡Į": 391,
      "ãģ¦ãģĦãĤĭ": 392,
      "å½": 393,
      "ãĤĪãģĨ": 394,
      "çĶ¨": 395,
      "èªŀ": 396,
      "ãĤı": 397,
      "åŃĲ": 398,
      "é¡": 399,
      "ãģ£ãģ¦": 400,
      "æ³": 401,
      "ãģ¾ãģĻ": 402,
      "ãģªãģ©": 403,
      "çĽ": 404,
      "Ġ\\": 405,
      "ãĤ·": 406,
      "æĿ": 407,
      "çī©": 408,
      "å¤§": 409,
      "ãĥŃ": 410,
      "åł´": 411,
      "ãģł": 412,
      "åľ": 413,
      "ãģ°": 414,
      "19": 415,
      "æľ¬": 416,
      "ãĢı": 417,
      "ãĢİ": 418,
      "ãĤ°": 419,
      "åº": 420,
      "æĸ¹": 421,
      "ãĤĵ": 422,
      "ãĥ¬": 423,
      "ãģ¨ãģĦãģĨ": 424,
      "ãģ«ãĤĪ": 425,
      "ä¾": 426,
      "æĢ": 427,
      "æ°": 428,
      "çĲ": 429,
      "åĭ": 430,
      "æĪ": 431,
      "æĸĩ": 432,
      "ãĥķ": 433,
      "çĶ»": 434,
      "æĺ": 435,
      "æĹ¥": 436,
      "ãģ¨ãģĹãģ¦": 437,
      "ãģ®è": 438,
      "éĽ»": 439,
      "çĶŁ": 440,
      "å¿": 441,
      "ãĤ«": 442,
      "åī": 443,
      "åĮĸ": 444,
      "ãĥĹ": 445,
      "åĳ": 446,
      "åĩ": 447,
      "ãĤ³": 448,
      "å®ļ": 449,
      "åĽ½": 450,
      "20": 451,
      "å¯": 452,
      "ç§": 453,
      "åį": 454,
      "æ¨": 455,
      "è¨Ģ": 456,
      "çĲĨ": 457,
      "èĢħ": 458,
      "æĻ": 459,
      "ãĥĨ": 460,
      "ãĤ¸": 461,
      "ãģ®ç": 462,
      "ä½ĵ": 463,
      "æ³ķ": 464,
      "ãĤĮãĤĭ": 465,
      "ä¸Ń": 466,
      "æī": 467,
      "ä»£": 468,
      "ãģĦãģ¦": 469,
      "ç¤": 470,
      "åĩº": 471,
      "æ¥": 472,
      "ãģĹãģ¦ãģĦ": 473,
      "ãĤ£": 474,
      "å¥": 475,
      "è¡¨": 476,
      "çķ": 477,
      "ãģ¨ãģª": 478,
      "ãĥŀ": 479,
      "æĽ": 480,
      "ãĥĩ": 481,
      "æĢ§": 482,
      "æŃ": 483,
      "ãģ«ãģª": 484,
      "ãģ¿": 485,
      "éĥ": 486,
      "ãĤĤãģ®": 487,
      "éĸ¢": 488,
      "ĳĹ": 489,
      "èĥ": 490,
      "ä¿": 491,
      "èĩ": 492,
      "éĻ": 493,
      "åķ": 494,
      "ãĥł": 495,
      "åĭķ": 496,
      "è©": 497,
      "æĶ": 498,
      "ãģ¾ãģŁ": 499,
      "ãģķãĤĮãĤĭ": 500,
      "ä¸Ĭ": 501,
      "é¡Į": 502,
      "éĸĵ": 503,
      "è³": 504,
      "ãĤ¦": 505,
      "ãĥ¡": 506,
      "ãģ¡": 507,
      "å¼ı": 508,
      "éŁ": 509,
      "ãģĽ": 510,
      "è¦ģ": 511,
      "ç«": 512,
      "åĢ": 513,
      "æ¼": 514,
      "ĳĹä½ľ": 515,
      "å¯¾": 516,
      "åĨ": 517,
      "ãģĵãģ®": 518,
      "æł": 519,
      "è¿": 520,
      "åĬĽ": 521,
      "çĤ": 522,
      "ãģĤãĤĬ": 523,
      "åķı": 524,
      "ãģŁãĤģ": 525,
      "ãģĵãģ¨ãģĮ": 526,
      "çĻº": 527,
      "ä¼ļ": 528,
      "å¸": 529,
      "æĻĤ": 530,
      "çŃ": 531,
      "è«": 532,
      "ãģ§ãģį": 533,
      "ç¾": 534,
      "ãģĵãĤĮ": 535,
      "éĿ": 536,
      "åĲĮ": 537,
      "å®Ł": 538,
      "è§": 539,
      "ı¾": 540,
      "æĬ": 541,
      "æĪĲ": 542,
      "æ¨©": 543,
      "èĩª": 544,
      "åĵ": 545,
      "ãĥĸ": 546,
      "ç·": 547,
      "çı¾": 548,
      "ãĤ¨": 549,
      "éĥ¨": 550,
      "ãģķãĤĮãģŁ": 551,
      "ãģĺ": 552,
      "in": 553,
      "ãĥī": 554,
      "åİ": 555,
      "ãĥĭ": 556,
      "éł": 557,
      "ãĥ¥": 558,
      "ä½¿": 559,
      "è¨ĺ": 560,
      "åħ¥": 561,
      "è²": 562,
      "å¾Į": 563,
      "å½¢": 564,
      "å¤ļ": 565,
      "ãģĿãģ®": 566,
      "Ġ=": 567,
      "ç©": 568,
      "§ĭ": 569,
      "åº¦": 570,
      "ä¾ĭ": 571,
      "ãĤª": 572,
      "äºĭ": 573,
      "ãĥ£": 574,
      "çŁ": 575,
      "ä¸»": 576,
      "æĦ": 577,
      "ä»¥": 578,
      "ãĥŁ": 579,
      "ãģļ": 580,
      "æ¸": 581,
      "æľĪ": 582,
      "ãģĹãģ¦ãģĦãĤĭ": 583,
      "èĳĹä½ľ": 584,
      "å±": 585,
      "ãĤµ": 586,
      "çļĦãģª": 587,
      "ç¨": 588,
      "å·": 589,
      "er": 590,
      "åŁ": 591,
      "å°ĳ": 592,
      "ç¶": 593,
      "éŁ³": 594,
      "ç¾©": 595,
      "ãĥģ": 596,
      "ãĤŃ": 597,
      "ãĥĥãĤ¯": 598,
      "å¥³": 599,
      "éļ": 600,
      "è«ĸ": 601,
      "è¨Ģèªŀ": 602,
      "æĽ¸": 603,
      "è¦ĭ": 604,
      "ä¸ĸ": 605,
      "ãģ«ãģĬ": 606,
      "ãĥĲ": 607,
      "«çĶ»": 608,
      "æİ": 609,
      "ra": 610,
      "èŃ": 611,
      "èĥ½": 612,
      "æ¬": 613,
      "ãĤīãĤĮ": 614,
      "ãģ«ãĤĪãģ£ãģ¦": 615,
      "æ²": 616,
      "ãģ§ãģĻ": 617,
      "ãģĿãĤĮ": 618,
      "é«": 619,
      "åľ¨": 620,
      "æľŁ": 621,
      "æĹ¥æľ¬": 622,
      "ç§ĳ": 623,
      "çĤ¹": 624,
      "è§£": 625,
      "ãĤº": 626,
      "èĢĥ": 627,
      "ãĤĪãģĨãģ«": 628,
      "ãĤ½": 629,
      "æ¼«çĶ»": 630,
      "é«ĺ": 631,
      "è³ª": 632,
      "ãģĮãģĤãĤĭ": 633,
      "å¤ī": 634,
      "ãĤ¹ãĥĪ": 635,
      "ç´ł": 636,
      "çĦ": 637,
      "ç®": 638,
      "ç«ĭ": 639,
      "è»": 640,
      "çµĲ": 641,
      "Ġ-": 642,
      "åīį": 643,
      "ãĥ¼ãĥī": 644,
      "ç¤¾": 645,
      "èµ": 646,
      "ãĥ³ãĤ°": 647,
      "åħ¨": 648,
      "ãĤĪãģĨãģª": 649,
      "çĽ®": 650,
      "æĺİ": 651,
      "é¨": 652,
      "ãģ®ãģ§": 653,
      "çī¹": 654,
      "ç¬": 655,
      "éĢļ": 656,
      "æ°Ĺ": 657,
      "ãĥ¼ãĥł": 658,
      "ãĥĹãĥŃ": 659,
      "æ´": 660,
      "10": 661,
      "æµ": 662,
      "æĮ": 663,
      "ãģĪãĤĭ": 664,
      "©Ł": 665,
      "ãĥİ": 666,
      "åİŁ": 667,
      "æľĢ": 668,
      "éĸĭ": 669,
      "é¨ĵ": 670,
      "åŃĺ": 671,
      "ãĥ¼ãĥ«": 672,
      "æŀ": 673,
      "è£": 674,
      "ãģ»": 675,
      "ãĥķãĤ": 676,
      "ãĥĻ": 677,
      "åľ°": 678,
      "Ġ(": 679,
      "ãĥĥãĥĪ": 680,
      "ãĥĳ": 681,
      "èĪ": 682,
      "ãģ³": 683,
      "ãĤ¤ãĥ³": 684,
      "çŁ¥": 685,
      "ãĥĵ": 686,
      "en": 687,
      "åĲĳ": 688,
      "ãģ§ãĤĤ": 689,
      "ãģ«ãģ¤": 690,
      "ãĤĪãĤĬ": 691,
      "æ¬¡": 692,
      "æº": 693,
      "çĻ»": 694,
      "rac": 695,
      "çµĮ": 696,
      "ãģ£ãģ¦ãģĦãĤĭ": 697,
      "éĢ£": 698,
      "åķıé¡Į": 699,
      "ä¸ĭ": 700,
      "frac": 701,
      "æĶ¿": 702,
      "æ±": 703,
      "æı": 704,
      "éķ": 705,
      "éķ·": 706,
      "ãĤį": 707,
      "æĥ": 708,
      "æĦı": 709,
      "ç¶ļ": 710,
      "ãĥĶ": 711,
      "éĽĨ": 712,
      "ãĥį": 713,
      "ãģĳãĤĭ": 714,
      "å®¶": 715,
      "èª¬": 716,
      "éħ": 717,
      "ãĤ¶": 718,
      "éĩı": 719,
      "æ©Ł": 720,
      "ãģªãģı": 721,
      "ãģ¹": 722,
      "ãĤ®": 723,
      "ãĥ§": 724,
      "ãĤīãĤĮãĤĭ": 725,
      "ãĤĮãģ°": 726,
      "ä½į": 727,
      "åł´åĲĪ": 728,
      "ãĤ°ãĥ©": 729,
      "ãģ§ãģįãĤĭ": 730,
      "ç¤º": 731,
      "æīĭ": 732,
      "çĻ»åł´": 733,
      "å¹´ãģ«": 734,
      "åıĹ": 735,
      "çļĦãģ«": 736,
      "è¨Ī": 737,
      "åĳ¼": 738,
      "ç½": 739,
      "åĪĹ": 740,
      "ç®Ĺ": 741,
      "çİ": 742,
      "é¡ŀ": 743,
      "æ¥Ń": 744,
      "ãĥ¼ãĥĪ": 745,
      "ri": 746,
      "æĿ±": 747,
      "ãĢģãĢĮ": 748,
      "ãģ®å¤": 749,
      "åĲį": 750,
      "å£": 751,
      "éĩį": 752,
      "ãĤ»": 753,
      "ãĥĿ": 754,
      "ãģ¨ãģ¯": 755,
      "ãģķãĤĮãģ¦ãģĦãĤĭ": 756,
      "ãģ«ãģ¤ãģĦãģ¦": 757,
      "åĪ©": 758,
      "ãĥĬ": 759,
      "çķĮ": 760,
      "æķĻ": 761,
      "ãĤ§": 762,
      "ãģ¨ãģį": 763,
      "ãĤ¿ãĥ¼": 764,
      "ãģ«ãģĬãģĦãģ¦": 765,
      "ç¬¬": 766,
      "ãĤ²": 767,
      "ãĥ¢": 768,
      "ãĤĴæĮ": 769,
      "æ²»": 770,
      "æĿ¡": 771,
      "ä»ĸ": 772,
      "}{": 773,
      "ä¸į": 774,
      "åĨħ": 775,
      "ma": 776,
      "åŃĹ": 777,
      "éĿ¢": 778,
      "ãģ¦ãģĦãģŁ": 779,
      "ãģ§ãģĤãĤĬ": 780,
      "æĸ°": 781,
      "æ°ĳ": 782,
      "åıĸ": 783,
      "ãģĿãģ®å": 784,
      "æľī": 785,
      "å°ı": 786,
      "ç·ļ": 787,
      "å¤ĸ": 788,
      "å¿ħ": 789,
      "ç´°": 790,
      "åŀ": 791,
      "ãģ«å¯¾": 792,
      "æ¥½": 793,
      "ä¿Ŀ": 794,
      "ãģĹãģĭ": 795,
      "åĪ¶": 796,
      "le": 797,
      "æ¯": 798,
      "on": 799,
      "æ¶": 800,
      "å½ĵ": 801,
      "æŃ£": 802,
      "åĬł": 803,
      "ãģ«ãĤĪãĤĭ": 804,
      "ãģ¸": 805,
      "ãģ¾ãģ§": 806,
      "ãģĪãģ°": 807,
      "åŁº": 808,
      "ãģĬãĤĬ": 809,
      "ç¨ĭ": 810,
      "è¼": 811,
      "ãģĻãĤĭãģĵãģ¨": 812,
      "çŃī": 813,
      "å°ĳå¥³": 814,
      "ãĥļ": 815,
      "éĻĲ": 816,
      "£ģ": 817,
      "æ§ĭ": 818,
      "me": 819,
      "ti": 820,
      "è¾": 821,
      "ãģ¨åĳ¼": 822,
      "200": 823,
      "ï¼īãĢĤ": 824,
      "ãĢıï¼Ī": 825,
      "æĺł": 826,
      "ãĤ¬": 827,
      "ãĥĢ": 828,
      "åĮ»": 829,
      "è©¦": 830,
      "åŀĭ": 831,
      "ãĥ³ãĥī": 832,
      "åįĺ": 833,
      "¢º": 834,
      "ãĤ±": 835,
      "åħĥ": 836,
      "ãģ«ãģªãĤĭ": 837,
      "è±": 838,
      "åħ¬": 839,
      "ĴĮ": 840,
      "ãģ¨ãģĻãĤĭ": 841,
      "ä¼Ŀ": 842,
      "èĳĹä½ľæ¨©": 843,
      "ãĥı": 844,
      "åı·": 845,
      "æīĢ": 846,
      "ãĢħ": 847,
      "èī": 848,
      "ãĥ¼ãĤ¹": 849,
      "ãĥľ": 850,
      "åĵģ": 851,
      "ç¢º": 852,
      "åĪĿ": 853,
      "åŃĺåľ¨": 854,
      "æħ": 855,
      "ç£ģ": 856,
      "âĢ": 857,
      "åĪ¥": 858,
      "ãĤ·ãĥ§": 859,
      "æ®": 860,
      "ãģªãĤĭ": 861,
      "åĤ": 862,
      "çĽ¸": 863,
      "éļĽ": 864,
      "ãģ¨ãĤĤ": 865,
      "§ĺ": 866,
      "ä¾¡": 867,
      "è¿°": 868,
      "ãģ¨ãģªãĤĭ": 869,
      "è±¡": 870,
      "²åŃ¦": 871,
      "æµģ": 872,
      "ãģĤãģ£ãģŁ": 873,
      "ãĤĢ": 874,
      "å¾Ĺ": 875,
      "197": 876,
      "çľ": 877,
      "ãģ®åĪ": 878,
      "åı¯": 879,
      "ç½®": 880,
      "æĪ¦": 881,
      "äºĮ": 882,
      "æŀľ": 883,
      "å°İ": 884,
      "ãĤıãĤĮ": 885,
      "èªĮ": 886,
      "åĥ": 887,
      "ãģĮçĻ»åł´": 888,
      "ãģĹãģĦ": 889,
      "è¦ı": 890,
      "ç´Ħ": 891,
      "åĢ¤": 892,
      "ãĥĹãĥŃãĤ°ãĥ©": 893,
      "ãĤĩ": 894,
      "ta": 895,
      "åģ": 896,
      "å¿ľ": 897,
      "éĩİ": 898,
      "éĸ¢æķ°": 899,
      "éĩĳ": 900,
      "la": 901,
      "å¢": 902,
      "Ġ1": 903,
      "ãģ«ãĤĤ": 904,
      "ãģ®å®": 905,
      "èµ·": 906,
      "è¿ĳ": 907,
      "åĴĮ": 908,
      "æ§ĺ": 909,
      "ãģĴ": 910,
      "ãĥ³ãĥĪ": 911,
      "ãģĵãģ¨ãĤĴ": 912,
      "æĿ¥": 913,
      "èĪ¬": 914,
      "åĽŀ": 915,
      "ä»ĺ": 916,
      "åħ±": 917,
      "çİĩ": 918,
      "ãĥĦ": 919,
      "è¨Ń": 920,
      "åıį": 921,
      "ãĥ¼ãĤ¸": 922,
      "èĢĥãģĪ": 923,
      "ãģ®åħ": 924,
      "ãĥĩãĤ£": 925,
      "ãĤ²ãĥ¼ãĥł": 926,
      "ch": 927,
      "ä¸ĢèĪ¬": 928,
      "ãĥķãĤ¡": 929,
      "çĦ¡": 930,
      "ãģ¾ãĤĬ": 931,
      "èĥŀ": 932,
      "ãģ¶": 933,
      "çµĦ": 934,
      "ä¹": 935,
      "ãģªãĤī": 936,
      "å¹´ãģ«ãģ¯": 937,
      "ç¥": 938,
      "çµ±": 939,
      "çĽ´": 940,
      "ãģ«ãĤĪãĤĬ": 941,
      "æ°´": 942,
      "éĽ»åŃĲ": 943,
      "ãģĦãģŁ": 944,
      "éħį": 945,
      "ç´°èĥŀ": 946,
      "ãģĹãģ¾ãģĻ": 947,
      "éģĵ": 948,
      "åĳ³": 949,
      "ãģĹãģĭãģĹ": 950,
      "ç³": 951,
      "ãĥ¼ãĤ¿": 952,
      "æł¼": 953,
      "¤ľ": 954,
      "éģİ": 955,
      "ç¤¾ä¼ļ": 956,
      "å¿ħè¦ģ": 957,
      "ä½¿çĶ¨": 958,
      "çĬ": 959,
      "èĭ": 960,
      "ãĤ¯ãĥ©": 961,
      "åĢĭ": 962,
      "_{": 963,
      "Ġx": 964,
      "çĶ£": 965,
      "å¿ĥ": 966,
      "å¤ļãģı": 967,
      "ãĤĴæĮģ": 968,
      "ãģłãģĳ": 969,
      "æĬĢ": 970,
      "åīĩ": 971,
      "æ´»": 972,
      "ł´": 973,
      "å¼ķ": 974,
      "éģĭ": 975,
      "éģ¸": 976,
      "æ¸Ī": 977,
      "çĶ±": 978,
      "æĺłçĶ»": 979,
      "ãģ«éĸ¢": 980,
      "ï¼īãĢģ": 981,
      "å¹´ä»£": 982,
      "ä¸ĸçķĮ": 983,
      "åĵ²åŃ¦": 984,
      "èį": 985,
      "ãģ®ãĤĪãģĨãģ«": 986,
      "ç¿": 987,
      "æĸĩåŃĹ": 988,
      "ç§°": 989,
      "ãĤ¢ãĥ«": 990,
      "198": 991,
      "201": 992,
      "ç©į": 993,
      "ç³»": 994,
      "or": 995,
      "æĭ": 996,
      "ãģ®ä¸Ń": 997,
      "è»į": 998,
      "ä¸ī": 999,
      "çķ°": 1000,
      "åĲĮãģĺ": 1001,
      "ãĤĩãģĨ": 1002,
      "çµĮæ¸Ī": 1003,
      "æł¡": 1004,
      "åı¯èĥ½": 1005,
      "ç´Ģ": 1006,
      "ä¿Ĥ": 1007,
      "ãĥĶãĤ¢": 1008,
      "ãģĻãĤĭãģ¨": 1009,
      "ãģ®æķ": 1010,
      "ç©¶": 1011,
      "èĤ": 1012,
      "é£": 1013,
      "ãĤĤãģĤãĤĭ": 1014,
      "łĶ": 1015,
      "ãĤ·ãĥ§ãĥ³": 1016,
      "é¤": 1017,
      "ãģªãģĭ": 1018,
      "00": 1019,
      "ĠA": 1020,
      "æĹı": 1021,
      "è¡ĵ": 1022,
      "æĥħ": 1023
    },
    "merges": [
      [
        "ã",
        "ģ"
      ],
      [
        "ã",
        "Ĥ"
      ],
      [
        "ã",
        "ĥ"
      ],
      [
        "ã",
        "Ģ"
      ],
      [
        "ãģ",
        "®"
      ],
      [
        "ãĢ",
        "ģ"
      ],
      [
        "ãĤ",
        "ĭ"
      ],
      [
        "ãģ",
        "«"
      ],
      [
        "ãĢ",
        "Ĥ"
      ],
      [
        "ãģ",
        "¨"
      ],
      [
        "ãģ",
        "¯"
      ],
      [
        "ãģ",
        "Ħ"
      ],
      [
        "ãģ",
        "§"
      ],
      [
        "ãĤ",
        "Ĵ"
      ],
      [
        "ãģ",
        "Į"
      ],
      [
        "ãģ",
        "¦"
      ],
      [
        "ãģ",
        "Ĺ"
      ],
      [
        "ãģ",
        "ª"
      ],
      [
        "ãģ",
        "Ł"
      ],
      [
        "ãĤ",
        "Į"
      ],
      [
        "ãĥ",
        "¼"
      ],
      [
        "ï",
        "¼"
      ],
      [
        "ãģ",
        "Ļ"
      ],
      [
        "ä",
        "¸"
      ],
      [
        "ãĥ",
        "³"
      ],
      [
        "ãģ",
        "ĵ"
      ],
      [
        "ãģ®",
        "å"
      ],
      [
        "ãģ",
        "Ĥ"
      ],
      [
        "ãĤ",
        "Ĥ"
      ],
      [
        "å",
        "Ń"
      ],
      [
        "ãģ",
        "ĭ"
      ],
      [
        "ãģ",
        "Ĩ"
      ],
      [
        "ç",
        "Ķ"
      ],
      [
        "ä",
        "½"
      ],
      [
        "ãģ",
        "¾"
      ],
      [
        "ãĤ",
        "Ĭ"
      ],
      [
        "ãģ",
        "£"
      ],
      [
        "ãĤ",
        "ī"
      ],
      [
        "å",
        "Ī"
      ],
      [
        "ãģ",
        "ķ"
      ],
      [
        "æ",
        "ľ"
      ],
      [
        "å",
        "Ĳ"
      ],
      [
        "ãĤ",
        "Ī"
      ],
      [
        "ãģĹ",
        "ãģ¦"
      ],
      [
        "ãģĻ",
        "ãĤĭ"
      ],
      [
        "ãĥ¼",
        "ãĥ"
      ],
      [
        "å",
        "¤"
      ],
      [
        "ãĤ",
        "¹"
      ],
      [
        "ãģĤ",
        "ãĤĭ"
      ],
      [
        "å",
        "¹"
      ],
      [
        "ä",
        "º"
      ],
      [
        "å",
        "®"
      ],
      [
        "ä",
        "»"
      ],
      [
        "æ",
        "ĸ"
      ],
      [
        "ï¼",
        "ī"
      ],
      [
        "ï¼",
        "Ī"
      ],
      [
        "è",
        "ª"
      ],
      [
        "å¹",
        "´"
      ],
      [
        "è",
        "¨"
      ],
      [
        "å",
        "ı"
      ],
      [
        "è",
        "¡"
      ],
      [
        "ãģ",
        "į"
      ],
      [
        "å",
        "ħ"
      ],
      [
        "ãĤ",
        "¤"
      ],
      [
        "ãģ®",
        "æ"
      ],
      [
        "ãģ",
        "ı"
      ],
      [
        "ãģķ",
        "ãĤĮ"
      ],
      [
        "ãĢ",
        "Į"
      ],
      [
        "ãĢ",
        "į"
      ],
      [
        "ãĥ",
        "«"
      ],
      [
        "ãĤ",
        "¢"
      ],
      [
        "ãģĵ",
        "ãģ¨"
      ],
      [
        "ãĥ",
        "»"
      ],
      [
        "åŃ",
        "¦"
      ],
      [
        "é",
        "ĸ"
      ],
      [
        "ãĥ",
        "©"
      ],
      [
        "ãĥ",
        "Ī"
      ],
      [
        "æ",
        "ķ"
      ],
      [
        "ãĥ",
        "ª"
      ],
      [
        "ãģ¦",
        "ãģĦ"
      ],
      [
        "ãģ",
        "Ŀ"
      ],
      [
        "è",
        "¦"
      ],
      [
        "ãĤ",
        "¯"
      ],
      [
        "é",
        "Ľ"
      ],
      [
        "å",
        "Ľ"
      ],
      [
        "é",
        "Ģ"
      ],
      [
        "ãģĹ",
        "ãģŁ"
      ],
      [
        "ç",
        "ī"
      ],
      [
        "ç",
        "ļ"
      ],
      [
        "ãģ",
        "©"
      ],
      [
        "ãģ",
        "¤"
      ],
      [
        "ãģ",
        "Ī"
      ],
      [
        "ãĤ",
        "Ħ"
      ],
      [
        "ç",
        "´"
      ],
      [
        "çļ",
        "Ħ"
      ],
      [
        "ãģ£",
        "ãģŁ"
      ],
      [
        "ãĥ",
        "ĥ"
      ],
      [
        "ãģ§",
        "ãģĤãĤĭ"
      ],
      [
        "ç",
        "µ"
      ],
      [
        "ãģ",
        "ĳ"
      ],
      [
        "ä½",
        "ľ"
      ],
      [
        "å",
        "Į"
      ],
      [
        "é",
        "ģ"
      ],
      [
        "ãģ§",
        "ãģ¯"
      ],
      [
        "ãĤ",
        "ģ"
      ],
      [
        "ãģ",
        "Ĭ"
      ],
      [
        "å",
        "¼"
      ],
      [
        "ãĤĴ",
        "æ"
      ],
      [
        "å",
        "¾"
      ],
      [
        "è",
        "Ģ"
      ],
      [
        "å",
        "°"
      ],
      [
        "æķ",
        "°"
      ],
      [
        "ãģĭ",
        "ãĤī"
      ],
      [
        "æ",
        "Ĺ"
      ],
      [
        "ãģª",
        "ãģĦ"
      ],
      [
        "äº",
        "º"
      ],
      [
        "ãģ¨",
        "ãģĦ"
      ],
      [
        "å",
        "ł"
      ],
      [
        "ãĤ",
        "¿"
      ],
      [
        "åĲ",
        "Ī"
      ],
      [
        "ãģ«",
        "ãģ¯"
      ],
      [
        "åĪ",
        "Ĩ"
      ],
      [
        "å",
        "Ĭ"
      ],
      [
        "ç",
        "Ļ"
      ],
      [
        "ä",
        "¼"
      ],
      [
        "ãĥ³",
        "ãĥ"
      ],
      [
        "é",
        "ĩ"
      ],
      [
        "ä¸",
        "Ģ"
      ],
      [
        "è¡",
        "Į"
      ],
      [
        "ãģ¦ãģĦ",
        "ãĤĭ"
      ],
      [
        "å",
        "½"
      ],
      [
        "ãĤĪ",
        "ãģĨ"
      ],
      [
        "çĶ",
        "¨"
      ],
      [
        "èª",
        "ŀ"
      ],
      [
        "ãĤ",
        "ı"
      ],
      [
        "åŃ",
        "Ĳ"
      ],
      [
        "é",
        "¡"
      ],
      [
        "ãģ£",
        "ãģ¦"
      ],
      [
        "æ",
        "³"
      ],
      [
        "ãģ¾",
        "ãģĻ"
      ],
      [
        "ãģª",
        "ãģ©"
      ],
      [
        "ç",
        "Ľ"
      ],
      [
        "Ġ",
        "\\"
      ],
      [
        "ãĤ",
        "·"
      ],
      [
        "æ",
        "Ŀ"
      ],
      [
        "çī",
        "©"
      ],
      [
        "å¤",
        "§"
      ],
      [
        "ãĥ",
        "Ń"
      ],
      [
        "åł",
        "´"
      ],
      [
        "ãģ",
        "ł"
      ],
      [
        "å",
        "ľ"
      ],
      [
        "ãģ",
        "°"
      ],
      [
        "1",
        "9"
      ],
      [
        "æľ",
        "¬"
      ],
      [
        "ãĢ",
        "ı"
      ],
      [
        "ãĢ",
        "İ"
      ],
      [
        "ãĤ",
        "°"
      ],
      [
        "å",
        "º"
      ],
      [
        "æĸ",
        "¹"
      ],
      [
        "ãĤ",
        "ĵ"
      ],
      [
        "ãĥ",
        "¬"
      ],
      [
        "ãģ¨ãģĦ",
        "ãģĨ"
      ],
      [
        "ãģ«",
        "ãĤĪ"
      ],
      [
        "ä",
        "¾"
      ],
      [
        "æ",
        "Ģ"
      ],
      [
        "æ",
        "°"
      ],
      [
        "ç",
        "Ĳ"
      ],
      [
        "å",
        "ĭ"
      ],
      [
        "æ",
        "Ī"
      ],
      [
        "æĸ",
        "ĩ"
      ],
      [
        "ãĥ",
        "ķ"
      ],
      [
        "çĶ",
        "»"
      ],
      [
        "æ",
        "ĺ"
      ],
      [
        "æĹ",
        "¥"
      ],
      [
        "ãģ¨",
        "ãģĹãģ¦"
      ],
      [
        "ãģ®",
        "è"
      ],
      [
        "éĽ",
        "»"
      ],
      [
        "çĶ",
        "Ł"
      ],
      [
        "å",
        "¿"
      ],
      [
        "ãĤ",
        "«"
      ],
      [
        "å",
        "ī"
      ],
      [
        "åĮ",
        "ĸ"
      ],
      [
        "ãĥ",
        "Ĺ"
      ],
      [
        "å",
        "ĳ"
      ],
      [
        "å",
        "ĩ"
      ],
      [
        "ãĤ",
        "³"
      ],
      [
        "å®",
        "ļ"
      ],
      [
        "åĽ",
        "½"
      ],
      [
        "2",
        "0"
      ],
      [
        "å",
        "¯"
      ],
      [
        "ç",
        "§"
      ],
      [
        "å",
        "į"
      ],
      [
        "æ",
        "¨"
      ],
      [
        "è¨",
        "Ģ"
      ],
      [
        "çĲ",
        "Ĩ"
      ],
      [
        "èĢ",
        "ħ"
      ],
      [
        "æ",
        "Ļ"
      ],
      [
        "ãĥ",
        "Ĩ"
      ],
      [
        "ãĤ",
        "¸"
      ],
      [
        "ãģ®",
        "ç"
      ],
      [
        "ä½",
        "ĵ"
      ],
      [
        "æ³",
        "ķ"
      ],
      [
        "ãĤĮ",
        "ãĤĭ"
      ],
      [
        "ä¸",
        "Ń"
      ],
      [
        "æ",
        "ī"
      ],
      [
        "ä»",
        "£"
      ],
      [
        "ãģĦ",
        "ãģ¦"
      ],
      [
        "ç",
        "¤"
      ],
      [
        "åĩ",
        "º"
      ],
      [
        "æ",
        "¥"
      ],
      [
        "ãģĹãģ¦",
        "ãģĦ"
      ],
      [
        "ãĤ",
        "£"
      ],
      [
        "å",
        "¥"
      ],
      [
        "è¡",
        "¨"
      ],
      [
        "ç",
        "ķ"
      ],
      [
        "ãģ¨",
        "ãģª"
      ],
      [
        "ãĥ",
        "ŀ"
      ],
      [
        "æ",
        "Ľ"
      ],
      [
        "ãĥ",
        "ĩ"
      ],
      [
        "æĢ",
        "§"
      ],
      [
        "æ",
        "Ń"
      ],
      [
        "ãģ«",
        "ãģª"
      ],
      [
        "ãģ",
        "¿"
      ],
      [
        "é",
        "ĥ"
      ],
      [
        "ãĤĤ",
        "ãģ®"
      ],
      [
        "éĸ",
        "¢"
      ],
      [
        "ĳ",
        "Ĺ"
      ],
      [
        "è",
        "ĥ"
      ],
      [
        "ä",
        "¿"
      ],
      [
        "è",
        "ĩ"
      ],
      [
        "é",
        "Ļ"
      ],
      [
        "å",
        "ķ"
      ],
      [
        "ãĥ",
        "ł"
      ],
      [
        "åĭ",
        "ķ"
      ],
      [
        "è",
        "©"
      ],
      [
        "æ",
        "Ķ"
      ],
      [
        "ãģ¾",
        "ãģŁ"
      ],
      [
        "ãģķãĤĮ",
        "ãĤĭ"
      ],
      [
        "ä¸",
        "Ĭ"
      ],
      [
        "é¡",
        "Į"
      ],
      [
        "éĸ",
        "ĵ"
      ],
      [
        "è",
        "³"
      ],
      [
        "ãĤ",
        "¦"
      ],
      [
        "ãĥ",
        "¡"
      ],
      [
        "ãģ",
        "¡"
      ],
      [
        "å¼",
        "ı"
      ],
      [
        "é",
        "Ł"
      ],
      [
        "ãģ",
        "Ľ"
      ],
      [
        "è¦",
        "ģ"
      ],
      [
        "ç",
        "«"
      ],
      [
        "å",
        "Ģ"
      ],
      [
        "æ",
        "¼"
      ],
      [
        "ĳĹ",
        "ä½ľ"
      ],
      [
        "å¯",
        "¾"
      ],
      [
        "å",
        "Ĩ"
      ],
      [
        "ãģĵ",
        "ãģ®"
      ],
      [
        "æ",
        "ł"
      ],
      [
        "è",
        "¿"
      ],
      [
        "åĬ",
        "Ľ"
      ],
      [
        "ç",
        "Ĥ"
      ],
      [
        "ãģĤ",
        "ãĤĬ"
      ],
      [
        "åķ",
        "ı"
      ],
      [
        "ãģŁ",
        "ãĤģ"
      ],
      [
        "ãģĵãģ¨",
        "ãģĮ"
      ],
      [
        "çĻ",
        "º"
      ],
      [
        "ä¼",
        "ļ"
      ],
      [
        "å",
        "¸"
      ],
      [
        "æĻ",
        "Ĥ"
      ],
      [
        "ç",
        "Ń"
      ],
      [
        "è",
        "«"
      ],
      [
        "ãģ§",
        "ãģį"
      ],
      [
        "ç",
        "¾"
      ],
      [
        "ãģĵ",
        "ãĤĮ"
      ],
      [
        "é",
        "Ŀ"
      ],
      [
        "åĲ",
        "Į"
      ],
      [
        "å®",
        "Ł"
      ],
      [
        "è",
        "§"
      ],
      [
        "ı",
        "¾"
      ],
      [
        "æ",
        "Ĭ"
      ],
      [
        "æĪ",
        "Ĳ"
      ],
      [
        "æ¨",
        "©"
      ],
      [
        "èĩ",
        "ª"
      ],
      [
        "å",
        "ĵ"
      ],
      [
        "ãĥ",
        "ĸ"
      ],
      [
        "ç",
        "·"
      ],
      [
        "ç",
        "ı¾"
      ],
      [
        "ãĤ",
        "¨"
      ],
      [
        "éĥ",
        "¨"
      ],
      [
        "ãģķãĤĮ",
        "ãģŁ"
      ],
      [
        "ãģ",
        "ĺ"
      ],
      [
        "i",
        "n"
      ],
      [
        "ãĥ",
        "ī"
      ],
      [
        "å",
        "İ"
      ],
      [
        "ãĥ",
        "ĭ"
      ],
      [
        "é",
        "ł"
      ],
      [
        "ãĥ",
        "¥"
      ],
      [
        "ä½",
        "¿"
      ],
      [
        "è¨",
        "ĺ"
      ],
      [
        "åħ",
        "¥"
      ],
      [
        "è",
        "²"
      ],
      [
        "å¾",
        "Į"
      ],
      [
        "å½",
        "¢"
      ],
      [
        "å¤",
        "ļ"
      ],
      [
        "ãģĿ",
        "ãģ®"
      ],
      [
        "Ġ",
        "="
      ],
      [
        "ç",
        "©"
      ],
      [
        "§",
        "ĭ"
      ],
      [
        "åº",
        "¦"
      ],
      [
        "ä¾",
        "ĭ"
      ],
      [
        "ãĤ",
        "ª"
      ],
      [
        "äº",
        "ĭ"
      ],
      [
        "ãĥ",
        "£"
      ],
      [
        "ç",
        "Ł"
      ],
      [
        "ä¸",
        "»"
      ],
      [
        "æ",
        "Ħ"
      ],
      [
        "ä»",
        "¥"
      ],
      [
        "ãĥ",
        "Ł"
      ],
      [
        "ãģ",
        "ļ"
      ],
      [
        "æ",
        "¸"
      ],
      [
        "æľ",
        "Ī"
      ],
      [
        "ãģĹãģ¦ãģĦ",
        "ãĤĭ"
      ],
      [
        "è",
        "ĳĹä½ľ"
      ],
      [
        "å",
        "±"
      ],
      [
        "ãĤ",
        "µ"
      ],
      [
        "çļĦ",
        "ãģª"
      ],
      [
        "ç",
        "¨"
      ],
      [
        "å",
        "·"
      ],
      [
        "e",
        "r"
      ],
      [
        "å",
        "Ł"
      ],
      [
        "å°",
        "ĳ"
      ],
      [
        "ç",
        "¶"
      ],
      [
        "éŁ",
        "³"
      ],
      [
        "ç¾",
        "©"
      ],
      [
        "ãĥ",
        "ģ"
      ],
      [
        "ãĤ",
        "Ń"
      ],
      [
        "ãĥĥ",
        "ãĤ¯"
      ],
      [
        "å¥",
        "³"
      ],
      [
        "é",
        "ļ"
      ],
      [
        "è«",
        "ĸ"
      ],
      [
        "è¨Ģ",
        "èªŀ"
      ],
      [
        "æĽ",
        "¸"
      ],
      [
        "è¦",
        "ĭ"
      ],
      [
        "ä¸",
        "ĸ"
      ],
      [
        "ãģ«",
        "ãģĬ"
      ],
      [
        "ãĥ",
        "Ĳ"
      ],
      [
        "«",
        "çĶ»"
      ],
      [
        "æ",
        "İ"
      ],
      [
        "r",
        "a"
      ],
      [
        "è",
        "Ń"
      ],
      [
        "èĥ",
        "½"
      ],
      [
        "æ",
        "¬"
      ],
      [
        "ãĤī",
        "ãĤĮ"
      ],
      [
        "ãģ«ãĤĪ",
        "ãģ£ãģ¦"
      ],
      [
        "æ",
        "²"
      ],
      [
        "ãģ§",
        "ãģĻ"
      ],
      [
        "ãģĿ",
        "ãĤĮ"
      ],
      [
        "é",
        "«"
      ],
      [
        "åľ",
        "¨"
      ],
      [
        "æľ",
        "Ł"
      ],
      [
        "æĹ¥",
        "æľ¬"
      ],
      [
        "ç§",
        "ĳ"
      ],
      [
        "çĤ",
        "¹"
      ],
      [
        "è§",
        "£"
      ],
      [
        "ãĤ",
        "º"
      ],
      [
        "èĢ",
        "ĥ"
      ],
      [
        "ãĤĪãģĨ",
        "ãģ«"
      ],
      [
        "ãĤ",
        "½"
      ],
      [
        "æ¼",
        "«çĶ»"
      ],
      [
        "é«",
        "ĺ"
      ],
      [
        "è³",
        "ª"
      ],
      [
        "ãģĮ",
        "ãģĤãĤĭ"
      ],
      [
        "å¤",
        "ī"
      ],
      [
        "ãĤ¹",
        "ãĥĪ"
      ],
      [
        "ç´",
        "ł"
      ],
      [
        "ç",
        "Ħ"
      ],
      [
        "ç",
        "®"
      ],
      [
        "ç«",
        "ĭ"
      ],
      [
        "è",
        "»"
      ],
      [
        "çµ",
        "Ĳ"
      ],
      [
        "Ġ",
        "-"
      ],
      [
        "åī",
        "į"
      ],
      [
        "ãĥ¼ãĥ",
        "ī"
      ],
      [
        "ç¤",
        "¾"
      ],
      [
        "è",
        "µ"
      ],
      [
        "ãĥ³",
        "ãĤ°"
      ],
      [
        "åħ",
        "¨"
      ],
      [
        "ãĤĪãģĨ",
        "ãģª"
      ],
      [
        "çĽ",
        "®"
      ],
      [
        "æĺ",
        "İ"
      ],
      [
        "é",
        "¨"
      ],
      [
        "ãģ®",
        "ãģ§"
      ],
      [
        "çī",
        "¹"
      ],
      [
        "ç",
        "¬"
      ],
      [
        "éĢ",
        "ļ"
      ],
      [
        "æ°",
        "Ĺ"
      ],
      [
        "ãĥ¼ãĥ",
        "ł"
      ],
      [
        "ãĥĹ",
        "ãĥŃ"
      ],
      [
        "æ",
        "´"
      ],
      [
        "1",
        "0"
      ],
      [
        "æ",
        "µ"
      ],
      [
        "æ",
        "Į"
      ],
      [
        "ãģĪ",
        "ãĤĭ"
      ],
      [
        "©",
        "Ł"
      ],
      [
        "ãĥ",
        "İ"
      ],
      [
        "åİ",
        "Ł"
      ],
      [
        "æľ",
        "Ģ"
      ],
      [
        "éĸ",
        "ĭ"
      ],
      [
        "é¨",
        "ĵ"
      ],
      [
        "åŃ",
        "ĺ"
      ],
      [
        "ãĥ¼ãĥ",
        "«"
      ],
      [
        "æ",
        "ŀ"
      ],
      [
        "è",
        "£"
      ],
      [
        "ãģ",
        "»"
      ],
      [
        "ãĥķ",
        "ãĤ"
      ],
      [
        "ãĥ",
        "Ļ"
      ],
      [
        "åľ",
        "°"
      ],
      [
        "Ġ",
        "("
      ],
      [
        "ãĥĥ",
        "ãĥĪ"
      ],
      [
        "ãĥ",
        "ĳ"
      ],
      [
        "è",
        "Ī"
      ],
      [
        "ãģ",
        "³"
      ],
      [
        "ãĤ¤",
        "ãĥ³"
      ],
      [
        "çŁ",
        "¥"
      ],
      [
        "ãĥ",
        "ĵ"
      ],
      [
        "e",
        "n"
      ],
      [
        "åĲ",
        "ĳ"
      ],
      [
        "ãģ§",
        "ãĤĤ"
      ],
      [
        "ãģ«",
        "ãģ¤"
      ],
      [
        "ãĤĪ",
        "ãĤĬ"
      ],
      [
        "æ¬",
        "¡"
      ],
      [
        "æ",
        "º"
      ],
      [
        "çĻ",
        "»"
      ],
      [
        "ra",
        "c"
      ],
      [
        "çµ",
        "Į"
      ],
      [
        "ãģ£",
        "ãģ¦ãģĦãĤĭ"
      ],
      [
        "éĢ",
        "£"
      ],
      [
        "åķı",
        "é¡Į"
      ],
      [
        "ä¸",
        "ĭ"
      ],
      [
        "f",
        "rac"
      ],
      [
        "æĶ",
        "¿"
      ],
      [
        "æ",
        "±"
      ],
      [
        "æ",
        "ı"
      ],
      [
        "é",
        "ķ"
      ],
      [
        "éķ",
        "·"
      ],
      [
        "ãĤ",
        "į"
      ],
      [
        "æ",
        "ĥ"
      ],
      [
        "æĦ",
        "ı"
      ],
      [
        "ç¶",
        "ļ"
      ],
      [
        "ãĥ",
        "Ķ"
      ],
      [
        "éĽ",
        "Ĩ"
      ],
      [
        "ãĥ",
        "į"
      ],
      [
        "ãģĳ",
        "ãĤĭ"
      ],
      [
        "å®",
        "¶"
      ],
      [
        "èª",
        "¬"
      ],
      [
        "é",
        "ħ"
      ],
      [
        "ãĤ",
        "¶"
      ],
      [
        "éĩ",
        "ı"
      ],
      [
        "æ",
        "©Ł"
      ],
      [
        "ãģª",
        "ãģı"
      ],
      [
        "ãģ",
        "¹"
      ],
      [
        "ãĤ",
        "®"
      ],
      [
        "ãĥ",
        "§"
      ],
      [
        "ãĤī",
        "ãĤĮãĤĭ"
      ],
      [
        "ãĤĮ",
        "ãģ°"
      ],
      [
        "ä½",
        "į"
      ],
      [
        "åł´",
        "åĲĪ"
      ],
      [
        "ãĤ°",
        "ãĥ©"
      ],
      [
        "ãģ§ãģį",
        "ãĤĭ"
      ],
      [
        "ç¤",
        "º"
      ],
      [
        "æī",
        "ĭ"
      ],
      [
        "çĻ»",
        "åł´"
      ],
      [
        "å¹´",
        "ãģ«"
      ],
      [
        "åı",
        "Ĺ"
      ],
      [
        "çļĦ",
        "ãģ«"
      ],
      [
        "è¨",
        "Ī"
      ],
      [
        "åĳ",
        "¼"
      ],
      [
        "ç",
        "½"
      ],
      [
        "åĪ",
        "Ĺ"
      ],
      [
        "ç®",
        "Ĺ"
      ],
      [
        "ç",
        "İ"
      ],
      [
        "é¡",
        "ŀ"
      ],
      [
        "æ¥",
        "Ń"
      ],
      [
        "ãĥ¼ãĥ",
        "Ī"
      ],
      [
        "r",
        "i"
      ],
      [
        "æĿ",
        "±"
      ],
      [
        "ãĢģ",
        "ãĢĮ"
      ],
      [
        "ãģ®å",
        "¤"
      ],
      [
        "åĲ",
        "į"
      ],
      [
        "å",
        "£"
      ],
      [
        "éĩ",
        "į"
      ],
      [
        "ãĤ",
        "»"
      ],
      [
        "ãĥ",
        "Ŀ"
      ],
      [
        "ãģ¨",
        "ãģ¯"
      ],
      [
        "ãģķãĤĮ",
        "ãģ¦ãģĦãĤĭ"
      ],
      [
        "ãģ«ãģ¤",
        "ãģĦãģ¦"
      ],
      [
        "åĪ",
        "©"
      ],
      [
        "ãĥ",
        "Ĭ"
      ],
      [
        "çķ",
        "Į"
      ],
      [
        "æķ",
        "Ļ"
      ],
      [
        "ãĤ",
        "§"
      ],
      [
        "ãģ¨",
        "ãģį"
      ],
      [
        "ãĤ¿",
        "ãĥ¼"
      ],
      [
        "ãģ«ãģĬ",
        "ãģĦãģ¦"
      ],
      [
        "ç¬",
        "¬"
      ],
      [
        "ãĤ",
        "²"
      ],
      [
        "ãĥ",
        "¢"
      ],
      [
        "ãĤĴæ",
        "Į"
      ],
      [
        "æ²",
        "»"
      ],
      [
        "æĿ",
        "¡"
      ],
      [
        "ä»",
        "ĸ"
      ],
      [
        "}",
        "{"
      ],
      [
        "ä¸",
        "į"
      ],
      [
        "åĨ",
        "ħ"
      ],
      [
        "m",
        "a"
      ],
      [
        "åŃ",
        "Ĺ"
      ],
      [
        "éĿ",
        "¢"
      ],
      [
        "ãģ¦ãģĦ",
        "ãģŁ"
      ],
      [
        "ãģ§",
        "ãģĤãĤĬ"
      ],
      [
        "æĸ",
        "°"
      ],
      [
        "æ°",
        "ĳ"
      ],
      [
        "åı",
        "ĸ"
      ],
      [
        "ãģĿ",
        "ãģ®å"
      ],
      [
        "æľ",
        "ī"
      ],
      [
        "å°",
        "ı"
      ],
      [
        "ç·",
        "ļ"
      ],
      [
        "å¤",
        "ĸ"
      ],
      [
        "å¿",
        "ħ"
      ],
      [
        "ç´",
        "°"
      ],
      [
        "å",
        "ŀ"
      ],
      [
        "ãģ«",
        "å¯¾"
      ],
      [
        "æ¥",
        "½"
      ],
      [
        "ä¿",
        "Ŀ"
      ],
      [
        "ãģĹ",
        "ãģĭ"
      ],
      [
        "åĪ",
        "¶"
      ],
      [
        "l",
        "e"
      ],
      [
        "æ",
        "¯"
      ],
      [
        "o",
        "n"
      ],
      [
        "æ",
        "¶"
      ],
      [
        "å½",
        "ĵ"
      ],
      [
        "æŃ",
        "£"
      ],
      [
        "åĬ",
        "ł"
      ],
      [
        "ãģ«ãĤĪ",
        "ãĤĭ"
      ],
      [
        "ãģ",
        "¸"
      ],
      [
        "ãģ¾",
        "ãģ§"
      ],
      [
        "ãģĪ",
        "ãģ°"
      ],
      [
        "åŁ",
        "º"
      ],
      [
        "ãģĬ",
        "ãĤĬ"
      ],
      [
        "ç¨",
        "ĭ"
      ],
      [
        "è",
        "¼"
      ],
      [
        "ãģĻãĤĭ",
        "ãģĵãģ¨"
      ],
      [
        "çŃ",
        "ī"
      ],
      [
        "å°ĳ",
        "å¥³"
      ],
      [
        "ãĥ",
        "ļ"
      ],
      [
        "éĻ",
        "Ĳ"
      ],
      [
        "£",
        "ģ"
      ],
      [
        "æ",
        "§ĭ"
      ],
      [
        "m",
        "e"
      ],
      [
        "t",
        "i"
      ],
      [
        "è",
        "¾"
      ],
      [
        "ãģ¨",
        "åĳ¼"
      ],
      [
        "20",
        "0"
      ],
      [
        "ï¼ī",
        "ãĢĤ"
      ],
      [
        "ãĢı",
        "ï¼Ī"
      ],
      [
        "æĺ",
        "ł"
      ],
      [
        "ãĤ",
        "¬"
      ],
      [
        "ãĥ",
        "Ģ"
      ],
      [
        "åĮ",
        "»"
      ],
      [
        "è©",
        "¦"
      ],
      [
        "åŀ",
        "ĭ"
      ],
      [
        "ãĥ³ãĥ",
        "ī"
      ],
      [
        "åį",
        "ĺ"
      ],
      [
        "¢",
        "º"
      ],
      [
        "ãĤ",
        "±"
      ],
      [
        "åħ",
        "ĥ"
      ],
      [
        "ãģ«ãģª",
        "ãĤĭ"
      ],
      [
        "è",
        "±"
      ],
      [
        "åħ",
        "¬"
      ],
      [
        "Ĵ",
        "Į"
      ],
      [
        "ãģ¨",
        "ãģĻãĤĭ"
      ],
      [
        "ä¼",
        "Ŀ"
      ],
      [
        "èĳĹä½ľ",
        "æ¨©"
      ],
      [
        "ãĥ",
        "ı"
      ],
      [
        "åı",
        "·"
      ],
      [
        "æī",
        "Ģ"
      ],
      [
        "ãĢ",
        "ħ"
      ],
      [
        "è",
        "ī"
      ],
      [
        "ãĥ¼",
        "ãĤ¹"
      ],
      [
        "ãĥ",
        "ľ"
      ],
      [
        "åĵ",
        "ģ"
      ],
      [
        "ç",
        "¢º"
      ],
      [
        "åĪ",
        "Ŀ"
      ],
      [
        "åŃĺ",
        "åľ¨"
      ],
      [
        "æ",
        "ħ"
      ],
      [
        "ç",
        "£ģ"
      ],
      [
        "â",
        "Ģ"
      ],
      [
        "åĪ",
        "¥"
      ],
      [
        "ãĤ·",
        "ãĥ§"
      ],
      [
        "æ",
        "®"
      ],
      [
        "ãģª",
        "ãĤĭ"
      ],
      [
        "å",
        "Ĥ"
      ],
      [
        "çĽ",
        "¸"
      ],
      [
        "éļ",
        "Ľ"
      ],
      [
        "ãģ¨",
        "ãĤĤ"
      ],
      [
        "§",
        "ĺ"
      ],
      [
        "ä¾",
        "¡"
      ],
      [
        "è¿",
        "°"
      ],
      [
        "ãģ¨ãģª",
        "ãĤĭ"
      ],
      [
        "è±",
        "¡"
      ],
      [
        "²",
        "åŃ¦"
      ],
      [
        "æµ",
        "ģ"
      ],
      [
        "ãģĤ",
        "ãģ£ãģŁ"
      ],
      [
        "ãĤ",
        "Ģ"
      ],
      [
        "å¾",
        "Ĺ"
      ],
      [
        "19",
        "7"
      ],
      [
        "ç",
        "ľ"
      ],
      [
        "ãģ®å",
        "Ī"
      ],
      [
        "åı",
        "¯"
      ],
      [
        "ç½",
        "®"
      ],
      [
        "æĪ",
        "¦"
      ],
      [
        "äº",
        "Į"
      ],
      [
        "æŀ",
        "ľ"
      ],
      [
        "å°",
        "İ"
      ],
      [
        "ãĤı",
        "ãĤĮ"
      ],
      [
        "èª",
        "Į"
      ],
      [
        "å",
        "ĥ"
      ],
      [
        "ãģĮ",
        "çĻ»åł´"
      ],
      [
        "ãģĹ",
        "ãģĦ"
      ],
      [
        "è¦",
        "ı"
      ],
      [
        "ç´",
        "Ħ"
      ],
      [
        "åĢ",
        "¤"
      ],
      [
        "ãĥĹãĥŃ",
        "ãĤ°ãĥ©"
      ],
      [
        "ãĤ",
        "ĩ"
      ],
      [
        "t",
        "a"
      ],
      [
        "å",
        "ģ"
      ],
      [
        "å¿",
        "ľ"
      ],
      [
        "éĩ",
        "İ"
      ],
      [
        "éĸ¢",
        "æķ°"
      ],
      [
        "éĩ",
        "ĳ"
      ],
      [
        "l",
        "a"
      ],
      [
        "å",
        "¢"
      ],
      [
        "Ġ",
        "1"
      ],
      [
        "ãģ«",
        "ãĤĤ"
      ],
      [
        "ãģ®å",
        "®"
      ],
      [
        "èµ",
        "·"
      ],
      [
        "è¿",
        "ĳ"
      ],
      [
        "å",
        "ĴĮ"
      ],
      [
        "æ",
        "§ĺ"
      ],
      [
        "ãģ",
        "Ĵ"
      ],
      [
        "ãĥ³",
        "ãĥĪ"
      ],
      [
        "ãģĵãģ¨",
        "ãĤĴ"
      ],
      [
        "æĿ",
        "¥"
      ],
      [
        "èĪ",
        "¬"
      ],
      [
        "åĽ",
        "ŀ"
      ],
      [
        "ä»",
        "ĺ"
      ],
      [
        "åħ",
        "±"
      ],
      [
        "çİ",
        "ĩ"
      ],
      [
        "ãĥ",
        "Ħ"
      ],
      [
        "è¨",
        "Ń"
      ],
      [
        "åı",
        "į"
      ],
      [
        "ãĥ¼",
        "ãĤ¸"
      ],
      [
        "èĢĥ",
        "ãģĪ"
      ],
      [
        "ãģ®å",
        "ħ"
      ],
      [
        "ãĥĩ",
        "ãĤ£"
      ],
      [
        "ãĤ²",
        "ãĥ¼ãĥł"
      ],
      [
        "c",
        "h"
      ],
      [
        "ä¸Ģ",
        "èĪ¬"
      ],
      [
        "ãĥķãĤ",
        "¡"
      ],
      [
        "çĦ",
        "¡"
      ],
      [
        "ãģ¾",
        "ãĤĬ"
      ],
      [
        "èĥ",
        "ŀ"
      ],
      [
        "ãģ",
        "¶"
      ],
      [
        "çµ",
        "Ħ"
      ],
      [
        "ä",
        "¹"
      ],
      [
        "ãģª",
        "ãĤī"
      ],
      [
        "å¹´",
        "ãģ«ãģ¯"
      ],
      [
        "ç",
        "¥"
      ],
      [
        "çµ",
        "±"
      ],
      [
        "çĽ",
        "´"
      ],
      [
        "ãģ«ãĤĪ",
        "ãĤĬ"
      ],
      [
        "æ°",
        "´"
      ],
      [
        "éĽ»",
        "åŃĲ"
      ],
      [
        "ãģĦ",
        "ãģŁ"
      ],
      [
        "éħ",
        "į"
      ],
      [
        "ç´°",
        "èĥŀ"
      ],
      [
        "ãģĹ",
        "ãģ¾ãģĻ"
      ],
      [
        "éģ",
        "ĵ"
      ],
      [
        "åĳ",
        "³"
      ],
      [
        "ãģĹãģĭ",
        "ãģĹ"
      ],
      [
        "ç",
        "³"
      ],
      [
        "ãĥ¼",
        "ãĤ¿"
      ],
      [
        "æł",
        "¼"
      ],
      [
        "¤",
        "ľ"
      ],
      [
        "éģ",
        "İ"
      ],
      [
        "ç¤¾",
        "ä¼ļ"
      ],
      [
        "å¿ħ",
        "è¦ģ"
      ],
      [
        "ä½¿",
        "çĶ¨"
      ],
      [
        "ç",
        "Ĭ"
      ],
      [
        "è",
        "ĭ"
      ],
      [
        "ãĤ¯",
        "ãĥ©"
      ],
      [
        "åĢ",
        "ĭ"
      ],
      [
        "_",
        "{"
      ],
      [
        "Ġ",
        "x"
      ],
      [
        "çĶ",
        "£"
      ],
      [
        "å¿",
        "ĥ"
      ],
      [
        "å¤ļ",
        "ãģı"
      ],
      [
        "ãĤĴæĮ",
        "ģ"
      ],
      [
        "ãģł",
        "ãģĳ"
      ],
      [
        "æĬ",
        "Ģ"
      ],
      [
        "åī",
        "ĩ"
      ],
      [
        "æ´",
        "»"
      ],
      [
        "ł",
        "´"
      ],
      [
        "å¼",
        "ķ"
      ],
      [
        "éģ",
        "ĭ"
      ],
      [
        "éģ",
        "¸"
      ],
      [
        "æ¸",
        "Ī"
      ],
      [
        "çĶ",
        "±"
      ],
      [
        "æĺł",
        "çĶ»"
      ],
      [
        "ãģ«",
        "éĸ¢"
      ],
      [
        "ï¼ī",
        "ãĢģ"
      ],
      [
        "å¹´",
        "ä»£"
      ],
      [
        "ä¸ĸ",
        "çķĮ"
      ],
      [
        "åĵ",
        "²åŃ¦"
      ],
      [
        "è",
        "į"
      ],
      [
        "ãģ®",
        "ãĤĪãģĨãģ«"
      ],
      [
        "ç",
        "¿"
      ],
      [
        "æĸĩ",
        "åŃĹ"
      ],
      [
        "ç§",
        "°"
      ],
      [
        "ãĤ¢",
        "ãĥ«"
      ],
      [
        "19",
        "8"
      ],
      [
        "20",
        "1"
      ],
      [
        "ç©",
        "į"
      ],
      [
        "ç³",
        "»"
      ],
      [
        "o",
        "r"
      ],
      [
        "æ",
        "ĭ"
      ],
      [
        "ãģ®",
        "ä¸Ń"
      ],
      [
        "è»",
        "į"
      ],
      [
        "ä¸",
        "ī"
      ],
      [
        "çķ",
        "°"
      ],
      [
        "åĲĮ",
        "ãģĺ"
      ],
      [
        "ãĤĩ",
        "ãģĨ"
      ],
      [
        "çµĮ",
        "æ¸Ī"
      ],
      [
        "æł",
        "¡"
      ],
      [
        "åı¯",
        "èĥ½"
      ],
      [
        "ç´",
        "Ģ"
      ],
      [
        "ä¿",
        "Ĥ"
      ],
      [
        "ãĥĶ",
        "ãĤ¢"
      ],
      [
        "ãģĻãĤĭ",
        "ãģ¨"
      ],
      [
        "ãģ®æ",
        "ķ"
      ],
      [
        "ç©",
        "¶"
      ],
      [
        "è",
        "Ĥ"
      ],
      [
        "é",
        "£"
      ],
      [
        "ãĤĤ",
        "ãģĤãĤĭ"
      ],
      [
        "ł",
        "Ķ"
      ],
      [
        "ãĤ·ãĥ§",
        "ãĥ³"
      ],
      [
        "é",
        "¤"
      ],
      [
        "ãģª",
        "ãģĭ"
      ],
      [
        "0",
        "0"
      ],
      [
        "Ġ",
        "A"
      ],
      [
        "æĹ",
        "ı"
      ],
      [
        "è¡",
        "ĵ"
      ],
      [
        "æĥ",
        "ħ"
      ]
    ]
  }
}