{
  "version": "1.0",
  "truncation": null,
  "padding": null,
  "added_tokens": [
    {
      "id": 0,
      "content": "<PAD>",
      "single_word": false,
      "lstrip": false,
      "rstrip": false,
      "normalized": false,
      "special": true
    },
    {
      "id": 1,
      "content": "<BOS>",
      "single_word": false,
      "lstrip": false,
      "rstrip": false,
      "normalized": false,
      "special": true
    },
    {
      "id": 2,
      "content": "<EOS>",
      "single_word": false,
      "lstrip": false,
      "rstrip": false,
      "normalized": false,
      "special": true
    },
    {
      "id": 3,
      "content": "<UNK>",
      "single_word": false,
      "lstrip": false,
      "rstrip": false,
      "normalized": false,
      "special": true
    },
    {
      "id": 4,
      "content": "<USER>",
      "single_word": false,
      "lstrip": false,
      "rstrip": false,
      "normalized": false,
      "special": true
    },
    {
      "id": 5,
      "content": "<ASSISTANT>",
      "single_word": false,
      "lstrip": false,
      "rstrip": false,
      "normalized": false,
      "special": true
    },
    {
      "id": 6,
      "content": "<SYSTEM>",
      "single_word": false,
      "lstrip": false,
      "rstrip": false,
      "normalized": false,
      "special": true
    }
  ],
  "normalizer": null,
  "pre_tokenizer": {
    "type": "ByteLevel",
    "add_prefix_space": false,
    "trim_offsets": true,
    "use_regex": true
  },
  "post_processor": null,
  "decoder": {
    "type": "ByteLevel",
    "add_prefix_space": true,
    "trim_offsets": true,
    "use_regex": true
  },
  "model": {
    "type": "BPE",
    "dropout": null,
    "unk_token": "<UNK>",
    "continuing_subword_prefix": null,
    "end_of_word_suffix": null,
    "fuse_unk": false,
    "byte_fallback": false,
    "ignore_merges": false,
    "vocab": {
      "<PAD>": 0,
      "<BOS>": 1,
      "<EOS>": 2,
      "<UNK>": 3,
      "<USER>": 4,
      "<ASSISTANT>": 5,
      "<SYSTEM>": 6,
      "!": 7,
      "\"": 8,
      "#": 9,
      "$": 10,
      "%": 11,
      "&": 12,
      "'": 13,
      "(": 14,
      ")": 15,
      "*": 16,
      "+": 17,
      ",": 18,
      "-": 19,
      ".": 20,
      "/": 21,
      "0": 22,
      "1": 23,
      "2": 24,
      "3": 25,
      "4": 26,
      "5": 27,
      "6": 28,
      "7": 29,
      "8": 30,
      "9": 31,
      ":": 32,
      ";": 33,
      "<": 34,
      "=": 35,
      ">": 36,
      "?": 37,
      "@": 38,
      "A": 39,
      "B": 40,
      "C": 41,
      "D": 42,
      "E": 43,
      "F": 44,
      "G": 45,
      "H": 46,
      "I": 47,
      "J": 48,
      "K": 49,
      "L": 50,
      "M": 51,
      "N": 52,
      "O": 53,
      "P": 54,
      "Q": 55,
      "R": 56,
      "S": 57,
      "T": 58,
      "U": 59,
      "V": 60,
      "W": 61,
      "X": 62,
      "Y": 63,
      "Z": 64,
      "[": 65,
      "\\": 66,
      "]": 67,
      "^": 68,
      "_": 69,
      "`": 70,
      "a": 71,
      "b": 72,
      "c": 73,
      "d": 74,
      "e": 75,
      "f": 76,
      "g": 77,
      "h": 78,
      "i": 79,
      "j": 80,
      "k": 81,
      "l": 82,
      "m": 83,
      "n": 84,
      "o": 85,
      "p": 86,
      "q": 87,
      "r": 88,
      "s": 89,
      "t": 90,
      "u": 91,
      "v": 92,
      "w": 93,
      "x": 94,
      "y": 95,
      "z": 96,
      "{": 97,
      "|": 98,
      "}": 99,
      "~": 100,
      "¡": 101,
      "¢": 102,
      "£": 103,
      "¤": 104,
      "¥": 105,
      "¦": 106,
      "§": 107,
      "¨": 108,
      "©": 109,
      "ª": 110,
      "«": 111,
      "¬": 112,
      "®": 113,
      "¯": 114,
      "°": 115,
      "±": 116,
      "²": 117,
      "³": 118,
      "´": 119,
      "µ": 120,
      "¶": 121,
      "·": 122,
      "¸": 123,
      "¹": 124,
      "º": 125,
      "»": 126,
      "¼": 127,
      "½": 128,
      "¾": 129,
      "¿": 130,
      "À": 131,
      "Á": 132,
      "Â": 133,
      "Ã": 134,
      "Ä": 135,
      "Å": 136,
      "Æ": 137,
      "Ç": 138,
      "È": 139,
      "É": 140,
      "Ê": 141,
      "Ë": 142,
      "Ì": 143,
      "Í": 144,
      "Î": 145,
      "Ï": 146,
      "Ð": 147,
      "Ñ": 148,
      "Ò": 149,
      "Ó": 150,
      "Ô": 151,
      "Õ": 152,
      "Ö": 153,
      "×": 154,
      "Ø": 155,
      "Ù": 156,
      "Ú": 157,
      "Û": 158,
      "Ü": 159,
      "Ý": 160,
      "Þ": 161,
      "ß": 162,
      "à": 163,
      "á": 164,
      "â": 165,
      "ã": 166,
      "ä": 167,
      "å": 168,
      "æ": 169,
      "ç": 170,
      "è": 171,
      "é": 172,
      "ê": 173,
      "ë": 174,
      "ì": 175,
      "í": 176,
      "î": 177,
      "ï": 178,
      "ð": 179,
      "ñ": 180,
      "ò": 181,
      "ó": 182,
      "ô": 183,
      "õ": 184,
      "ö": 185,
      "÷": 186,
      "ø": 187,
      "ù": 188,
      "ú": 189,
      "û": 190,
      "ü": 191,
      "ý": 192,
      "þ": 193,
      "ÿ": 194,
      "Ā": 195,
      "ā": 196,
      "Ă": 197,
      "ă": 198,
      "Ą": 199,
      "ą": 200,
      "Ć": 201,
      "ć": 202,
      "Ĉ": 203,
      "ĉ": 204,
      "Ċ": 205,
      "ċ": 206,
      "Č": 207,
      "č": 208,
      "Ď": 209,
      "ď": 210,
      "Đ": 211,
      "đ": 212,
      "Ē": 213,
      "ē": 214,
      "Ĕ": 215,
      "ĕ": 216,
      "Ė": 217,
      "ė": 218,
      "Ę": 219,
      "ę": 220,
      "Ě": 221,
      "ě": 222,
      "Ĝ": 223,
      "ĝ": 224,
      "Ğ": 225,
      "ğ": 226,
      "Ġ": 227,
      "ġ": 228,
      "Ģ": 229,
      "ģ": 230,
      "Ĥ": 231,
      "ĥ": 232,
      "Ħ": 233,
      "ħ": 234,
      "Ĩ": 235,
      "ĩ": 236,
      "Ī": 237,
      "ī": 238,
      "Ĭ": 239,
      "ĭ": 240,
      "Į": 241,
      "į": 242,
      "İ": 243,
      "ı": 244,
      "Ĳ": 245,
      "ĳ": 246,
      "Ĵ": 247,
      "ĵ": 248,
      "Ķ": 249,
      "ķ": 250,
      "ĸ": 251,
      "Ĺ": 252,
      "ĺ": 253,
      "Ļ": 254,
      "ļ": 255,
      "Ľ": 256,
      "ľ": 257,
      "Ŀ": 258,
      "ŀ": 259,
      "Ł": 260,
      "ł": 261,
      "Ń": 262,
      "ãģ": 263,
      "ãĤ": 264,
      "ãĥ": 265,
      "ãĢ": 266,
      "ãģ®": 267,
      "ãĢģ": 268,
      "ãĤĭ": 269,
      "ãĢĤ": 270,
      "ãģ«": 271,
      "ãģ¨": 272,
      "ãģ¯": 273,
      "ãģĦ": 274,
      "ãģ§": 275,
      "ãĤĴ": 276,
      "ãģĮ": 277,
      "ãģª": 278,
      "ãģ¦": 279,
      "ãģĹ": 280,
      "ãģŁ": 281,
      "ï¼": 282,
      "ãĤĮ": 283,
      "ä¸": 284,
      "ãģĻ": 285,
      "ãĥ¼": 286,
      "ãģĤ": 287,
      "ãģĵ": 288,
      "ãģĨ": 289,
      "ãģ®å": 290,
      "ãģĭ": 291,
      "ãĥ³": 292,
      "ãĤĤ": 293,
      "ãĤī": 294,
      "åŃ": 295,
      "ä½": 296,
      "ãģ£": 297,
      "ãģ¾": 298,
      "ãĤĬ": 299,
      "èª": 300,
      "æľ": 301,
      "ãģĤãĤĭ": 302,
      "çĶ": 303,
      "åĲ": 304,
      "ãģķ": 305,
      "ï¼Ī": 306,
      "ï¼ī": 307,
      "åĪ": 308,
      "æĸ": 309,
      "å¤": 310,
      "ãĤĪ": 311,
      "äº": 312,
      "ãģĻãĤĭ": 313,
      "ãģĹãģ¦": 314,
      "ãĤ¹": 315,
      "ä»": 316,
      "ãĢį": 317,
      "ãĢĮ": 318,
      "å®": 319,
      "ãģı": 320,
      "ãĥ«": 321,
      "å¹": 322,
      "ãĤ¢": 323,
      "è¨": 324,
      "åı": 325,
      "ãĥĪ": 326,
      "ãģį": 327,
      "èªŀ": 328,
      "ãĥ»": 329,
      "åħ": 330,
      "ãģ®æ": 331,
      "ãĤ¤": 332,
      "åĽ": 333,
      "è¡": 334,
      "ãģĦãĤĭ": 335,
      "ãĥª": 336,
      "ãģ§ãģĤãĤĭ": 337,
      "ãģĵãģ¨": 338,
      "ãģķãĤĮ": 339,
      "å¹´": 340,
      "åŃ¦": 341,
      "ãģ¤": 342,
      "ãģ©": 343,
      "ãĥ©": 344,
      "ãģĿ": 345,
      "éĸ": 346,
      "çī": 347,
      "éĢ": 348,
      "è¦": 349,
      "ãģ£ãģ¦": 350,
      "çµ": 351,
      "æķ": 352,
      "ãĥ¼ãĥ": 353,
      "ãĤ¯": 354,
      "ãģĪ": 355,
      "ç´": 356,
      "çļ": 357,
      "ãģĹãģŁ": 358,
      "ãĤĦ": 359,
      "ãģ¨ãģĦ": 360,
      "éģ": 361,
      "æĹ": 362,
      "å½": 363,
      "ãģ§ãģ¯": 364,
      "çļĦ": 365,
      "ãģ£ãģŁ": 366,
      "ãģĳ": 367,
      "åĮ": 368,
      "ãĤģ": 369,
      "ãģĬ": 370,
      "ãģĭãĤī": 371,
      "è©": 372,
      "çĽ": 373,
      "åĪĨ": 374,
      "ãĤı": 375,
      "å¾": 376,
      "åĽ½": 377,
      "ãĤĴæ": 378,
      "æĸĩ": 379,
      "ãĤĵ": 380,
      "åĳ": 381,
      "äºº": 382,
      "å¼": 383,
      "ãģªãģĦ": 384,
      "ãģ¨ãģĦãģĨ": 385,
      "ä¼": 386,
      "ãģªãģ©": 387,
      "èĢ": 388,
      "ãĥĥ": 389,
      "çĶ¨": 390,
      "åĲĪ": 391,
      "ä¸Ģ": 392,
      "ä½ľ": 393,
      "æľ¬": 394,
      "åľ": 395,
      "æĹ¥": 396,
      "ãģł": 397,
      "ãĤĪãģĨ": 398,
      "çī©": 399,
      "ãĤ¿": 400,
      "ãģ®ç": 401,
      "åĭ": 402,
      "ãĤ·": 403,
      "ãģ«ãģ¯": 404,
      "å¤§": 405,
      "æĿ": 406,
      "ãĥ³ãĥ": 407,
      "éĽ": 408,
      "çĶŁ": 409,
      "åį": 410,
      "åº": 411,
      "é¡": 412,
      "ãģ°": 413,
      "æĪ": 414,
      "æķ°": 415,
      "æĸ¹": 416,
      "è¨Ģ": 417,
      "åĬ": 418,
      "å°": 419,
      "ä½ĵ": 420,
      "éŁ": 421,
      "ä¸Ń": 422,
      "ãģ«ãĤĪ": 423,
      "å¿": 424,
      "ãģ®è": 425,
      "æ³": 426,
      "éĩ": 427,
      "éĥ": 428,
      "ãĤīãĤĮ": 429,
      "ãģ¾ãģĻ": 430,
      "æĻ": 431,
      "ç§": 432,
      "ãģ¨ãģĹãģ¦": 433,
      "ãĥŃ": 434,
      "èĥ": 435,
      "åī": 436,
      "ä¾": 437,
      "å¯": 438,
      "ãĤ«": 439,
      "æ°": 440,
      "ł´": 441,
      "ãģĦãģ¦": 442,
      "åĩ": 443,
      "åĭķ": 444,
      "åĮĸ": 445,
      "çĲ": 446,
      "çĻ": 447,
      "ä»£": 448,
      "ãĥ¬": 449,
      "è¡Į": 450,
      "æĺ": 451,
      "æ¨": 452,
      "å½¢": 453,
      "æĢ": 454,
      "è¡¨": 455,
      "æī": 456,
      "ãĤ°": 457,
      "ãģªãĤĭ": 458,
      "åŃĲ": 459,
      "èĢħ": 460,
      "å®ļ": 461,
      "ä¿": 462,
      "åĩº": 463,
      "éŁ³": 464,
      "æĦ": 465,
      "ãģ¦ãģĦãĤĭ": 466,
      "æŃ": 467,
      "ä¸Ĭ": 468,
      "ãĥķ": 469,
      "è©ŀ": 470,
      "ãĥĨ": 471,
      "ãĤ¸": 472,
      "ãĥĹ": 473,
      "è§": 474,
      "æĽ": 475,
      "çĲĨ": 476,
      "ãģĽ": 477,
      "çķ": 478,
      "ãĤ³": 479,
      "ãģ¿": 480,
      "ãģĤãĤĬ": 481,
      "ç«": 482,
      "å¸": 483,
      "æĻĤ": 484,
      "éĥ¨": 485,
      "åķ": 486,
      "èĩ": 487,
      "ãĤĤãģ®": 488,
      "ãģĺ": 489,
      "æ³ķ": 490,
      "19": 491,
      "èĳ": 492,
      "å±": 493,
      "ãģ¡": 494,
      "åĲĮ": 495,
      "çĤ": 496,
      "è³": 497,
      "çŃ": 498,
      "åł´": 499,
      "ãģ¾ãģŁ": 500,
      "ãĤĪãģĨãģ«": 501,
      "ãĤª": 502,
      "ı¾": 503,
      "20": 504,
      "åĨ": 505,
      "éĻ": 506,
      "ç¤": 507,
      "ç·": 508,
      "éĸĵ": 509,
      "éł": 510,
      "ãģŁãĤģ": 511,
      "éĸ¢": 512,
      "ãģĵãģ®": 513,
      "æł": 514,
      "å¯¾": 515,
      "ãĤ£": 516,
      "æĶ": 517,
      "ä¼ļ": 518,
      "æĦı": 519,
      "çı¾": 520,
      "ãĥł": 521,
      "æĪĲ": 522,
      "æ¥": 523,
      "åķı": 524,
      "æĹ¥æľ¬": 525,
      "ãĥī": 526,
      "è¿": 527,
      "æĢ§": 528,
      "é¡Į": 529,
      "ãģĦãģŁ": 530,
      "ãģķãĤĮãĤĭ": 531,
      "çĻº": 532,
      "æ¨©": 533,
      "éĿ": 534,
      "ä¸»": 535,
      "è²": 536,
      "in": 537,
      "æ¸": 538,
      "Ĺä½ľ": 539,
      "ãģĵãĤĮ": 540,
      "ãĤ¦": 541,
      "è«": 542,
      "è¦ģ": 543,
      "ãģĵãģ¨ãģĮ": 544,
      "ãģļ": 545,
      "èĩª": 546,
      "åĳ³": 547,
      "ãĥŀ": 548,
      "å¤ļ": 549,
      "åĢ": 550,
      "è¨ĺ": 551,
      "å·": 552,
      "er": 553,
      "çĤ¹": 554,
      "å¾Į": 555,
      "åº¦": 556,
      "ä¸ĸ": 557,
      "å¼ı": 558,
      "åŁ": 559,
      "ãģ§ãģį": 560,
      "ãĢİ": 561,
      "ãĢı": 562,
      "çŁ": 563,
      "ç¨": 564,
      "åĲį": 565,
      "åĵ": 566,
      "èŃ": 567,
      "ãģĿãģ®": 568,
      "ãģĹãģ¦ãģĦãĤĭ": 569,
      "ãģķãĤĮãģŁ": 570,
      "åİ": 571,
      "ãĤ¹ãĥĪ": 572,
      "ãĥ¡": 573,
      "ä»¥": 574,
      "ãĥ£": 575,
      "ç¾": 576,
      "ãģĿãĤĮ": 577,
      "åľ°": 578,
      "å®Ł": 579,
      "ç¶": 580,
      "ãģ§ãģĻ": 581,
      "ãĥĩ": 582,
      "ãĥ¥": 583,
      "§ĭ": 584,
      "åħ¥": 585,
      "ãĤĮãĤĭ": 586,
      "ãĢģãĢĮ": 587,
      "è»": 588,
      "çµĮ": 589,
      "è¦ĭ": 590,
      "é«": 591,
      "æ´": 592,
      "æľĪ": 593,
      "ãģĮãģĤãĤĭ": 594,
      "ãĥĲ": 595,
      "æĬ": 596,
      "ä½¿": 597,
      "en": 598,
      "çļĦãģª": 599,
      "è¨Ģèªŀ": 600,
      "ç´°": 601,
      "ãĤ¨": 602,
      "ç«ĭ": 603,
      "æĽ¸": 604,
      "ä¾ĭ": 605,
      "éĢļ": 606,
      "çĽ®": 607,
      "æľŁ": 608,
      "é«ĺ": 609,
      "ãĤį": 610,
      "åīį": 611,
      "èĳĹä½ľ": 612,
      "åľ¨": 613,
      "ãĥģ": 614,
      "äºĭ": 615,
      "éļ": 616,
      "ç©": 617,
      "ãģ«ãĤĪãģ£ãģ¦": 618,
      "è³ª": 619,
      "æ¬": 620,
      "æĺİ": 621,
      "th": 622,
      "åĬĽ": 623,
      "ãĥĭ": 624,
      "è«ĸ": 625,
      "æľĢ": 626,
      "ç¬": 627,
      "èĥŀ": 628,
      "an": 629,
      "ãĤµ": 630,
      "ķ·": 631,
      "ãģ£ãģ¦ãģĦãĤĭ": 632,
      "éķ·": 633,
      "ç§ĳ": 634,
      "Ġ\\": 635,
      "ãĥĸ": 636,
      "çī¹": 637,
      "åĳ¼": 638,
      "åŃĹ": 639,
      "æĦıåĳ³": 640,
      "è§£": 641,
      "çĦ": 642,
      "æİ": 643,
      "ãģ»": 644,
      "ç´°èĥŀ": 645,
      "ãĥİ": 646,
      "èĪ": 647,
      "ä¸ĭ": 648,
      "çµĲ": 649,
      "ãĥŁ": 650,
      "ç¾©": 651,
      "ãģªãĤĬ": 652,
      "å¥": 653,
      "ãĤŃ": 654,
      "ãģ«ãģĬ": 655,
      "ãĤīãĤĮãĤĭ": 656,
      "æĮ": 657,
      "ãģ³": 658,
      "æķĻ": 659,
      "åħ¨": 660,
      "éĽ»": 661,
      "æ¥Ń": 662,
      "æ±": 663,
      "00": 664,
      "ä½į": 665,
      "Ġ(": 666,
      "éĢ£": 667,
      "ãģ®ãģ§": 668,
      "ãģĪãĤĭ": 669,
      "æ°ĳ": 670,
      "ãĥĬ": 671,
      "èµ": 672,
      "æ²": 673,
      "ãĤĪãģĨãģª": 674,
      "èĢĥ": 675,
      "ãģ«ãģ¤": 676,
      "å¤ī": 677,
      "å¤ĸ": 678,
      "ç·ļ": 679,
      "è£": 680,
      "ãĤº": 681,
      "ãģ§ãĤĤ": 682,
      "èĥ½": 683,
      "æīĭ": 684,
      "ãģ§ãģĤãĤĬ": 685,
      "ãģªãģ£ãģŁ": 686,
      "æµ": 687,
      "ãģªãģı": 688,
      "åŃĺ": 689,
      "çŁ¥": 690,
      "ãĤ½": 691,
      "é¨": 692,
      "ãĥ¼ãĥ«": 693,
      "åł´åĲĪ": 694,
      "on": 695,
      "å®¶": 696,
      "æ¯": 697,
      "åıĹ": 698,
      "ãĥĳ": 699,
      "æ¬¡": 700,
      "ãĥ¼ãĥī": 701,
      "ç¤¾": 702,
      "æĿ±": 703,
      "è¾": 704,
      "ãĤ¤ãĥ": 705,
      "çĽ¸": 706,
      "ãģ¨ãģ¯": 707,
      "åĨħ": 708,
      "é¡ŀ": 709,
      "æĶ¿": 710,
      "çļĦãģ«": 711,
      "çŃī": 712,
      "ãģ®å¤": 713,
      "éħ": 714,
      "ãĢįãĢĮ": 715,
      "é¨ĵ": 716,
      "ãģ¹": 717,
      "ãģ¨åĳ¼": 718,
      "ãģĳãĤĭ": 719,
      "æ¼": 720,
      "ãĥ³ãĤ°": 721,
      "åİŁ": 722,
      "ç¬¬": 723,
      "at": 724,
      "èĭ": 725,
      "éĸĭ": 726,
      "æŀ": 727,
      "åķıé¡Į": 728,
      "re": 729,
      "ç¶ļ": 730,
      "ç½": 731,
      "ãĤ»": 732,
      "ãģ«ãģ¤ãģĦãģ¦": 733,
      "éĿ¢": 734,
      "æĿ¥": 735,
      "is": 736,
      "æº": 737,
      "ãģ¸": 738,
      "ç®": 739,
      "çķĮ": 740,
      "å¹³": 741,
      "ä¼Ŀ": 742,
      "Ġa": 743,
      "ãĤĴæĮ": 744,
      "è§Ĵ": 745,
      "le": 746,
      "å£": 747,
      "èī": 748,
      "ãĥĥãĤ¯": 749,
      "ä»ĸ": 750,
      "çİ": 751,
      "ãĤĩ": 752,
      "ãģĹãģĦ": 753,
      "åŀ": 754,
      "ãģ¶": 755,
      "ãĥ¼ãĥł": 756,
      "ãģĹãģĭ": 757,
      "çĽ´": 758,
      "ãģ§ãģįãĤĭ": 759,
      "ç³": 760,
      "æ¶": 761,
      "ãģ¾ãģ§": 762,
      "ãĤ¿ãĥ¼": 763,
      "ãĥĶ": 764,
      "ãģ¨ãģį": 765,
      "æĭ": 766,
      "åĪ©": 767,
      "å¿ħ": 768,
      "ãģĵãģ¨ãĤĴ": 769,
      "èª¬": 770,
      "ãģĪãģ°": 771,
      "ãĤ§": 772,
      "ãģ«ãģªãĤĭ": 773,
      "ç½®": 774,
      "ãĥı": 775,
      "æ®": 776,
      "ç´ł": 777,
      "ch": 778,
      "ãĥĻ": 779,
      "æľī": 780,
      "ĴĮ": 781,
      "ãĤĪãĤĬ": 782,
      "åįĺ": 783,
      "Ġ-": 784,
      "äºĮ": 785,
      "ãģĬãĤĬ": 786,
      "©Ł": 787,
      "ç¥": 788,
      "ãĥĹãĥŃ": 789,
      "ãĤĮãģ°": 790,
      "çĶ»": 791,
      "éĩį": 792,
      "ï¼īãĢĤ": 793,
      "æŃ£": 794,
      "å®¹": 795,
      "ãģ«å¯¾": 796,
      "ãĥĥãĥĪ": 797,
      "ä¿Ŀ": 798,
      "ãĤ²": 799,
      "ãģ®ãĤĪãģĨãģ«": 800,
      "æı": 801,
      "åĪ¶": 802,
      "ãģķãĤĮãģ¦ãģĦãĤĭ": 803,
      "ç³»": 804,
      "ãĤ¤ãĥ³": 805,
      "ãĥĵ": 806,
      "ç¨ĭ": 807,
      "âĢ": 808,
      "æħ": 809,
      "ãĥªãĤ¢": 810,
      "åĬł": 811,
      "åŁº": 812,
      "ä¸į": 813,
      "ãģ¨ãģĦãģĨæĦıåĳ³": 814,
      "ç´Ħ": 815,
      "ãĥĢ": 816,
      "åĲĳ": 817,
      "åĪ¥": 818,
      "çľ": 819,
      "å½ĵ": 820,
      "ãĥ¼ãĥĪ": 821,
      "èĭ±": 822,
      "ãĥļ": 823,
      "æĿ¡": 824,
      "åģ": 825,
      "åĴĮ": 826,
      "al": 827,
      "æĸ°": 828,
      "æ¤": 829,
      "Ġ=": 830,
      "ãĤ®": 831,
      "åĮ»": 832,
      "è»į": 833,
      "è¨Ī": 834,
      "ãģ«ãĤĪãĤĭ": 835,
      "æĥ": 836,
      "è¼": 837,
      "ãĥį": 838,
      "åŀĭ": 839,
      "ãģªãĤī": 840,
      "çĶŁçī©": 841,
      "å°ı": 842,
      "ãĤ°ãĥ©": 843,
      "é£": 844,
      "ãĤĢ": 845,
      "§ĺ": 846,
      "åħ¬": 847,
      "ãģĤãģ£ãģŁ": 848,
      "æĪ¦": 849,
      "å¿ľ": 850,
      "ç¢": 851,
      "ãģĦãģ¾ãģĻ": 852,
      "åıĸ": 853,
      "çĶ£": 854,
      "ãģ¨ãĤĤ": 855,
      "æ©Ł": 856,
      "ãģ«ãģĬãģĦãģ¦": 857,
      "ãģĴ": 858,
      "ãĢħ": 859,
      "ãĤıãĤĮ": 860,
      "ãģĿãģ®å": 861,
      "åħ±": 862,
      "ãĤĩãģĨ": 863,
      "çµĦ": 864,
      "æ§ĭ": 865,
      "æ¸Ī": 866,
      "ç¤º": 867,
      "ãģ«ãĤĤ": 868,
      "è©¦": 869,
      "ãĥ§": 870,
      "or": 871,
      "ãģ¨ãģĻãĤĭ": 872,
      "çµ±": 873,
      "æĻĤä»£": 874,
      "ãĥ¢": 875,
      "æ°Ĺ": 876,
      "è¿°": 877,
      "éģİ": 878,
      "ar": 879,
      "ãģ®åĲ": 880,
      "èĳĹä½ľæ¨©": 881,
      "ä¾¡": 882,
      "å¢": 883,
      "æīĢ": 884,
      "çµĮæ¸Ī": 885,
      "éĽĨ": 886,
      "10": 887,
      "es": 888,
      "è¿ĳ": 889,
      "ä¹": 890,
      "éļĽ": 891,
      "åĤ": 892,
      "ãģ®ä¸Ń": 893,
      "æ´»": 894,
      "åŃĺåľ¨": 895,
      "ç¯": 896,
      "åĪĿ": 897,
      "å¾Ĺ": 898,
      "èĪ¬": 899,
      "ãĥĿ": 900,
      "éĩı": 901,
      "æł¼": 902,
      "æ§ĺ": 903,
      "ç¢º": 904,
      "å¤ļãģı": 905,
      "ãģ¾ãĤĬ": 906,
      "ç´Ģ": 907,
      "ç§°": 908,
      "om": 909,
      "åĭķè©ŀ": 910,
      "Ġb": 911,
      "Ġs": 912,
      "łĶ": 913,
      "ä¸ĢèĪ¬": 914,
      "ãģłãģĳ": 915,
      "ç©¶": 916,
      "ou": 917,
      "ä¿Ĥ": 918,
      "è©±": 919,
      "è±": 920,
      "ãģ¨ãģªãĤĭ": 921,
      "æĸĩåŃĹ": 922,
      "Ġãģ¯": 923,
      "ãĤ±": 924,
      "æ°´": 925,
      "æĹ¥æľ¬èªŀ": 926,
      "å¿ĥ": 927,
      "ä¸ī": 928,
      "åıį": 929,
      "Ĭ¶": 930,
      "åħĥ": 931,
      "åĵģ": 932,
      "å¸¸": 933,
      "å¿ħè¦ģ": 934,
      "ä¸ĸçķĮ": 935,
      "²åŃ¦": 936,
      "å¹´ãģ«": 937,
      "ãĥ³ãĥĪ": 938,
      "çĦ¡": 939,
      "ãĤĴæĮģ": 940,
      "ãģĶ": 941,
      "ï¼īãĢģ": 942,
      "ãģĹãģĭãģĹ": 943,
      "ãģ®åĪ": 944,
      "ãģ«ãĤĪãĤĬ": 945,
      "ãģ²": 946,
      "æł¡": 947,
      "ãĤĤãģĤãĤĭ": 948,
      "è¦ı": 949,
      "éĩĳ": 950,
      "åĽŀ": 951,
      "ãĥ³ãĥī": 952,
      "åĲĮãģĺ": 953,
      "æ²»": 954,
      "åĮĹ": 955,
      "łĶç©¶": 956,
      "éģ¸": 957,
      "å¼·": 958,
      "éĻĲ": 959,
      "ãģĻãĤĭãģĵãģ¨": 960,
      "ç®Ĺ": 961,
      "ãģķãĤĮãģ¦": 962,
      "èĦ": 963,
      "Ġãģ®": 964,
      "ãĥªãĥ¼": 965,
      "ç¥ŀ": 966,
      "åŁŁ": 967,
      "ç¤¾ä¼ļ": 968,
      "ç¿": 969,
      "ãĤģãĤĭ": 970,
      "çİĩ": 971,
      "200": 972,
      "åı¤": 973,
      "ãĤ¬": 974,
      "åĽ³": 975,
      "èī²": 976,
      "ä»ĺ": 977,
      "åı·": 978,
      "åı¯": 979,
      "èµ·": 980,
      "åł": 981,
      "ãĤ¯ãĥ©": 982,
      "æŀľ": 983,
      "Ġ1": 984,
      "éĢł": 985,
      "äº¤": 986,
      "çķ°": 987,
      "ãĢģ'": 988,
      "ãģ«éĸ¢": 989,
      "Ġt": 990,
      "ãģ®åħ": 991,
      "éħį": 992,
      "ç¨®": 993,
      "èģ": 994,
      "éĢ²": 995,
      "ãĤªãĥ¼": 996,
      "ic": 997,
      "ãģ®æķ": 998,
      "èĤ": 999,
      "Ġth": 1000,
      "è±¡": 1001,
      "ãĥľ": 1002,
      "çĶ±": 1003,
      "ãĥķãĤ": 1004,
      "ãģ®å®": 1005,
      "ãĤ¢ãĥ«": 1006,
      "Ġï¼Ī": 1007,
      "éģĭ": 1008,
      "çµĤ": 1009,
      "ãĥĶãĤ¢": 1010,
      "ãĤ²ãĥ¼ãĥł": 1011,
      "éģĵ": 1012,
      "åĢĭ": 1013,
      "æħĭ": 1014,
      "ãģĭãģ£ãģŁ": 1015,
      "èĢĥãģĪ": 1016,
      "ãģķãģĽ": 1017,
      "ãģŁãģ¨": 1018,
      "18": 1019,
      "ãģŀ": 1020,
      "å¤§ãģį": 1021,
      "åįĬ": 1022,
      "å·¥": 1023
    },
    "merges": [
      [
        "ã",
        "ģ"
      ],
      [
        "ã",
        "Ĥ"
      ],
      [
        "ã",
        "ĥ"
      ],
      [
        "ã",
        "Ģ"
      ],
      [
        "ãģ",
        "®"
      ],
      [
        "ãĢ",
        "ģ"
      ],
      [
        "ãĤ",
        "ĭ"
      ],
      [
        "ãĢ",
        "Ĥ"
      ],
      [
        "ãģ",
        "«"
      ],
      [
        "ãģ",
        "¨"
      ],
      [
        "ãģ",
        "¯"
      ],
      [
        "ãģ",
        "Ħ"
      ],
      [
        "ãģ",
        "§"
      ],
      [
        "ãĤ",
        "Ĵ"
      ],
      [
        "ãģ",
        "Į"
      ],
      [
        "ãģ",
        "ª"
      ],
      [
        "ãģ",
        "¦"
      ],
      [
        "ãģ",
        "Ĺ"
      ],
      [
        "ãģ",
        "Ł"
      ],
      [
        "ï",
        "¼"
      ],
      [
        "ãĤ",
        "Į"
      ],
      [
        "ä",
        "¸"
      ],
      [
        "ãģ",
        "Ļ"
      ],
      [
        "ãĥ",
        "¼"
      ],
      [
        "ãģ",
        "Ĥ"
      ],
      [
        "ãģ",
        "ĵ"
      ],
      [
        "ãģ",
        "Ĩ"
      ],
      [
        "ãģ®",
        "å"
      ],
      [
        "ãģ",
        "ĭ"
      ],
      [
        "ãĥ",
        "³"
      ],
      [
        "ãĤ",
        "Ĥ"
      ],
      [
        "ãĤ",
        "ī"
      ],
      [
        "å",
        "Ń"
      ],
      [
        "ä",
        "½"
      ],
      [
        "ãģ",
        "£"
      ],
      [
        "ãģ",
        "¾"
      ],
      [
        "ãĤ",
        "Ĭ"
      ],
      [
        "è",
        "ª"
      ],
      [
        "æ",
        "ľ"
      ],
      [
        "ãģĤ",
        "ãĤĭ"
      ],
      [
        "ç",
        "Ķ"
      ],
      [
        "å",
        "Ĳ"
      ],
      [
        "ãģ",
        "ķ"
      ],
      [
        "ï¼",
        "Ī"
      ],
      [
        "ï¼",
        "ī"
      ],
      [
        "å",
        "Ī"
      ],
      [
        "æ",
        "ĸ"
      ],
      [
        "å",
        "¤"
      ],
      [
        "ãĤ",
        "Ī"
      ],
      [
        "ä",
        "º"
      ],
      [
        "ãģĻ",
        "ãĤĭ"
      ],
      [
        "ãģĹ",
        "ãģ¦"
      ],
      [
        "ãĤ",
        "¹"
      ],
      [
        "ä",
        "»"
      ],
      [
        "ãĢ",
        "į"
      ],
      [
        "ãĢ",
        "Į"
      ],
      [
        "å",
        "®"
      ],
      [
        "ãģ",
        "ı"
      ],
      [
        "ãĥ",
        "«"
      ],
      [
        "å",
        "¹"
      ],
      [
        "ãĤ",
        "¢"
      ],
      [
        "è",
        "¨"
      ],
      [
        "å",
        "ı"
      ],
      [
        "ãĥ",
        "Ī"
      ],
      [
        "ãģ",
        "į"
      ],
      [
        "èª",
        "ŀ"
      ],
      [
        "ãĥ",
        "»"
      ],
      [
        "å",
        "ħ"
      ],
      [
        "ãģ®",
        "æ"
      ],
      [
        "ãĤ",
        "¤"
      ],
      [
        "å",
        "Ľ"
      ],
      [
        "è",
        "¡"
      ],
      [
        "ãģĦ",
        "ãĤĭ"
      ],
      [
        "ãĥ",
        "ª"
      ],
      [
        "ãģ§",
        "ãģĤãĤĭ"
      ],
      [
        "ãģĵ",
        "ãģ¨"
      ],
      [
        "ãģķ",
        "ãĤĮ"
      ],
      [
        "å¹",
        "´"
      ],
      [
        "åŃ",
        "¦"
      ],
      [
        "ãģ",
        "¤"
      ],
      [
        "ãģ",
        "©"
      ],
      [
        "ãĥ",
        "©"
      ],
      [
        "ãģ",
        "Ŀ"
      ],
      [
        "é",
        "ĸ"
      ],
      [
        "ç",
        "ī"
      ],
      [
        "é",
        "Ģ"
      ],
      [
        "è",
        "¦"
      ],
      [
        "ãģ£",
        "ãģ¦"
      ],
      [
        "ç",
        "µ"
      ],
      [
        "æ",
        "ķ"
      ],
      [
        "ãĥ¼",
        "ãĥ"
      ],
      [
        "ãĤ",
        "¯"
      ],
      [
        "ãģ",
        "Ī"
      ],
      [
        "ç",
        "´"
      ],
      [
        "ç",
        "ļ"
      ],
      [
        "ãģĹ",
        "ãģŁ"
      ],
      [
        "ãĤ",
        "Ħ"
      ],
      [
        "ãģ¨",
        "ãģĦ"
      ],
      [
        "é",
        "ģ"
      ],
      [
        "æ",
        "Ĺ"
      ],
      [
        "å",
        "½"
      ],
      [
        "ãģ§",
        "ãģ¯"
      ],
      [
        "çļ",
        "Ħ"
      ],
      [
        "ãģ£",
        "ãģŁ"
      ],
      [
        "ãģ",
        "ĳ"
      ],
      [
        "å",
        "Į"
      ],
      [
        "ãĤ",
        "ģ"
      ],
      [
        "ãģ",
        "Ĭ"
      ],
      [
        "ãģĭ",
        "ãĤī"
      ],
      [
        "è",
        "©"
      ],
      [
        "ç",
        "Ľ"
      ],
      [
        "åĪ",
        "Ĩ"
      ],
      [
        "ãĤ",
        "ı"
      ],
      [
        "å",
        "¾"
      ],
      [
        "åĽ",
        "½"
      ],
      [
        "ãĤĴ",
        "æ"
      ],
      [
        "æĸ",
        "ĩ"
      ],
      [
        "ãĤ",
        "ĵ"
      ],
      [
        "å",
        "ĳ"
      ],
      [
        "äº",
        "º"
      ],
      [
        "å",
        "¼"
      ],
      [
        "ãģª",
        "ãģĦ"
      ],
      [
        "ãģ¨ãģĦ",
        "ãģĨ"
      ],
      [
        "ä",
        "¼"
      ],
      [
        "ãģª",
        "ãģ©"
      ],
      [
        "è",
        "Ģ"
      ],
      [
        "ãĥ",
        "ĥ"
      ],
      [
        "çĶ",
        "¨"
      ],
      [
        "åĲ",
        "Ī"
      ],
      [
        "ä¸",
        "Ģ"
      ],
      [
        "ä½",
        "ľ"
      ],
      [
        "æľ",
        "¬"
      ],
      [
        "å",
        "ľ"
      ],
      [
        "æĹ",
        "¥"
      ],
      [
        "ãģ",
        "ł"
      ],
      [
        "ãĤĪ",
        "ãģĨ"
      ],
      [
        "çī",
        "©"
      ],
      [
        "ãĤ",
        "¿"
      ],
      [
        "ãģ®",
        "ç"
      ],
      [
        "å",
        "ĭ"
      ],
      [
        "ãĤ",
        "·"
      ],
      [
        "ãģ«",
        "ãģ¯"
      ],
      [
        "å¤",
        "§"
      ],
      [
        "æ",
        "Ŀ"
      ],
      [
        "ãĥ³",
        "ãĥ"
      ],
      [
        "é",
        "Ľ"
      ],
      [
        "çĶ",
        "Ł"
      ],
      [
        "å",
        "į"
      ],
      [
        "å",
        "º"
      ],
      [
        "é",
        "¡"
      ],
      [
        "ãģ",
        "°"
      ],
      [
        "æ",
        "Ī"
      ],
      [
        "æķ",
        "°"
      ],
      [
        "æĸ",
        "¹"
      ],
      [
        "è¨",
        "Ģ"
      ],
      [
        "å",
        "Ĭ"
      ],
      [
        "å",
        "°"
      ],
      [
        "ä½",
        "ĵ"
      ],
      [
        "é",
        "Ł"
      ],
      [
        "ä¸",
        "Ń"
      ],
      [
        "ãģ«",
        "ãĤĪ"
      ],
      [
        "å",
        "¿"
      ],
      [
        "ãģ®",
        "è"
      ],
      [
        "æ",
        "³"
      ],
      [
        "é",
        "ĩ"
      ],
      [
        "é",
        "ĥ"
      ],
      [
        "ãĤī",
        "ãĤĮ"
      ],
      [
        "ãģ¾",
        "ãģĻ"
      ],
      [
        "æ",
        "Ļ"
      ],
      [
        "ç",
        "§"
      ],
      [
        "ãģ¨",
        "ãģĹãģ¦"
      ],
      [
        "ãĥ",
        "Ń"
      ],
      [
        "è",
        "ĥ"
      ],
      [
        "å",
        "ī"
      ],
      [
        "ä",
        "¾"
      ],
      [
        "å",
        "¯"
      ],
      [
        "ãĤ",
        "«"
      ],
      [
        "æ",
        "°"
      ],
      [
        "ł",
        "´"
      ],
      [
        "ãģĦ",
        "ãģ¦"
      ],
      [
        "å",
        "ĩ"
      ],
      [
        "åĭ",
        "ķ"
      ],
      [
        "åĮ",
        "ĸ"
      ],
      [
        "ç",
        "Ĳ"
      ],
      [
        "ç",
        "Ļ"
      ],
      [
        "ä»",
        "£"
      ],
      [
        "ãĥ",
        "¬"
      ],
      [
        "è¡",
        "Į"
      ],
      [
        "æ",
        "ĺ"
      ],
      [
        "æ",
        "¨"
      ],
      [
        "å½",
        "¢"
      ],
      [
        "æ",
        "Ģ"
      ],
      [
        "è¡",
        "¨"
      ],
      [
        "æ",
        "ī"
      ],
      [
        "ãĤ",
        "°"
      ],
      [
        "ãģª",
        "ãĤĭ"
      ],
      [
        "åŃ",
        "Ĳ"
      ],
      [
        "èĢ",
        "ħ"
      ],
      [
        "å®",
        "ļ"
      ],
      [
        "ä",
        "¿"
      ],
      [
        "åĩ",
        "º"
      ],
      [
        "éŁ",
        "³"
      ],
      [
        "æ",
        "Ħ"
      ],
      [
        "ãģ¦",
        "ãģĦãĤĭ"
      ],
      [
        "æ",
        "Ń"
      ],
      [
        "ä¸",
        "Ĭ"
      ],
      [
        "ãĥ",
        "ķ"
      ],
      [
        "è©",
        "ŀ"
      ],
      [
        "ãĥ",
        "Ĩ"
      ],
      [
        "ãĤ",
        "¸"
      ],
      [
        "ãĥ",
        "Ĺ"
      ],
      [
        "è",
        "§"
      ],
      [
        "æ",
        "Ľ"
      ],
      [
        "çĲ",
        "Ĩ"
      ],
      [
        "ãģ",
        "Ľ"
      ],
      [
        "ç",
        "ķ"
      ],
      [
        "ãĤ",
        "³"
      ],
      [
        "ãģ",
        "¿"
      ],
      [
        "ãģĤ",
        "ãĤĬ"
      ],
      [
        "ç",
        "«"
      ],
      [
        "å",
        "¸"
      ],
      [
        "æĻ",
        "Ĥ"
      ],
      [
        "éĥ",
        "¨"
      ],
      [
        "å",
        "ķ"
      ],
      [
        "è",
        "ĩ"
      ],
      [
        "ãĤĤ",
        "ãģ®"
      ],
      [
        "ãģ",
        "ĺ"
      ],
      [
        "æ³",
        "ķ"
      ],
      [
        "1",
        "9"
      ],
      [
        "è",
        "ĳ"
      ],
      [
        "å",
        "±"
      ],
      [
        "ãģ",
        "¡"
      ],
      [
        "åĲ",
        "Į"
      ],
      [
        "ç",
        "Ĥ"
      ],
      [
        "è",
        "³"
      ],
      [
        "ç",
        "Ń"
      ],
      [
        "å",
        "ł´"
      ],
      [
        "ãģ¾",
        "ãģŁ"
      ],
      [
        "ãĤĪãģĨ",
        "ãģ«"
      ],
      [
        "ãĤ",
        "ª"
      ],
      [
        "ı",
        "¾"
      ],
      [
        "2",
        "0"
      ],
      [
        "å",
        "Ĩ"
      ],
      [
        "é",
        "Ļ"
      ],
      [
        "ç",
        "¤"
      ],
      [
        "ç",
        "·"
      ],
      [
        "éĸ",
        "ĵ"
      ],
      [
        "é",
        "ł"
      ],
      [
        "ãģŁ",
        "ãĤģ"
      ],
      [
        "éĸ",
        "¢"
      ],
      [
        "ãģĵ",
        "ãģ®"
      ],
      [
        "æ",
        "ł"
      ],
      [
        "å¯",
        "¾"
      ],
      [
        "ãĤ",
        "£"
      ],
      [
        "æ",
        "Ķ"
      ],
      [
        "ä¼",
        "ļ"
      ],
      [
        "æĦ",
        "ı"
      ],
      [
        "ç",
        "ı¾"
      ],
      [
        "ãĥ",
        "ł"
      ],
      [
        "æĪ",
        "Ĳ"
      ],
      [
        "æ",
        "¥"
      ],
      [
        "åķ",
        "ı"
      ],
      [
        "æĹ¥",
        "æľ¬"
      ],
      [
        "ãĥ",
        "ī"
      ],
      [
        "è",
        "¿"
      ],
      [
        "æĢ",
        "§"
      ],
      [
        "é¡",
        "Į"
      ],
      [
        "ãģĦ",
        "ãģŁ"
      ],
      [
        "ãģķãĤĮ",
        "ãĤĭ"
      ],
      [
        "çĻ",
        "º"
      ],
      [
        "æ¨",
        "©"
      ],
      [
        "é",
        "Ŀ"
      ],
      [
        "ä¸",
        "»"
      ],
      [
        "è",
        "²"
      ],
      [
        "i",
        "n"
      ],
      [
        "æ",
        "¸"
      ],
      [
        "Ĺ",
        "ä½ľ"
      ],
      [
        "ãģĵ",
        "ãĤĮ"
      ],
      [
        "ãĤ",
        "¦"
      ],
      [
        "è",
        "«"
      ],
      [
        "è¦",
        "ģ"
      ],
      [
        "ãģĵãģ¨",
        "ãģĮ"
      ],
      [
        "ãģ",
        "ļ"
      ],
      [
        "èĩ",
        "ª"
      ],
      [
        "åĳ",
        "³"
      ],
      [
        "ãĥ",
        "ŀ"
      ],
      [
        "å¤",
        "ļ"
      ],
      [
        "å",
        "Ģ"
      ],
      [
        "è¨",
        "ĺ"
      ],
      [
        "å",
        "·"
      ],
      [
        "e",
        "r"
      ],
      [
        "çĤ",
        "¹"
      ],
      [
        "å¾",
        "Į"
      ],
      [
        "åº",
        "¦"
      ],
      [
        "ä¸",
        "ĸ"
      ],
      [
        "å¼",
        "ı"
      ],
      [
        "å",
        "Ł"
      ],
      [
        "ãģ§",
        "ãģį"
      ],
      [
        "ãĢ",
        "İ"
      ],
      [
        "ãĢ",
        "ı"
      ],
      [
        "ç",
        "Ł"
      ],
      [
        "ç",
        "¨"
      ],
      [
        "åĲ",
        "į"
      ],
      [
        "å",
        "ĵ"
      ],
      [
        "è",
        "Ń"
      ],
      [
        "ãģĿ",
        "ãģ®"
      ],
      [
        "ãģĹãģ¦",
        "ãģĦãĤĭ"
      ],
      [
        "ãģķãĤĮ",
        "ãģŁ"
      ],
      [
        "å",
        "İ"
      ],
      [
        "ãĤ¹",
        "ãĥĪ"
      ],
      [
        "ãĥ",
        "¡"
      ],
      [
        "ä»",
        "¥"
      ],
      [
        "ãĥ",
        "£"
      ],
      [
        "ç",
        "¾"
      ],
      [
        "ãģĿ",
        "ãĤĮ"
      ],
      [
        "åľ",
        "°"
      ],
      [
        "å®",
        "Ł"
      ],
      [
        "ç",
        "¶"
      ],
      [
        "ãģ§",
        "ãģĻ"
      ],
      [
        "ãĥ",
        "ĩ"
      ],
      [
        "ãĥ",
        "¥"
      ],
      [
        "§",
        "ĭ"
      ],
      [
        "åħ",
        "¥"
      ],
      [
        "ãĤĮ",
        "ãĤĭ"
      ],
      [
        "ãĢģ",
        "ãĢĮ"
      ],
      [
        "è",
        "»"
      ],
      [
        "çµ",
        "Į"
      ],
      [
        "è¦",
        "ĭ"
      ],
      [
        "é",
        "«"
      ],
      [
        "æ",
        "´"
      ],
      [
        "æľ",
        "Ī"
      ],
      [
        "ãģĮ",
        "ãģĤãĤĭ"
      ],
      [
        "ãĥ",
        "Ĳ"
      ],
      [
        "æ",
        "Ĭ"
      ],
      [
        "ä½",
        "¿"
      ],
      [
        "e",
        "n"
      ],
      [
        "çļĦ",
        "ãģª"
      ],
      [
        "è¨Ģ",
        "èªŀ"
      ],
      [
        "ç´",
        "°"
      ],
      [
        "ãĤ",
        "¨"
      ],
      [
        "ç«",
        "ĭ"
      ],
      [
        "æĽ",
        "¸"
      ],
      [
        "ä¾",
        "ĭ"
      ],
      [
        "éĢ",
        "ļ"
      ],
      [
        "çĽ",
        "®"
      ],
      [
        "æľ",
        "Ł"
      ],
      [
        "é«",
        "ĺ"
      ],
      [
        "ãĤ",
        "į"
      ],
      [
        "åī",
        "į"
      ],
      [
        "èĳ",
        "Ĺä½ľ"
      ],
      [
        "åľ",
        "¨"
      ],
      [
        "ãĥ",
        "ģ"
      ],
      [
        "äº",
        "ĭ"
      ],
      [
        "é",
        "ļ"
      ],
      [
        "ç",
        "©"
      ],
      [
        "ãģ«ãĤĪ",
        "ãģ£ãģ¦"
      ],
      [
        "è³",
        "ª"
      ],
      [
        "æ",
        "¬"
      ],
      [
        "æĺ",
        "İ"
      ],
      [
        "t",
        "h"
      ],
      [
        "åĬ",
        "Ľ"
      ],
      [
        "ãĥ",
        "ĭ"
      ],
      [
        "è«",
        "ĸ"
      ],
      [
        "æľ",
        "Ģ"
      ],
      [
        "ç",
        "¬"
      ],
      [
        "èĥ",
        "ŀ"
      ],
      [
        "a",
        "n"
      ],
      [
        "ãĤ",
        "µ"
      ],
      [
        "ķ",
        "·"
      ],
      [
        "ãģ£ãģ¦",
        "ãģĦãĤĭ"
      ],
      [
        "é",
        "ķ·"
      ],
      [
        "ç§",
        "ĳ"
      ],
      [
        "Ġ",
        "\\"
      ],
      [
        "ãĥ",
        "ĸ"
      ],
      [
        "çī",
        "¹"
      ],
      [
        "åĳ",
        "¼"
      ],
      [
        "åŃ",
        "Ĺ"
      ],
      [
        "æĦı",
        "åĳ³"
      ],
      [
        "è§",
        "£"
      ],
      [
        "ç",
        "Ħ"
      ],
      [
        "æ",
        "İ"
      ],
      [
        "ãģ",
        "»"
      ],
      [
        "ç´°",
        "èĥŀ"
      ],
      [
        "ãĥ",
        "İ"
      ],
      [
        "è",
        "Ī"
      ],
      [
        "ä¸",
        "ĭ"
      ],
      [
        "çµ",
        "Ĳ"
      ],
      [
        "ãĥ",
        "Ł"
      ],
      [
        "ç¾",
        "©"
      ],
      [
        "ãģª",
        "ãĤĬ"
      ],
      [
        "å",
        "¥"
      ],
      [
        "ãĤ",
        "Ń"
      ],
      [
        "ãģ«",
        "ãģĬ"
      ],
      [
        "ãĤīãĤĮ",
        "ãĤĭ"
      ],
      [
        "æ",
        "Į"
      ],
      [
        "ãģ",
        "³"
      ],
      [
        "æķ",
        "Ļ"
      ],
      [
        "åħ",
        "¨"
      ],
      [
        "éĽ",
        "»"
      ],
      [
        "æ¥",
        "Ń"
      ],
      [
        "æ",
        "±"
      ],
      [
        "0",
        "0"
      ],
      [
        "ä½",
        "į"
      ],
      [
        "Ġ",
        "("
      ],
      [
        "éĢ",
        "£"
      ],
      [
        "ãģ®",
        "ãģ§"
      ],
      [
        "ãģĪ",
        "ãĤĭ"
      ],
      [
        "æ°",
        "ĳ"
      ],
      [
        "ãĥ",
        "Ĭ"
      ],
      [
        "è",
        "µ"
      ],
      [
        "æ",
        "²"
      ],
      [
        "ãĤĪãģĨ",
        "ãģª"
      ],
      [
        "èĢ",
        "ĥ"
      ],
      [
        "ãģ«",
        "ãģ¤"
      ],
      [
        "å¤",
        "ī"
      ],
      [
        "å¤",
        "ĸ"
      ],
      [
        "ç·",
        "ļ"
      ],
      [
        "è",
        "£"
      ],
      [
        "ãĤ",
        "º"
      ],
      [
        "ãģ§",
        "ãĤĤ"
      ],
      [
        "èĥ",
        "½"
      ],
      [
        "æī",
        "ĭ"
      ],
      [
        "ãģ§",
        "ãģĤãĤĬ"
      ],
      [
        "ãģª",
        "ãģ£ãģŁ"
      ],
      [
        "æ",
        "µ"
      ],
      [
        "ãģª",
        "ãģı"
      ],
      [
        "åŃ",
        "ĺ"
      ],
      [
        "çŁ",
        "¥"
      ],
      [
        "ãĤ",
        "½"
      ],
      [
        "é",
        "¨"
      ],
      [
        "ãĥ¼",
        "ãĥ«"
      ],
      [
        "åł´",
        "åĲĪ"
      ],
      [
        "o",
        "n"
      ],
      [
        "å®",
        "¶"
      ],
      [
        "æ",
        "¯"
      ],
      [
        "åı",
        "Ĺ"
      ],
      [
        "ãĥ",
        "ĳ"
      ],
      [
        "æ¬",
        "¡"
      ],
      [
        "ãĥ¼ãĥ",
        "ī"
      ],
      [
        "ç¤",
        "¾"
      ],
      [
        "æĿ",
        "±"
      ],
      [
        "è",
        "¾"
      ],
      [
        "ãĤ¤",
        "ãĥ"
      ],
      [
        "çĽ",
        "¸"
      ],
      [
        "ãģ¨",
        "ãģ¯"
      ],
      [
        "åĨ",
        "ħ"
      ],
      [
        "é¡",
        "ŀ"
      ],
      [
        "æĶ",
        "¿"
      ],
      [
        "çļĦ",
        "ãģ«"
      ],
      [
        "çŃ",
        "ī"
      ],
      [
        "ãģ®å",
        "¤"
      ],
      [
        "é",
        "ħ"
      ],
      [
        "ãĢį",
        "ãĢĮ"
      ],
      [
        "é¨",
        "ĵ"
      ],
      [
        "ãģ",
        "¹"
      ],
      [
        "ãģ¨",
        "åĳ¼"
      ],
      [
        "ãģĳ",
        "ãĤĭ"
      ],
      [
        "æ",
        "¼"
      ],
      [
        "ãĥ³",
        "ãĤ°"
      ],
      [
        "åİ",
        "Ł"
      ],
      [
        "ç¬",
        "¬"
      ],
      [
        "a",
        "t"
      ],
      [
        "è",
        "ĭ"
      ],
      [
        "éĸ",
        "ĭ"
      ],
      [
        "æ",
        "ŀ"
      ],
      [
        "åķı",
        "é¡Į"
      ],
      [
        "r",
        "e"
      ],
      [
        "ç¶",
        "ļ"
      ],
      [
        "ç",
        "½"
      ],
      [
        "ãĤ",
        "»"
      ],
      [
        "ãģ«ãģ¤",
        "ãģĦãģ¦"
      ],
      [
        "éĿ",
        "¢"
      ],
      [
        "æĿ",
        "¥"
      ],
      [
        "i",
        "s"
      ],
      [
        "æ",
        "º"
      ],
      [
        "ãģ",
        "¸"
      ],
      [
        "ç",
        "®"
      ],
      [
        "çķ",
        "Į"
      ],
      [
        "å¹",
        "³"
      ],
      [
        "ä¼",
        "Ŀ"
      ],
      [
        "Ġ",
        "a"
      ],
      [
        "ãĤĴæ",
        "Į"
      ],
      [
        "è§",
        "Ĵ"
      ],
      [
        "l",
        "e"
      ],
      [
        "å",
        "£"
      ],
      [
        "è",
        "ī"
      ],
      [
        "ãĥĥ",
        "ãĤ¯"
      ],
      [
        "ä»",
        "ĸ"
      ],
      [
        "ç",
        "İ"
      ],
      [
        "ãĤ",
        "ĩ"
      ],
      [
        "ãģĹ",
        "ãģĦ"
      ],
      [
        "å",
        "ŀ"
      ],
      [
        "ãģ",
        "¶"
      ],
      [
        "ãĥ¼ãĥ",
        "ł"
      ],
      [
        "ãģĹ",
        "ãģĭ"
      ],
      [
        "çĽ",
        "´"
      ],
      [
        "ãģ§ãģį",
        "ãĤĭ"
      ],
      [
        "ç",
        "³"
      ],
      [
        "æ",
        "¶"
      ],
      [
        "ãģ¾",
        "ãģ§"
      ],
      [
        "ãĤ¿",
        "ãĥ¼"
      ],
      [
        "ãĥ",
        "Ķ"
      ],
      [
        "ãģ¨",
        "ãģį"
      ],
      [
        "æ",
        "ĭ"
      ],
      [
        "åĪ",
        "©"
      ],
      [
        "å¿",
        "ħ"
      ],
      [
        "ãģĵãģ¨",
        "ãĤĴ"
      ],
      [
        "èª",
        "¬"
      ],
      [
        "ãģĪ",
        "ãģ°"
      ],
      [
        "ãĤ",
        "§"
      ],
      [
        "ãģ«",
        "ãģªãĤĭ"
      ],
      [
        "ç½",
        "®"
      ],
      [
        "ãĥ",
        "ı"
      ],
      [
        "æ",
        "®"
      ],
      [
        "ç´",
        "ł"
      ],
      [
        "c",
        "h"
      ],
      [
        "ãĥ",
        "Ļ"
      ],
      [
        "æľ",
        "ī"
      ],
      [
        "Ĵ",
        "Į"
      ],
      [
        "ãĤĪ",
        "ãĤĬ"
      ],
      [
        "åį",
        "ĺ"
      ],
      [
        "Ġ",
        "-"
      ],
      [
        "äº",
        "Į"
      ],
      [
        "ãģĬ",
        "ãĤĬ"
      ],
      [
        "©",
        "Ł"
      ],
      [
        "ç",
        "¥"
      ],
      [
        "ãĥĹ",
        "ãĥŃ"
      ],
      [
        "ãĤĮ",
        "ãģ°"
      ],
      [
        "çĶ",
        "»"
      ],
      [
        "éĩ",
        "į"
      ],
      [
        "ï¼ī",
        "ãĢĤ"
      ],
      [
        "æŃ",
        "£"
      ],
      [
        "å®",
        "¹"
      ],
      [
        "ãģ«",
        "å¯¾"
      ],
      [
        "ãĥĥ",
        "ãĥĪ"
      ],
      [
        "ä¿",
        "Ŀ"
      ],
      [
        "ãĤ",
        "²"
      ],
      [
        "ãģ®",
        "ãĤĪãģĨãģ«"
      ],
      [
        "æ",
        "ı"
      ],
      [
        "åĪ",
        "¶"
      ],
      [
        "ãģķãĤĮ",
        "ãģ¦ãģĦãĤĭ"
      ],
      [
        "ç³",
        "»"
      ],
      [
        "ãĤ¤",
        "ãĥ³"
      ],
      [
        "ãĥ",
        "ĵ"
      ],
      [
        "ç¨",
        "ĭ"
      ],
      [
        "â",
        "Ģ"
      ],
      [
        "æ",
        "ħ"
      ],
      [
        "ãĥª",
        "ãĤ¢"
      ],
      [
        "åĬ",
        "ł"
      ],
      [
        "åŁ",
        "º"
      ],
      [
        "ä¸",
        "į"
      ],
      [
        "ãģ¨ãģĦãģĨ",
        "æĦıåĳ³"
      ],
      [
        "ç´",
        "Ħ"
      ],
      [
        "ãĥ",
        "Ģ"
      ],
      [
        "åĲ",
        "ĳ"
      ],
      [
        "åĪ",
        "¥"
      ],
      [
        "ç",
        "ľ"
      ],
      [
        "å½",
        "ĵ"
      ],
      [
        "ãĥ¼",
        "ãĥĪ"
      ],
      [
        "èĭ",
        "±"
      ],
      [
        "ãĥ",
        "ļ"
      ],
      [
        "æĿ",
        "¡"
      ],
      [
        "å",
        "ģ"
      ],
      [
        "å",
        "ĴĮ"
      ],
      [
        "a",
        "l"
      ],
      [
        "æĸ",
        "°"
      ],
      [
        "æ",
        "¤"
      ],
      [
        "Ġ",
        "="
      ],
      [
        "ãĤ",
        "®"
      ],
      [
        "åĮ",
        "»"
      ],
      [
        "è»",
        "į"
      ],
      [
        "è¨",
        "Ī"
      ],
      [
        "ãģ«ãĤĪ",
        "ãĤĭ"
      ],
      [
        "æ",
        "ĥ"
      ],
      [
        "è",
        "¼"
      ],
      [
        "ãĥ",
        "į"
      ],
      [
        "åŀ",
        "ĭ"
      ],
      [
        "ãģª",
        "ãĤī"
      ],
      [
        "çĶŁ",
        "çī©"
      ],
      [
        "å°",
        "ı"
      ],
      [
        "ãĤ°",
        "ãĥ©"
      ],
      [
        "é",
        "£"
      ],
      [
        "ãĤ",
        "Ģ"
      ],
      [
        "§",
        "ĺ"
      ],
      [
        "åħ",
        "¬"
      ],
      [
        "ãģĤ",
        "ãģ£ãģŁ"
      ],
      [
        "æĪ",
        "¦"
      ],
      [
        "å¿",
        "ľ"
      ],
      [
        "ç",
        "¢"
      ],
      [
        "ãģĦ",
        "ãģ¾ãģĻ"
      ],
      [
        "åı",
        "ĸ"
      ],
      [
        "çĶ",
        "£"
      ],
      [
        "ãģ¨",
        "ãĤĤ"
      ],
      [
        "æ",
        "©Ł"
      ],
      [
        "ãģ«ãģĬ",
        "ãģĦãģ¦"
      ],
      [
        "ãģ",
        "Ĵ"
      ],
      [
        "ãĢ",
        "ħ"
      ],
      [
        "ãĤı",
        "ãĤĮ"
      ],
      [
        "ãģĿ",
        "ãģ®å"
      ],
      [
        "åħ",
        "±"
      ],
      [
        "ãĤĩ",
        "ãģĨ"
      ],
      [
        "çµ",
        "Ħ"
      ],
      [
        "æ",
        "§ĭ"
      ],
      [
        "æ¸",
        "Ī"
      ],
      [
        "ç¤",
        "º"
      ],
      [
        "ãģ«",
        "ãĤĤ"
      ],
      [
        "è©",
        "¦"
      ],
      [
        "ãĥ",
        "§"
      ],
      [
        "o",
        "r"
      ],
      [
        "ãģ¨",
        "ãģĻãĤĭ"
      ],
      [
        "çµ",
        "±"
      ],
      [
        "æĻĤ",
        "ä»£"
      ],
      [
        "ãĥ",
        "¢"
      ],
      [
        "æ°",
        "Ĺ"
      ],
      [
        "è¿",
        "°"
      ],
      [
        "éģ",
        "İ"
      ],
      [
        "a",
        "r"
      ],
      [
        "ãģ®å",
        "Ĳ"
      ],
      [
        "èĳĹä½ľ",
        "æ¨©"
      ],
      [
        "ä¾",
        "¡"
      ],
      [
        "å",
        "¢"
      ],
      [
        "æī",
        "Ģ"
      ],
      [
        "çµĮ",
        "æ¸Ī"
      ],
      [
        "éĽ",
        "Ĩ"
      ],
      [
        "1",
        "0"
      ],
      [
        "e",
        "s"
      ],
      [
        "è¿",
        "ĳ"
      ],
      [
        "ä",
        "¹"
      ],
      [
        "éļ",
        "Ľ"
      ],
      [
        "å",
        "Ĥ"
      ],
      [
        "ãģ®",
        "ä¸Ń"
      ],
      [
        "æ´",
        "»"
      ],
      [
        "åŃĺ",
        "åľ¨"
      ],
      [
        "ç",
        "¯"
      ],
      [
        "åĪ",
        "Ŀ"
      ],
      [
        "å¾",
        "Ĺ"
      ],
      [
        "èĪ",
        "¬"
      ],
      [
        "ãĥ",
        "Ŀ"
      ],
      [
        "éĩ",
        "ı"
      ],
      [
        "æł",
        "¼"
      ],
      [
        "æ",
        "§ĺ"
      ],
      [
        "ç¢",
        "º"
      ],
      [
        "å¤ļ",
        "ãģı"
      ],
      [
        "ãģ¾",
        "ãĤĬ"
      ],
      [
        "ç´",
        "Ģ"
      ],
      [
        "ç§",
        "°"
      ],
      [
        "o",
        "m"
      ],
      [
        "åĭķ",
        "è©ŀ"
      ],
      [
        "Ġ",
        "b"
      ],
      [
        "Ġ",
        "s"
      ],
      [
        "ł",
        "Ķ"
      ],
      [
        "ä¸Ģ",
        "èĪ¬"
      ],
      [
        "ãģł",
        "ãģĳ"
      ],
      [
        "ç©",
        "¶"
      ],
      [
        "o",
        "u"
      ],
      [
        "ä¿",
        "Ĥ"
      ],
      [
        "è©",
        "±"
      ],
      [
        "è",
        "±"
      ],
      [
        "ãģ¨",
        "ãģªãĤĭ"
      ],
      [
        "æĸĩ",
        "åŃĹ"
      ],
      [
        "Ġ",
        "ãģ¯"
      ],
      [
        "ãĤ",
        "±"
      ],
      [
        "æ°",
        "´"
      ],
      [
        "æĹ¥æľ¬",
        "èªŀ"
      ],
      [
        "å¿",
        "ĥ"
      ],
      [
        "ä¸",
        "ī"
      ],
      [
        "åı",
        "į"
      ],
      [
        "Ĭ",
        "¶"
      ],
      [
        "åħ",
        "ĥ"
      ],
      [
        "åĵ",
        "ģ"
      ],
      [
        "å¸",
        "¸"
      ],
      [
        "å¿ħ",
        "è¦ģ"
      ],
      [
        "ä¸ĸ",
        "çķĮ"
      ],
      [
        "²",
        "åŃ¦"
      ],
      [
        "å¹´",
        "ãģ«"
      ],
      [
        "ãĥ³",
        "ãĥĪ"
      ],
      [
        "çĦ",
        "¡"
      ],
      [
        "ãĤĴæĮ",
        "ģ"
      ],
      [
        "ãģ",
        "Ķ"
      ],
      [
        "ï¼ī",
        "ãĢģ"
      ],
      [
        "ãģĹãģĭ",
        "ãģĹ"
      ],
      [
        "ãģ®å",
        "Ī"
      ],
      [
        "ãģ«ãĤĪ",
        "ãĤĬ"
      ],
      [
        "ãģ",
        "²"
      ],
      [
        "æł",
        "¡"
      ],
      [
        "ãĤĤ",
        "ãģĤãĤĭ"
      ],
      [
        "è¦",
        "ı"
      ],
      [
        "éĩ",
        "ĳ"
      ],
      [
        "åĽ",
        "ŀ"
      ],
      [
        "ãĥ³ãĥ",
        "ī"
      ],
      [
        "åĲĮ",
        "ãģĺ"
      ],
      [
        "æ²",
        "»"
      ],
      [
        "åĮ",
        "Ĺ"
      ],
      [
        "łĶ",
        "ç©¶"
      ],
      [
        "éģ",
        "¸"
      ],
      [
        "å¼",
        "·"
      ],
      [
        "éĻ",
        "Ĳ"
      ],
      [
        "ãģĻãĤĭ",
        "ãģĵãģ¨"
      ],
      [
        "ç®",
        "Ĺ"
      ],
      [
        "ãģķãĤĮ",
        "ãģ¦"
      ],
      [
        "è",
        "Ħ"
      ],
      [
        "Ġ",
        "ãģ®"
      ],
      [
        "ãĥª",
        "ãĥ¼"
      ],
      [
        "ç¥",
        "ŀ"
      ],
      [
        "åŁ",
        "Ł"
      ],
      [
        "ç¤¾",
        "ä¼ļ"
      ],
      [
        "ç",
        "¿"
      ],
      [
        "ãĤģ",
        "ãĤĭ"
      ],
      [
        "çİ",
        "ĩ"
      ],
      [
        "20",
        "0"
      ],
      [
        "åı",
        "¤"
      ],
      [
        "ãĤ",
        "¬"
      ],
      [
        "åĽ",
        "³"
      ],
      [
        "èī",
        "²"
      ],
      [
        "ä»",
        "ĺ"
      ],
      [
        "åı",
        "·"
      ],
      [
        "åı",
        "¯"
      ],
      [
        "èµ",
        "·"
      ],
      [
        "å",
        "ł"
      ],
      [
        "ãĤ¯",
        "ãĥ©"
      ],
      [
        "æŀ",
        "ľ"
      ],
      [
        "Ġ",
        "1"
      ],
      [
        "éĢ",
        "ł"
      ],
      [
        "äº",
        "¤"
      ],
      [
        "çķ",
        "°"
      ],
      [
        "ãĢģ",
        "'"
      ],
      [
        "ãģ«",
        "éĸ¢"
      ],
      [
        "Ġ",
        "t"
      ],
      [
        "ãģ®å",
        "ħ"
      ],
      [
        "éħ",
        "į"
      ],
      [
        "ç¨",
        "®"
      ],
      [
        "è",
        "ģ"
      ],
      [
        "éĢ",
        "²"
      ],
      [
        "ãĤª",
        "ãĥ¼"
      ],
      [
        "i",
        "c"
      ],
      [
        "ãģ®æ",
        "ķ"
      ],
      [
        "è",
        "Ĥ"
      ],
      [
        "Ġ",
        "th"
      ],
      [
        "è±",
        "¡"
      ],
      [
        "ãĥ",
        "ľ"
      ],
      [
        "çĶ",
        "±"
      ],
      [
        "ãĥķ",
        "ãĤ"
      ],
      [
        "ãģ®å",
        "®"
      ],
      [
        "ãĤ¢",
        "ãĥ«"
      ],
      [
        "Ġ",
        "ï¼Ī"
      ],
      [
        "éģ",
        "ĭ"
      ],
      [
        "çµ",
        "Ĥ"
      ],
      [
        "ãĥĶ",
        "ãĤ¢"
      ],
      [
        "ãĤ²",
        "ãĥ¼ãĥł"
      ],
      [
        "éģ",
        "ĵ"
      ],
      [
        "åĢ",
        "ĭ"
      ],
      [
        "æħ",
        "ĭ"
      ],
      [
        "ãģĭ",
        "ãģ£ãģŁ"
      ],
      [
        "èĢĥ",
        "ãģĪ"
      ],
      [
        "ãģķ",
        "ãģĽ"
      ],
      [
        "ãģŁ",
        "ãģ¨"
      ],
      [
        "1",
        "8"
      ],
      [
        "ãģ",
        "ŀ"
      ],
      [
        "å¤§",
        "ãģį"
      ],
      [
        "åį",
        "Ĭ"
      ],
      [
        "å·",
        "¥"
      ]
    ]
  }
}