{
  "version": "1.0",
  "truncation": null,
  "padding": null,
  "added_tokens": [
    {
      "id": 0,
      "content": "<PAD>",
      "single_word": false,
      "lstrip": false,
      "rstrip": false,
      "normalized": false,
      "special": true
    },
    {
      "id": 1,
      "content": "<BOS>",
      "single_word": false,
      "lstrip": false,
      "rstrip": false,
      "normalized": false,
      "special": true
    },
    {
      "id": 2,
      "content": "<EOS>",
      "single_word": false,
      "lstrip": false,
      "rstrip": false,
      "normalized": false,
      "special": true
    },
    {
      "id": 3,
      "content": "<UNK>",
      "single_word": false,
      "lstrip": false,
      "rstrip": false,
      "normalized": false,
      "special": true
    },
    {
      "id": 4,
      "content": "<USER>",
      "single_word": false,
      "lstrip": false,
      "rstrip": false,
      "normalized": false,
      "special": true
    },
    {
      "id": 5,
      "content": "<ASSISTANT>",
      "single_word": false,
      "lstrip": false,
      "rstrip": false,
      "normalized": false,
      "special": true
    },
    {
      "id": 6,
      "content": "<SYSTEM>",
      "single_word": false,
      "lstrip": false,
      "rstrip": false,
      "normalized": false,
      "special": true
    }
  ],
  "normalizer": null,
  "pre_tokenizer": {
    "type": "ByteLevel",
    "add_prefix_space": false,
    "trim_offsets": true,
    "use_regex": true
  },
  "post_processor": null,
  "decoder": {
    "type": "ByteLevel",
    "add_prefix_space": true,
    "trim_offsets": true,
    "use_regex": true
  },
  "model": {
    "type": "BPE",
    "dropout": null,
    "unk_token": "<UNK>",
    "continuing_subword_prefix": null,
    "end_of_word_suffix": null,
    "fuse_unk": false,
    "byte_fallback": false,
    "ignore_merges": false,
    "vocab": {
      "<PAD>": 0,
      "<BOS>": 1,
      "<EOS>": 2,
      "<UNK>": 3,
      "<USER>": 4,
      "<ASSISTANT>": 5,
      "<SYSTEM>": 6,
      "!": 7,
      "\"": 8,
      "#": 9,
      "$": 10,
      "%": 11,
      "&": 12,
      "'": 13,
      "(": 14,
      ")": 15,
      "*": 16,
      "+": 17,
      ",": 18,
      "-": 19,
      ".": 20,
      "/": 21,
      "0": 22,
      "1": 23,
      "2": 24,
      "3": 25,
      "4": 26,
      "5": 27,
      "6": 28,
      "7": 29,
      "8": 30,
      "9": 31,
      ":": 32,
      ";": 33,
      "<": 34,
      "=": 35,
      ">": 36,
      "?": 37,
      "@": 38,
      "A": 39,
      "B": 40,
      "C": 41,
      "D": 42,
      "E": 43,
      "F": 44,
      "G": 45,
      "H": 46,
      "I": 47,
      "J": 48,
      "K": 49,
      "L": 50,
      "M": 51,
      "N": 52,
      "O": 53,
      "P": 54,
      "Q": 55,
      "R": 56,
      "S": 57,
      "T": 58,
      "U": 59,
      "V": 60,
      "W": 61,
      "X": 62,
      "Y": 63,
      "Z": 64,
      "[": 65,
      "\\": 66,
      "]": 67,
      "^": 68,
      "_": 69,
      "`": 70,
      "a": 71,
      "b": 72,
      "c": 73,
      "d": 74,
      "e": 75,
      "f": 76,
      "g": 77,
      "h": 78,
      "i": 79,
      "j": 80,
      "k": 81,
      "l": 82,
      "m": 83,
      "n": 84,
      "o": 85,
      "p": 86,
      "q": 87,
      "r": 88,
      "s": 89,
      "t": 90,
      "u": 91,
      "v": 92,
      "w": 93,
      "x": 94,
      "y": 95,
      "z": 96,
      "{": 97,
      "|": 98,
      "}": 99,
      "~": 100,
      "¡": 101,
      "¢": 102,
      "£": 103,
      "¤": 104,
      "¥": 105,
      "¦": 106,
      "§": 107,
      "¨": 108,
      "©": 109,
      "ª": 110,
      "«": 111,
      "¬": 112,
      "®": 113,
      "¯": 114,
      "°": 115,
      "±": 116,
      "²": 117,
      "³": 118,
      "´": 119,
      "µ": 120,
      "¶": 121,
      "·": 122,
      "¸": 123,
      "¹": 124,
      "º": 125,
      "»": 126,
      "¼": 127,
      "½": 128,
      "¾": 129,
      "¿": 130,
      "À": 131,
      "Á": 132,
      "Â": 133,
      "Ã": 134,
      "Ä": 135,
      "Å": 136,
      "Æ": 137,
      "Ç": 138,
      "È": 139,
      "É": 140,
      "Ê": 141,
      "Ë": 142,
      "Ì": 143,
      "Í": 144,
      "Î": 145,
      "Ï": 146,
      "Ð": 147,
      "Ñ": 148,
      "Ò": 149,
      "Ó": 150,
      "Ô": 151,
      "Õ": 152,
      "Ö": 153,
      "×": 154,
      "Ø": 155,
      "Ù": 156,
      "Ú": 157,
      "Û": 158,
      "Ü": 159,
      "Ý": 160,
      "Þ": 161,
      "ß": 162,
      "à": 163,
      "á": 164,
      "â": 165,
      "ã": 166,
      "ä": 167,
      "å": 168,
      "æ": 169,
      "ç": 170,
      "è": 171,
      "é": 172,
      "ê": 173,
      "ë": 174,
      "ì": 175,
      "í": 176,
      "î": 177,
      "ï": 178,
      "ð": 179,
      "ñ": 180,
      "ò": 181,
      "ó": 182,
      "ô": 183,
      "õ": 184,
      "ö": 185,
      "÷": 186,
      "ø": 187,
      "ù": 188,
      "ú": 189,
      "û": 190,
      "ü": 191,
      "ý": 192,
      "þ": 193,
      "ÿ": 194,
      "Ā": 195,
      "ā": 196,
      "Ă": 197,
      "ă": 198,
      "Ą": 199,
      "ą": 200,
      "Ć": 201,
      "ć": 202,
      "Ĉ": 203,
      "ĉ": 204,
      "Ċ": 205,
      "ċ": 206,
      "Č": 207,
      "č": 208,
      "Ď": 209,
      "ď": 210,
      "Đ": 211,
      "đ": 212,
      "Ē": 213,
      "ē": 214,
      "Ĕ": 215,
      "ĕ": 216,
      "Ė": 217,
      "ė": 218,
      "Ę": 219,
      "ę": 220,
      "Ě": 221,
      "ě": 222,
      "Ĝ": 223,
      "ĝ": 224,
      "Ğ": 225,
      "ğ": 226,
      "Ġ": 227,
      "ġ": 228,
      "Ģ": 229,
      "ģ": 230,
      "Ĥ": 231,
      "ĥ": 232,
      "Ħ": 233,
      "ħ": 234,
      "Ĩ": 235,
      "ĩ": 236,
      "Ī": 237,
      "ī": 238,
      "Ĭ": 239,
      "ĭ": 240,
      "Į": 241,
      "į": 242,
      "İ": 243,
      "ı": 244,
      "Ĳ": 245,
      "ĳ": 246,
      "Ĵ": 247,
      "ĵ": 248,
      "Ķ": 249,
      "ķ": 250,
      "ĸ": 251,
      "Ĺ": 252,
      "ĺ": 253,
      "Ļ": 254,
      "ļ": 255,
      "Ľ": 256,
      "ľ": 257,
      "Ŀ": 258,
      "ŀ": 259,
      "Ł": 260,
      "ł": 261,
      "Ń": 262,
      "ãģ": 263,
      "ãĤ": 264,
      "ãĥ": 265,
      "ãĢ": 266,
      "ãģ®": 267,
      "ãĢģ": 268,
      "ãĤĭ": 269,
      "ãĢĤ": 270,
      "ãģ«": 271,
      "ãģ¨": 272,
      "ãģ¯": 273,
      "ãģĦ": 274,
      "ãģ§": 275,
      "ãĤĴ": 276,
      "ãģĮ": 277,
      "ãģª": 278,
      "ãģ¦": 279,
      "ãģĹ": 280,
      "ãģŁ": 281,
      "ï¼": 282,
      "ãĤĮ": 283,
      "ä¸": 284,
      "ãģĻ": 285,
      "ãĥ¼": 286,
      "ãģĤ": 287,
      "ãģĵ": 288,
      "ãģĨ": 289,
      "ãģ®å": 290,
      "ãģĭ": 291,
      "ãĥ³": 292,
      "ãĤĤ": 293,
      "ãĤī": 294,
      "åŃ": 295,
      "ä½": 296,
      "ãģ£": 297,
      "ãģ¾": 298,
      "ãĤĬ": 299,
      "èª": 300,
      "æľ": 301,
      "ãģĤãĤĭ": 302,
      "çĶ": 303,
      "åĲ": 304,
      "ãģķ": 305,
      "ï¼Ī": 306,
      "ï¼ī": 307,
      "åĪ": 308,
      "æĸ": 309,
      "å¤": 310,
      "ãĤĪ": 311,
      "äº": 312,
      "ãģĻãĤĭ": 313,
      "ãģĹãģ¦": 314,
      "ãĤ¹": 315,
      "ä»": 316,
      "ãĢį": 317,
      "ãĢĮ": 318,
      "å®": 319,
      "ãģı": 320,
      "ãĥ«": 321,
      "å¹": 322,
      "ãĤ¢": 323,
      "è¨": 324,
      "åı": 325,
      "ãĥĪ": 326,
      "ãģį": 327,
      "èªŀ": 328,
      "ãĥ»": 329,
      "åħ": 330,
      "ãģ®æ": 331,
      "ãĤ¤": 332,
      "åĽ": 333,
      "è¡": 334,
      "ãģĦãĤĭ": 335,
      "ãĥª": 336,
      "ãģ§ãģĤãĤĭ": 337,
      "ãģĵãģ¨": 338,
      "ãģķãĤĮ": 339,
      "å¹´": 340,
      "åŃ¦": 341,
      "ãģ¤": 342,
      "ãģ©": 343,
      "ãĥ©": 344,
      "ãģĿ": 345,
      "éĸ": 346,
      "çī": 347,
      "éĢ": 348,
      "è¦": 349,
      "ãģ£ãģ¦": 350,
      "çµ": 351,
      "æķ": 352,
      "ãĥ¼ãĥ": 353,
      "ãĤ¯": 354,
      "ãģĪ": 355,
      "ç´": 356,
      "çļ": 357,
      "ãģĹãģŁ": 358,
      "ãĤĦ": 359,
      "ãģ¨ãģĦ": 360,
      "éģ": 361,
      "æĹ": 362,
      "å½": 363,
      "ãģ§ãģ¯": 364,
      "çļĦ": 365,
      "ãģ£ãģŁ": 366,
      "ãģĳ": 367,
      "åĮ": 368,
      "ãĤģ": 369,
      "ãģĬ": 370,
      "ãģĭãĤī": 371,
      "è©": 372,
      "çĽ": 373,
      "åĪĨ": 374,
      "ãĤı": 375,
      "å¾": 376,
      "åĽ½": 377,
      "ãĤĴæ": 378,
      "æĸĩ": 379,
      "ãĤĵ": 380,
      "åĳ": 381,
      "äºº": 382,
      "å¼": 383,
      "ãģªãģĦ": 384,
      "ãģ¨ãģĦãģĨ": 385,
      "ä¼": 386,
      "ãģªãģ©": 387,
      "èĢ": 388,
      "ãĥĥ": 389,
      "çĶ¨": 390,
      "åĲĪ": 391,
      "ä¸Ģ": 392,
      "ä½ľ": 393,
      "æľ¬": 394,
      "åľ": 395,
      "æĹ¥": 396,
      "ãģł": 397,
      "ãĤĪãģĨ": 398,
      "çī©": 399,
      "ãĤ¿": 400,
      "ãģ®ç": 401,
      "åĭ": 402,
      "ãĤ·": 403,
      "ãģ«ãģ¯": 404,
      "å¤§": 405,
      "æĿ": 406,
      "ãĥ³ãĥ": 407,
      "éĽ": 408,
      "çĶŁ": 409,
      "åį": 410,
      "åº": 411,
      "é¡": 412,
      "ãģ°": 413,
      "æĪ": 414,
      "æķ°": 415,
      "æĸ¹": 416,
      "è¨Ģ": 417,
      "åĬ": 418,
      "å°": 419,
      "ä½ĵ": 420,
      "éŁ": 421,
      "ä¸Ń": 422,
      "ãģ«ãĤĪ": 423,
      "å¿": 424,
      "ãģ®è": 425,
      "æ³": 426,
      "éĩ": 427,
      "éĥ": 428,
      "ãĤīãĤĮ": 429,
      "ãģ¾ãģĻ": 430,
      "æĻ": 431,
      "ç§": 432,
      "ãģ¨ãģĹãģ¦": 433,
      "ãĥŃ": 434,
      "èĥ": 435,
      "åī": 436,
      "ä¾": 437,
      "å¯": 438,
      "ãĤ«": 439,
      "æ°": 440,
      "ł´": 441,
      "ãģĦãģ¦": 442,
      "åĩ": 443,
      "åĭķ": 444,
      "åĮĸ": 445,
      "çĲ": 446,
      "çĻ": 447,
      "ä»£": 448,
      "ãĥ¬": 449,
      "è¡Į": 450,
      "æĺ": 451,
      "æ¨": 452,
      "å½¢": 453,
      "æĢ": 454,
      "è¡¨": 455,
      "æī": 456,
      "ãĤ°": 457,
      "ãģªãĤĭ": 458,
      "åŃĲ": 459,
      "èĢħ": 460,
      "å®ļ": 461,
      "ä¿": 462,
      "åĩº": 463,
      "éŁ³": 464,
      "æĦ": 465,
      "ãģ¦ãģĦãĤĭ": 466,
      "æŃ": 467,
      "ä¸Ĭ": 468,
      "ãĥķ": 469,
      "è©ŀ": 470,
      "ãĥĨ": 471,
      "ãĤ¸": 472,
      "ãĥĹ": 473,
      "è§": 474,
      "æĽ": 475,
      "çĲĨ": 476,
      "ãģĽ": 477,
      "çķ": 478,
      "ãĤ³": 479,
      "ãģ¿": 480,
      "ãģĤãĤĬ": 481,
      "ç«": 482,
      "å¸": 483,
      "æĻĤ": 484,
      "éĥ¨": 485,
      "åķ": 486,
      "èĩ": 487,
      "ãĤĤãģ®": 488,
      "ãģĺ": 489,
      "æ³ķ": 490,
      "19": 491,
      "èĳ": 492,
      "å±": 493,
      "ãģ¡": 494,
      "åĲĮ": 495,
      "çĤ": 496,
      "è³": 497,
      "çŃ": 498,
      "åł´": 499,
      "ãģ¾ãģŁ": 500,
      "ãĤĪãģĨãģ«": 501,
      "ãĤª": 502,
      "ı¾": 503,
      "20": 504,
      "åĨ": 505,
      "éĻ": 506,
      "ç¤": 507,
      "ç·": 508,
      "éĸĵ": 509,
      "éł": 510,
      "ãģŁãĤģ": 511,
      "éĸ¢": 512,
      "ãģĵãģ®": 513,
      "æł": 514,
      "å¯¾": 515,
      "ãĤ£": 516,
      "æĶ": 517,
      "ä¼ļ": 518,
      "æĦı": 519,
      "çı¾": 520,
      "ãĥł": 521,
      "æĪĲ": 522,
      "æ¥": 523,
      "åķı": 524,
      "æĹ¥æľ¬": 525,
      "ãĥī": 526,
      "è¿": 527,
      "æĢ§": 528,
      "é¡Į": 529,
      "ãģĦãģŁ": 530,
      "ãģķãĤĮãĤĭ": 531,
      "çĻº": 532,
      "æ¨©": 533,
      "éĿ": 534,
      "ä¸»": 535,
      "è²": 536,
      "in": 537,
      "æ¸": 538,
      "Ĺä½ľ": 539,
      "ãģĵãĤĮ": 540,
      "ãĤ¦": 541,
      "è«": 542,
      "è¦ģ": 543,
      "ãģĵãģ¨ãģĮ": 544,
      "ãģļ": 545,
      "èĩª": 546,
      "åĳ³": 547,
      "ãĥŀ": 548,
      "å¤ļ": 549,
      "åĢ": 550,
      "è¨ĺ": 551,
      "å·": 552,
      "er": 553,
      "çĤ¹": 554,
      "å¾Į": 555,
      "åº¦": 556,
      "ä¸ĸ": 557,
      "å¼ı": 558,
      "åŁ": 559,
      "ãģ§ãģį": 560,
      "ãĢİ": 561,
      "ãĢı": 562,
      "çŁ": 563,
      "ç¨": 564,
      "åĲį": 565,
      "åĵ": 566,
      "èŃ": 567,
      "ãģĿãģ®": 568,
      "ãģĹãģ¦ãģĦãĤĭ": 569,
      "ãģķãĤĮãģŁ": 570,
      "åİ": 571,
      "ãĤ¹ãĥĪ": 572,
      "ãĥ¡": 573,
      "ä»¥": 574,
      "ãĥ£": 575,
      "ç¾": 576,
      "ãģĿãĤĮ": 577,
      "åľ°": 578,
      "å®Ł": 579,
      "ç¶": 580,
      "ãģ§ãģĻ": 581,
      "ãĥĩ": 582,
      "ãĥ¥": 583,
      "§ĭ": 584,
      "åħ¥": 585,
      "ãĤĮãĤĭ": 586,
      "ãĢģãĢĮ": 587,
      "è»": 588,
      "çµĮ": 589,
      "è¦ĭ": 590,
      "é«": 591,
      "æ´": 592,
      "æľĪ": 593,
      "ãģĮãģĤãĤĭ": 594,
      "ãĥĲ": 595,
      "æĬ": 596,
      "ä½¿": 597,
      "en": 598,
      "çļĦãģª": 599,
      "è¨Ģèªŀ": 600,
      "ç´°": 601,
      "ãĤ¨": 602,
      "ç«ĭ": 603,
      "æĽ¸": 604,
      "ä¾ĭ": 605,
      "éĢļ": 606,
      "çĽ®": 607,
      "æľŁ": 608,
      "é«ĺ": 609,
      "ãĤį": 610,
      "åīį": 611,
      "èĳĹä½ľ": 612,
      "åľ¨": 613,
      "ãĥģ": 614,
      "äºĭ": 615,
      "éļ": 616,
      "ç©": 617,
      "ãģ«ãĤĪãģ£ãģ¦": 618,
      "è³ª": 619,
      "æ¬": 620,
      "æĺİ": 621,
      "th": 622,
      "åĬĽ": 623,
      "ãĥĭ": 624,
      "è«ĸ": 625,
      "æľĢ": 626,
      "ç¬": 627,
      "èĥŀ": 628,
      "an": 629,
      "ãĤµ": 630,
      "ķ·": 631,
      "ãģ£ãģ¦ãģĦãĤĭ": 632,
      "éķ·": 633,
      "ç§ĳ": 634,
      "Ġ\\": 635,
      "ãĥĸ": 636,
      "çī¹": 637,
      "åĳ¼": 638,
      "åŃĹ": 639,
      "æĦıåĳ³": 640,
      "è§£": 641,
      "çĦ": 642,
      "æİ": 643,
      "ãģ»": 644,
      "ç´°èĥŀ": 645,
      "ãĥİ": 646,
      "èĪ": 647,
      "ä¸ĭ": 648,
      "çµĲ": 649,
      "ãĥŁ": 650,
      "ç¾©": 651,
      "ãģªãĤĬ": 652,
      "å¥": 653,
      "ãĤŃ": 654,
      "ãģ«ãģĬ": 655,
      "ãĤīãĤĮãĤĭ": 656,
      "æĮ": 657,
      "ãģ³": 658,
      "æķĻ": 659,
      "åħ¨": 660,
      "éĽ»": 661,
      "æ¥Ń": 662,
      "æ±": 663,
      "00": 664,
      "ä½į": 665,
      "Ġ(": 666,
      "éĢ£": 667,
      "ãģ®ãģ§": 668,
      "ãģĪãĤĭ": 669,
      "æ°ĳ": 670,
      "ãĥĬ": 671,
      "èµ": 672,
      "æ²": 673,
      "ãĤĪãģĨãģª": 674,
      "èĢĥ": 675,
      "ãģ«ãģ¤": 676,
      "å¤ī": 677,
      "å¤ĸ": 678,
      "ç·ļ": 679,
      "è£": 680,
      "ãĤº": 681,
      "ãģ§ãĤĤ": 682,
      "èĥ½": 683,
      "æīĭ": 684,
      "ãģ§ãģĤãĤĬ": 685,
      "ãģªãģ£ãģŁ": 686,
      "æµ": 687,
      "ãģªãģı": 688,
      "åŃĺ": 689,
      "çŁ¥": 690,
      "ãĤ½": 691,
      "é¨": 692,
      "ãĥ¼ãĥ«": 693,
      "åł´åĲĪ": 694,
      "on": 695,
      "å®¶": 696,
      "æ¯": 697,
      "åıĹ": 698,
      "ãĥĳ": 699,
      "æ¬¡": 700,
      "ãĥ¼ãĥī": 701,
      "ç¤¾": 702,
      "æĿ±": 703,
      "è¾": 704,
      "ãĤ¤ãĥ": 705,
      "çĽ¸": 706,
      "ãģ¨ãģ¯": 707,
      "åĨħ": 708,
      "é¡ŀ": 709,
      "æĶ¿": 710,
      "çļĦãģ«": 711,
      "çŃī": 712,
      "ãģ®å¤": 713,
      "éħ": 714,
      "ãĢįãĢĮ": 715,
      "é¨ĵ": 716,
      "ãģ¹": 717,
      "ãģ¨åĳ¼": 718,
      "ãģĳãĤĭ": 719,
      "æ¼": 720,
      "ãĥ³ãĤ°": 721,
      "åİŁ": 722,
      "ç¬¬": 723,
      "at": 724,
      "èĭ": 725,
      "éĸĭ": 726,
      "æŀ": 727,
      "åķıé¡Į": 728,
      "re": 729,
      "ç¶ļ": 730,
      "ç½": 731,
      "ãĤ»": 732,
      "ãģ«ãģ¤ãģĦãģ¦": 733,
      "éĿ¢": 734,
      "æĿ¥": 735,
      "is": 736,
      "æº": 737,
      "ãģ¸": 738,
      "ç®": 739,
      "çķĮ": 740,
      "å¹³": 741,
      "ä¼Ŀ": 742,
      "Ġa": 743,
      "ãĤĴæĮ": 744,
      "è§Ĵ": 745,
      "le": 746,
      "å£": 747,
      "èī": 748,
      "ãĥĥãĤ¯": 749,
      "ä»ĸ": 750,
      "çİ": 751,
      "ãĤĩ": 752,
      "ãģĹãģĦ": 753,
      "åŀ": 754,
      "ãģ¶": 755,
      "ãĥ¼ãĥł": 756,
      "ãģĹãģĭ": 757,
      "çĽ´": 758,
      "ãģ§ãģįãĤĭ": 759,
      "ç³": 760,
      "æ¶": 761,
      "ãģ¾ãģ§": 762,
      "ãĤ¿ãĥ¼": 763,
      "ãĥĶ": 764,
      "ãģ¨ãģį": 765,
      "æĭ": 766,
      "åĪ©": 767,
      "å¿ħ": 768,
      "ãģĵãģ¨ãĤĴ": 769,
      "èª¬": 770,
      "ãģĪãģ°": 771,
      "ãĤ§": 772,
      "ãģ«ãģªãĤĭ": 773,
      "ç½®": 774,
      "ãĥı": 775,
      "æ®": 776,
      "ç´ł": 777,
      "ch": 778,
      "ãĥĻ": 779,
      "æľī": 780,
      "ĴĮ": 781,
      "ãĤĪãĤĬ": 782,
      "åįĺ": 783,
      "Ġ-": 784,
      "äºĮ": 785,
      "ãģĬãĤĬ": 786,
      "©Ł": 787,
      "ç¥": 788,
      "ãĥĹãĥŃ": 789,
      "ãĤĮãģ°": 790,
      "çĶ»": 791,
      "éĩį": 792,
      "ï¼īãĢĤ": 793,
      "æŃ£": 794,
      "å®¹": 795,
      "ãģ«å¯¾": 796,
      "ãĥĥãĥĪ": 797,
      "ä¿Ŀ": 798,
      "ãĤ²": 799,
      "ãģ®ãĤĪãģĨãģ«": 800,
      "æı": 801,
      "åĪ¶": 802,
      "ãģķãĤĮãģ¦ãģĦãĤĭ": 803,
      "ç³»": 804,
      "ãĤ¤ãĥ³": 805,
      "ãĥĵ": 806,
      "ç¨ĭ": 807,
      "âĢ": 808,
      "æħ": 809,
      "ãĥªãĤ¢": 810,
      "åĬł": 811,
      "åŁº": 812,
      "ä¸į": 813,
      "ãģ¨ãģĦãģĨæĦıåĳ³": 814,
      "ç´Ħ": 815,
      "ãĥĢ": 816,
      "åĲĳ": 817,
      "åĪ¥": 818,
      "çľ": 819,
      "å½ĵ": 820,
      "ãĥ¼ãĥĪ": 821,
      "èĭ±": 822,
      "ãĥļ": 823,
      "æĿ¡": 824,
      "åģ": 825,
      "åĴĮ": 826,
      "al": 827,
      "æĸ°": 828,
      "æ¤": 829,
      "Ġ=": 830,
      "ãĤ®": 831,
      "åĮ»": 832,
      "è»į": 833,
      "è¨Ī": 834,
      "ãģ«ãĤĪãĤĭ": 835,
      "æĥ": 836,
      "è¼": 837,
      "ãĥį": 838,
      "åŀĭ": 839,
      "ãģªãĤī": 840,
      "çĶŁçī©": 841,
      "å°ı": 842,
      "ãĤ°ãĥ©": 843,
      "é£": 844,
      "ãĤĢ": 845,
      "§ĺ": 846,
      "åħ¬": 847,
      "ãģĤãģ£ãģŁ": 848,
      "æĪ¦": 849,
      "å¿ľ": 850,
      "ç¢": 851,
      "ãģĦãģ¾ãģĻ": 852,
      "åıĸ": 853,
      "çĶ£": 854,
      "ãģ¨ãĤĤ": 855,
      "æ©Ł": 856,
      "ãģ«ãģĬãģĦãģ¦": 857,
      "ãģĴ": 858,
      "ãĢħ": 859,
      "ãĤıãĤĮ": 860,
      "ãģĿãģ®å": 861,
      "åħ±": 862,
      "ãĤĩãģĨ": 863,
      "çµĦ": 864,
      "æ§ĭ": 865,
      "æ¸Ī": 866,
      "ç¤º": 867,
      "ãģ«ãĤĤ": 868,
      "è©¦": 869,
      "ãĥ§": 870,
      "or": 871,
      "ãģ¨ãģĻãĤĭ": 872,
      "çµ±": 873,
      "æĻĤä»£": 874,
      "ãĥ¢": 875,
      "æ°Ĺ": 876,
      "è¿°": 877,
      "éģİ": 878,
      "ar": 879,
      "ãģ®åĲ": 880,
      "èĳĹä½ľæ¨©": 881,
      "ä¾¡": 882,
      "å¢": 883,
      "æīĢ": 884,
      "çµĮæ¸Ī": 885,
      "éĽĨ": 886,
      "10": 887,
      "es": 888,
      "è¿ĳ": 889,
      "ä¹": 890,
      "éļĽ": 891,
      "åĤ": 892,
      "ãģ®ä¸Ń": 893,
      "æ´»": 894,
      "åŃĺåľ¨": 895,
      "ç¯": 896,
      "åĪĿ": 897,
      "å¾Ĺ": 898,
      "èĪ¬": 899,
      "ãĥĿ": 900,
      "éĩı": 901,
      "æł¼": 902,
      "æ§ĺ": 903,
      "ç¢º": 904,
      "å¤ļãģı": 905,
      "ãģ¾ãĤĬ": 906,
      "ç´Ģ": 907,
      "ç§°": 908,
      "om": 909,
      "åĭķè©ŀ": 910,
      "Ġb": 911,
      "Ġs": 912,
      "łĶ": 913,
      "ä¸ĢèĪ¬": 914,
      "ãģłãģĳ": 915,
      "ç©¶": 916,
      "ou": 917,
      "ä¿Ĥ": 918,
      "è©±": 919,
      "è±": 920,
      "ãģ¨ãģªãĤĭ": 921,
      "æĸĩåŃĹ": 922,
      "Ġãģ¯": 923,
      "ãĤ±": 924,
      "æ°´": 925,
      "æĹ¥æľ¬èªŀ": 926,
      "å¿ĥ": 927,
      "ä¸ī": 928,
      "åıį": 929,
      "Ĭ¶": 930,
      "åħĥ": 931,
      "åĵģ": 932,
      "å¸¸": 933,
      "å¿ħè¦ģ": 934,
      "ä¸ĸçķĮ": 935,
      "²åŃ¦": 936,
      "å¹´ãģ«": 937,
      "ãĥ³ãĥĪ": 938,
      "çĦ¡": 939,
      "ãĤĴæĮģ": 940,
      "ãģĶ": 941,
      "ï¼īãĢģ": 942,
      "ãģĹãģĭãģĹ": 943,
      "ãģ®åĪ": 944,
      "ãģ«ãĤĪãĤĬ": 945,
      "ãģ²": 946,
      "æł¡": 947,
      "ãĤĤãģĤãĤĭ": 948,
      "è¦ı": 949,
      "éĩĳ": 950,
      "åĽŀ": 951,
      "ãĥ³ãĥī": 952,
      "åĲĮãģĺ": 953,
      "æ²»": 954,
      "åĮĹ": 955,
      "łĶç©¶": 956,
      "éģ¸": 957,
      "å¼·": 958,
      "éĻĲ": 959,
      "ãģĻãĤĭãģĵãģ¨": 960,
      "ç®Ĺ": 961,
      "ãģķãĤĮãģ¦": 962,
      "èĦ": 963,
      "Ġãģ®": 964,
      "ãĥªãĥ¼": 965,
      "ç¥ŀ": 966,
      "åŁŁ": 967,
      "ç¤¾ä¼ļ": 968,
      "ç¿": 969,
      "ãĤģãĤĭ": 970,
      "çİĩ": 971,
      "200": 972,
      "åı¤": 973,
      "ãĤ¬": 974,
      "åĽ³": 975,
      "èī²": 976,
      "ä»ĺ": 977,
      "åı·": 978,
      "åı¯": 979,
      "èµ·": 980,
      "åł": 981,
      "ãĤ¯ãĥ©": 982,
      "æŀľ": 983,
      "Ġ1": 984,
      "éĢł": 985,
      "äº¤": 986,
      "çķ°": 987,
      "ãĢģ'": 988,
      "ãģ«éĸ¢": 989,
      "Ġt": 990,
      "ãģ®åħ": 991,
      "éħį": 992,
      "ç¨®": 993,
      "èģ": 994,
      "éĢ²": 995,
      "ãĤªãĥ¼": 996,
      "ic": 997,
      "ãģ®æķ": 998,
      "èĤ": 999,
      "Ġth": 1000,
      "è±¡": 1001,
      "ãĥľ": 1002,
      "çĶ±": 1003,
      "ãĥķãĤ": 1004,
      "ãģ®å®": 1005,
      "ãĤ¢ãĥ«": 1006,
      "Ġï¼Ī": 1007,
      "éģĭ": 1008,
      "çµĤ": 1009,
      "ãĥĶãĤ¢": 1010,
      "ãĤ²ãĥ¼ãĥł": 1011,
      "éģĵ": 1012,
      "åĢĭ": 1013,
      "æħĭ": 1014,
      "ãģĭãģ£ãģŁ": 1015,
      "èĢĥãģĪ": 1016,
      "ãģķãģĽ": 1017,
      "ãģŁãģ¨": 1018,
      "18": 1019,
      "ãģŀ": 1020,
      "å¤§ãģį": 1021,
      "åįĬ": 1022,
      "å·¥": 1023,
      "èĭ±èªŀ": 1024,
      "é¤": 1025,
      "è¨Ń": 1026,
      "æĹı": 1027,
      "å°ĳ": 1028,
      "éĸ¢ä¿Ĥ": 1029,
      "ä¸ĸç´Ģ": 1030,
      "ãģĮãģĤãĤĬ": 1031,
      "åı²": 1032,
      "ä¸»ç¾©": 1033,
      "ra": 1034,
      "è¥": 1035,
      "ãĥ©ãĥ³": 1036,
      "å°İ": 1037,
      "åĵ²åŃ¦": 1038,
      "ma": 1039,
      "æŁ": 1040,
      "ãĤıãĤĮãĤĭ": 1041,
      "Ġc": 1042,
      "ãģ®ä¸Ģ": 1043,
      "èĳī": 1044,
      "ãģ®åł´": 1045,
      "å¤ļãģĦ": 1046,
      "å»": 1047,
      "çĭ": 1048,
      "åĥ": 1049,
      "çĬ¶": 1050,
      "ãĤīãĤĮãģŁ": 1051,
      "è¶": 1052,
      "ãĤ¶": 1053,
      "ãģªãģ©ãģ®": 1054,
      "éĽ£": 1055,
      "ãĥ¼ãĤ¿": 1056,
      "åĲ«": 1057,
      "è¡ĵ": 1058,
      "çĶ¨ãģĦ": 1059,
      "èªį": 1060,
      "å¡": 1061,
      "ä¸ĩ": 1062,
      "ãģ®å½": 1063,
      "ãģ®åı": 1064,
      "èª¿": 1065,
      "ãģĽãĤĵ": 1066,
      "æİ¥": 1067,
      "æµģ": 1068,
      "ãĥĶãĤ¢ãĥİ": 1069,
      "çĦ¶": 1070,
      "æľĿ": 1071,
      "Ļ¨": 1072,
      "ãĤ´": 1073,
      "éĥ½": 1074,
      "è¡¨çı¾": 1075,
      "èŃ·": 1076,
      "éĩİ": 1077,
      "èŃĺ": 1078,
      "ãĤ¤ãĥĦ": 1079,
      "èº": 1080,
      "ãĤ·ãĥ§": 1081,
      "è¥¿": 1082,
      "ri": 1083,
      "ãģĵãģĵ": 1084,
      "éłĺ": 1085,
      "æ¯Ķ": 1086,
      "éĮ": 1087,
      "ãģĦãģı": 1088,
      "ãĥªãĤ«": 1089,
      "ãģ®ãģ¯": 1090,
      "¤ĩ": 1091,
      "ãģªãģ£ãģ¦ãģĦãĤĭ": 1092,
      "èªŃ": 1093,
      "æĢĿ": 1094,
      "ï¼Ŀ": 1095,
      "åı¯èĥ½": 1096,
      "ãĥīãĤ¤ãĥĦ": 1097,
      "ãĥ¼ãĤ¸": 1098,
      "åıĤ": 1099,
      "æ±º": 1100,
      "ãĥĪãĥ«": 1101,
      "å°Ĩ": 1102,
      "æ¶Ī": 1103,
      "åĻ¨": 1104,
      "ç²": 1105,
      "ä½ķ": 1106,
      "ãģĵãĤĮãģ¯": 1107,
      "ç¿Ĵ": 1108,
      "æĸĩåĮĸ": 1109,
      "ãģĵãĤĮãĤī": 1110,
      "ãĥ¼ãĤ¹": 1111,
      "åīĩ": 1112,
      "ãĥģãĥ£": 1113,
      "åł±": 1114,
      "el": 1115,
      "ãĥ¨": 1116,
      "ãģ®åł´åĲĪ": 1117,
      "åºĥ": 1118,
      "çı¾åľ¨": 1119,
      "ãģİ": 1120,
      "ãĤĴçĶ¨": 1121,
      "ãģĹãĤĩãģĨ": 1122,
      "ãĤĮãģŁ": 1123,
      "äº¬": 1124,
      "æĬĢ": 1125,
      "Ġp": 1126,
      "ãģĿãĤĮãģŀ": 1127,
      "ãģĿãĤĮãģŀãĤĮ": 1128,
      "ãģ¥": 1129,
      "ãĤĴè¡Į": 1130,
      "ãģ®åĽ": 1131,
      "åĳ½": 1132,
      "é¦": 1133,
      "ãĥĴ": 1134,
      "å¤§åŃ¦": 1135,
      "ãģªãģĬ": 1136,
      "ä¿¡": 1137,
      "ãĥ¯": 1138,
      "ãģ«ãģĤãĤĭ": 1139,
      "å±±": 1140,
      "ç¹": 1141,
      "çłĶç©¶": 1142,
      "è¤ĩ": 1143,
      "ãģªãģ£ãģ¦": 1144,
      "Ġd": 1145,
      "åħī": 1146,
      "ãĥ¼ãĥŃ": 1147,
      "ä½¿çĶ¨": 1148,
      "ãĤªãĥ¼ãĤ¹ãĥĪ": 1149,
      "12": 1150,
      "æĺĵ": 1151,
      "Ġm": 1152,
      "ãĥĹãĥŃãĤ°ãĥ©": 1153,
      "ä¸İ": 1154,
      "åĦ": 1155,
      "å¼ķ": 1156,
      "ãĥĨãĤ£": 1157,
      "èµ¤": 1158,
      "æ¤ľ": 1159,
      "ãģŁãģ¨ãģĪãģ°": 1160,
      "ÃĹ": 1161,
      "ãĥªãĤ¹": 1162,
      "ãĤĵãģ§": 1163,
      "éŁ¿": 1164,
      "oo": 1165,
      "éģº": 1166,
      "åºľ": 1167,
      "ãģ®èĳ": 1168,
      "åĢ¤": 1169,
      "æ´¾": 1170,
      "ç¸": 1171,
      "ãģĻãĤĭãģ¨": 1172,
      "ä¿ĿèŃ·": 1173,
      "it": 1174,
      "ãģ®ãĤĪãģĨãģª": 1175,
      "ãģ§ãģĤãģ£ãģŁ": 1176,
      "èŃ°": 1177,
      "æĮĩ": 1178,
      "åĮ»åŃ¦": 1179,
      "èº«": 1180,
      "Ġãģ¨": 1181,
      "ãģŁãĤģãģ«": 1182,
      "çµĲæŀľ": 1183,
      "åģ´": 1184,
      "st": 1185,
      "å¸Ĥ": 1186,
      "æ¥½": 1187,
      "è¾º": 1188,
      "å§ĭ": 1189,
      "ãĤ¢ãĥ¡": 1190,
      "ãģ©ãģĨ": 1191,
      "ãģĬãĤĪ": 1192,
      "å¼µ": 1193,
      "èĬ": 1194,
      "ãĥĦ": 1195,
      "ãĤĴåıĹ": 1196,
      "ãĥĩãĤ£": 1197,
      "éģĶ": 1198,
      "ãģ®å¤§": 1199,
      "ï¼ļ": 1200,
      "ãĤīãĤĮãģ¦ãģĦãĤĭ": 1201,
      "ç§»": 1202,
      "æĭį": 1203,
      "ãĤħ": 1204,
      "éĢŁ": 1205,
      "è²»": 1206,
      "ãģĹãģªãģĦ": 1207,
      "ãĢįï¼Ī": 1208,
      "ãĥĨãĤ¹": 1209,
      "æµ·": 1210,
      "ãģķãĤī": 1211,
      "ãĥªãĥ³": 1212,
      "ç´¢": 1213,
      "çī©è³ª": 1214,
      "197": 1215,
      "Ġl": 1216,
      "ãģĹãģı": 1217,
      "ãģĹãģ¾ãģĻ": 1218,
      "ãģŁãģł": 1219,
      "ãģ¨åĳ¼ãģ°": 1220,
      "ãĤ³ãĥ³ãĥ": 1221,
      "éĥ¨åĪĨ": 1222,
      "æĥħ": 1223,
      "Ġw": 1224,
      "Ħı": 1225,
      "ãģ®åŃ": 1226,
      "éĢģ": 1227,
      "åĪ¤": 1228,
      "ãģ®æĻ": 1229,
      "ãĤ¤ãĥ©": 1230,
      "åĽ²": 1231,
      "åĲįè©ŀ": 1232,
      "çĭ¬": 1233,
      "¾Į": 1234,
      "å±ķ": 1235,
      "Ġh": 1236,
      "äºī": 1237,
      "ãĤ¹ãĤ¿": 1238,
      "ãĤģãģ¦": 1239,
      "ä¸ŃåĽ½": 1240,
      "é£Ł": 1241,
      "åŃ¦æł¡": 1242,
      "ing": 1243,
      "ãģŃ": 1244,
      "ãĤįãģĨ": 1245,
      "ãģĳãģ¦": 1246,
      "åĵ¡": 1247,
      "ãģ®èĳĹä½ľ": 1248,
      "ãĥ´": 1249,
      "æĽ²": 1250,
      "åİ»": 1251,
      "ãĤ¢ãĥ¡ãĥªãĤ«": 1252,
      "ãģ¨ãģªãģ£ãģŁ": 1253,
      "ãĥĻãĥ«": 1254,
      "ro": 1255,
      "ä¸¡": 1256,
      "åī²": 1257,
      "ãģ«ãģĬãģĳãĤĭ": 1258,
      "æ¶²": 1259,
      "è¦³": 1260,
      "åĨĨ": 1261,
      "æ¼¢": 1262,
      "ãģ¨è¨Ģ": 1263,
      "å½¼": 1264,
      "ãĤ·ãĤ¢": 1265,
      "è·": 1266,
      "Ġo": 1267,
      "ãģµ": 1268,
      "éĿŀ": 1269,
      "é¤¨": 1270,
      "ãĤ·ãĥ§ãĥ³": 1271,
      "éģķ": 1272,
      "ãģ¾ãģŁãģ¯": 1273,
      "ãģ¨åĳ¼ãģ¶": 1274,
      "è§Ĵå½¢": 1275,
      "ãģ®åĢ": 1276,
      "è¡¨ãģĻ": 1277,
      "ĠãĤĴ": 1278,
      "ãģ¼": 1279,
      "çŃĸ": 1280,
      "âĢ»": 1281,
      "å¢Ĺ": 1282,
      "se": 1283,
      "ãģ®åĲį": 1284,
      "ãĤĭãģ¨": 1285,
      "ãģ®åį": 1286,
      "è¦ļ": 1287,
      "æ¨Ļ": 1288,
      "ãĤªãĥ¼ãĤ¹ãĥĪãĥªãĤ¢": 1289,
      "AI": 1290,
      "å¤īåĮĸ": 1291,
      "ãģĬãĤĪãģ³": 1292,
      "ï½": 1293,
      "ä½İ": 1294,
      "Ġy": 1295,
      "éĻį": 1296,
      "éĮ²": 1297,
      "èĨ": 1298,
      "ä»Ĭ": 1299,
      "å®ī": 1300,
      "ä¸Ģæĸ¹": 1301,
      "å¸Ŀ": 1302,
      "ä»®": 1303,
      "ãģ®æķ°": 1304,
      "ãģªãģĭãģ£ãģŁ": 1305,
      "ãģĹãģ¦ãģĦãģŁ": 1306,
      "è³ĩ": 1307,
      "ãģ«å¯¾ãģĹãģ¦": 1308,
      "Ġf": 1309,
      "ãĤ¹ãĥ©": 1310,
      "ãģ§ãģ¯ãģªãģı": 1311,
      "ä¾ĭãģĪãģ°": 1312,
      "çī¹ãģ«": 1313,
      "ãĤ¯ãĥ©ãĥĨãĤ¹": 1314,
      "15": 1315,
      "åıĬ": 1316,
      "ãģłãģĮ": 1317,
      "ed": 1318,
      "ion": 1319,
      "ot": 1320,
      "ãģĵãģĨ": 1321,
      "å¹´ä»£": 1322,
      "ãģ®çĻ": 1323,
      "ãģ®æĻĤ": 1324,
      "å³": 1325,
      "ãģ¨ãģ®": 1326,
      "ãģķãģĦ": 1327,
      "ãģķãĤĵ": 1328,
      "ãģĪãģ¦": 1329,
      "çķª": 1330,
      "ãģ®å¼": 1331,
      "çŁ³": 1332,
      "æºĸ": 1333,
      "ãģĵãĤį": 1334,
      "åĪĩ": 1335,
      "ãĤ¢ãĤ¯": 1336,
      "ãģ¨ãģĦãģ£ãģŁ": 1337,
      "ãĤıãģĽ": 1338,
      "and": 1339,
      "ãģ®ãģ¿": 1340,
      "ä»¶": 1341,
      "åıİ": 1342,
      "åħĪ": 1343,
      "ãģ¨ãģĹãģ¦ãģ¯": 1344,
      "ãĤ¸ãĥ£": 1345,
      "æľŁéĸĵ": 1346,
      "ãĤ½ãĤ¯ãĥ©ãĥĨãĤ¹": 1347,
      "åĪ©çĶ¨": 1348,
      "åŃĺåľ¨ãģĻãĤĭ": 1349,
      "Ġthe": 1350,
      "æ·": 1351,
      "ãĥĥãĥĳ": 1352,
      "çŃĶ": 1353,
      "åĲĦ": 1354,
      "å¿µ": 1355,
      "çĽ´ç·ļ": 1356,
      "ãģ§ãģ¯ãģªãģĦ": 1357,
      "åįĹ": 1358,
      "£ģ": 1359,
      "ãģ¾ãģĹãģŁ": 1360,
      "æŃ»": 1361,
      "çľĮ": 1362,
      "éģĭåĭķ": 1363,
      "å°Ĩè»į": 1364,
      "ä½ı": 1365,
      "ä»ķ": 1366,
      "åıĸãĤĬ": 1367,
      "±éŁ¿": 1368,
      "æĴ": 1369,
      "ãĥ¦": 1370,
      "åĪĹ": 1371,
      "æĶ¾": 1372,
      "ç§ĳåŃ¦": 1373,
      "æĮģ": 1374,
      "ãģķãĤīãģ«": 1375,
      "æ¿": 1376,
      "ãģĸ": 1377,
      "ãģ®åī": 1378,
      "ä»¥ä¸Ĭ": 1379,
      "ent": 1380,
      "¦Ĥ": 1381,
      "ãĤĮãģ¦": 1382,
      "åı£": 1383,
      "199": 1384,
      "ä½įç½®": 1385,
      "ç¯Ģ": 1386,
      "ãĥ¨ãĥ¼ãĥŃ": 1387,
      "ãĥ¨ãĥ¼ãĥŃãĥĥãĥĳ": 1388,
      "å¤·": 1389,
      "ãģįãģŁ": 1390,
      "æ¼Ķ": 1391,
      "éĩįè¦ģ": 1392,
      "ãĥķãĤ¡": 1393,
      "ãģĿãģĹãģ¦": 1394,
      "æĪ¸": 1395,
      "è£½": 1396,
      "å¡ļ": 1397,
      "ãģ«åĪĨ": 1398,
      "è¨Ģèĳī": 1399,
      "æł¸": 1400,
      "å·ŀ": 1401,
      "èª¬æĺİ": 1402,
      "éģºä¼Ŀ": 1403,
      "ãģĲ": 1404,
      "ãĢľ": 1405,
      "éĸ¢æķ°": 1406,
      "å®¹è©ŀ": 1407,
      "ãģĹãģ°": 1408,
      "ãĥ¼ãĤ¯": 1409,
      "ãģ¤ãģ¾ãĤĬ": 1410,
      "ãĥĥãĥĹ": 1411,
      "éĽ¢": 1412,
      "ĠãģĮ": 1413,
      "æĸŃ": 1414,
      "åľŁ": 1415,
      "ãģŁãģłãģĹ": 1416,
      "ãĤĴãĤĤ": 1417,
      "ãĥ¼ãĥ³": 1418,
      "ãĤĵãģł": 1419,
      "ãģªãĤĬãģ¾ãģĻ": 1420,
      "æ¯į": 1421,
      "rac": 1422,
      "il": 1423,
      "ç±": 1424,
      "çīĪ": 1425,
      "ç£ģ": 1426,
      "ĠA": 1427,
      "åĮº": 1428,
      "ãĤ·ãĥ¥": 1429,
      "èĳĹä½ľçī©": 1430,
      "ãģ®ãģĨ": 1431,
      "ãģĦãģ¯": 1432,
      "ãģĦãģªãģĦ": 1433,
      "ãĤıãĤĬ": 1434,
      "ãĤ·ãĥ£": 1435,
      "èĩªçĦ¶": 1436,
      "æ¤į": 1437,
      "ãĤħãģĨ": 1438,
      "ãģ®çĻº": 1439,
      "âĶ": 1440,
      "ãģ®æŃ": 1441,
      "éłħ": 1442,
      "ä»¥éĻį": 1443,
      "ãģ¹ãģ¦": 1444,
      "è¨Īç®Ĺ": 1445,
      "em": 1446,
      "ãģĻãĤĭãģĵãģ¨ãģĮ": 1447,
      "æºĲ": 1448,
      "èī¯": 1449,
      "éģİåİ»": 1450,
      "ãĥĪãĥ«ãĤ³": 1451,
      "å§": 1452,
      "è¨¼": 1453,
      "æĥ³": 1454,
      "ãģ®å½¢": 1455,
      "å³¶": 1456,
      "åĸ": 1457,
      "ãĥ³ãĤ¿ãĥ¼": 1458,
      "ãĥªãĤ¹ãĥĪ": 1459,
      "16": 1460,
      "ãģĮåĩº": 1461,
      "ãĤ¤ãĥĪ": 1462,
      "æĸĩæ³ķ": 1463,
      "198": 1464,
      "çı¾ä»£": 1465,
      "ãģ»ãģĭ": 1466,
      "ãģ¤ãģ®": 1467,
      "ãĥ¬ãĥ³": 1468,
      "å±ŀ": 1469,
      "Ħıåĳ³": 1470,
      "å®Į": 1471,
      "æŃ¢": 1472,
      "et": 1473,
      "ãģĵãģ¨ãģ¯": 1474,
      "æĺł": 1475,
      "è²¡": 1476,
      "Ġ2": 1477,
      "ãģĿãģĨ": 1478,
      "æĸ¹æ³ķ": 1479,
      "æĿ¡ç´Ħ": 1480,
      "ç¥ŀçµĮ": 1481,
      "Ġin": 1482,
      "ãģ¾ãģĽãĤĵ": 1483,
      "ãģłãĤįãģĨ": 1484,
      "éĽ»åŃĲ": 1485,
      "ãģªãģ©ãģĮ": 1486,
      "éłĨ": 1487,
      "ç©į": 1488,
      "Ŀ¦": 1489,
      "æĻĤéĸĵ": 1490,
      "å±¤": 1491,
      "ä»¥ä¸ĭ": 1492,
      "èĤ²": 1493,
      "çħ": 1494,
      "ãģ¤ãģĭ": 1495,
      "ç©º": 1496,
      "è©¦é¨ĵ": 1497,
      "èµ·ãģĵ": 1498,
      "çķ°ãģªãĤĭ": 1499,
      "ãģ«éĸ¢ãģĻãĤĭ": 1500,
      "éģ©": 1501,
      "ãģĳãģŁ": 1502,
      "ãĤĴæĮģãģ¤": 1503,
      "ãĤĴä½ľ": 1504,
      "æ±Ł": 1505,
      "å£²": 1506,
      "ve": 1507,
      "ãģ®åĨ": 1508,
      "ä»»": 1509,
      "è¦ĸ": 1510,
      "æĸ¹è¨Ģ": 1511,
      "çĲĨåŃ¦": 1512,
      "ãģĵãģ®ãĤĪãģĨãģª": 1513,
      "Ġof": 1514,
      "ol": 1515,
      "ver": 1516,
      "æ»": 1517,
      "Ġn": 1518,
      "Ġis": 1519,
      "ãĤ¹ãĥĨ": 1520,
      "ãģĪãģŁ": 1521,
      "202": 1522,
      "å¥³": 1523,
      "æ±Ĥ": 1524,
      "æ§ĭéĢł": 1525,
      "å¸ĿåĽ½": 1526,
      "Ŀ¦å¤·": 1527,
      "´åı²": 1528,
      "åĶ": 1529,
      "Ġ+": 1530,
      "ãĤĴä½¿": 1531,
      "ãģ®æĪ": 1532,
      "æĸ¹ç¨ĭ": 1533,
      "ç«ł": 1534,
      "æĸ¹ç¨ĭå¼ı": 1535,
      "ãģ®äºº": 1536,
      "å®ŁéļĽ": 1537,
      "ãĤĨ": 1538,
      "ãĢĤãĢį": 1539,
      "ãģĵãģ¨ãĤĤ": 1540,
      "ä¼¼": 1541,
      "æĦŁ": 1542,
      "ãģ®åĪĨ": 1543,
      "æ¤ľç´¢": 1544,
      "ĠI": 1545,
      "æĸĻ": 1546,
      "åĽĽ": 1547,
      "éģ¸æĬ": 1548,
      "ãģ¨åĳ¼ãģ°ãĤĮãĤĭ": 1549,
      "æĥħåł±": 1550,
      "frac": 1551,
      "ãģ®ãģĭ": 1552,
      "ï¼Ł": 1553,
      "åħļ": 1554,
      "ãĤģãģŁ": 1555,
      "èĢħãģĮ": 1556,
      "ãĥķãĤ£": 1557,
      "è¨ĺåı·": 1558,
      "Ġg": 1559,
      "Ġâ": 1560,
      "åĽ£": 1561,
      "ç¬¦": 1562,
      "ãģ«ãģ¤ãģĦãģ¦ãģ¯": 1563,
      "11": 1564,
      "eg": 1565,
      "im": 1566,
      "la": 1567,
      "ãģ®åĭ": 1568,
      "ãĤıãĤĭ": 1569,
      "çĲĥ": 1570,
      "æĶ¹": 1571,
      "èµ¤å¡ļ": 1572,
      "æģ": 1573,
      "èı": 1574,
      "ãģłãģ£ãģŁ": 1575,
      "åĮĸåŃ¦": 1576,
      "ãĥĭãĤ¢": 1577,
      "åİŁåŃĲ": 1578,
      "æ´»åĭķ": 1579,
      "åı³": 1580,
      "ãĥĪãĥª": 1581,
      "æ±ŁæĪ¸": 1582,
      "ãģ®æĶ": 1583,
      "èĨľ": 1584,
      "ãģ«ãģªãģ£ãģŁ": 1585,
      "ãĥĩãĥ¼ãĤ¿": 1586,
      "æļ": 1587,
      "ãĤĮãģ¦ãģĦãĤĭ": 1588,
      "ãĥ«ãĤ¯": 1589,
      "åĭĻ": 1590,
      "ä»¥å¤ĸ": 1591,
      "è¼ī": 1592,
      "ãģ®åĽ½": 1593,
      "14": 1594,
      "17": 1595,
      "100": 1596,
      "ĠS": 1597,
      "åĬ¹": 1598,
      "èĢħãģ¯": 1599,
      "ç¨ĭåº¦": 1600,
      "åŁºæľ¬": 1601,
      "çħ§": 1602,
      "éĸĢ": 1603,
      "ä¸Ńå¿ĥ": 1604,
      "æ¥µ": 1605,
      "ãģĿãģ®å¾Į": 1606,
      "æ¦Ĥ": 1607,
      "ãĥĽ": 1608,
      "ãĤĴéĢļ": 1609,
      "æķ°åŃ¦": 1610,
      "ãĤ¦ãĤ£": 1611,
      "åľ°æĸ¹": 1612,
      "éħ¸": 1613,
      "ãģªãģĮ": 1614,
      "ãģ®å¯": 1615,
      "ãģ®åķ": 1616,
      "ãģ®åľ": 1617,
      "ãĤ¤ãĥ«": 1618,
      "ãģĵãģ¨ãģ§": 1619,
      "çĻĤ": 1620,
      "ç²¾": 1621,
      "ç±³": 1622,
      "ig": 1623,
      "ãģ®éŁ³": 1624,
      "ãģ¨ãģªãĤĬ": 1625,
      "æľ«": 1626,
      "è¦ª": 1627,
      "ãģĹãģŁãģĮ": 1628,
      "ä¸īè§Ĵå½¢": 1629,
      "ãģ®å°": 1630,
      "å®ĺ": 1631,
      "èªŀãģ¯": 1632,
      "ãĥ¼ãĥĹ": 1633,
      "åįģ": 1634,
      "éłŃ": 1635,
      "Ġãģ«": 1636,
      "ãĢĤãĢĮ": 1637,
      "ãĤīãģĭ": 1638,
      "ãĤĪãģı": 1639,
      "è©ķ": 1640,
      "ãĤ¦ãĥł": 1641,
      "ç®¡": 1642,
      "çĶ¨ãģĦãĤīãĤĮãĤĭ": 1643,
      "}{": 1644,
      "ãģ®æĸĩ": 1645,
      "ãģ®ãģĵãģ¨ãĤĴ": 1646,
      "ãģ®æī": 1647,
      "ãĤ¤ãĥ³ãĥ": 1648,
      "ä½ľåĵģ": 1649,
      "åĬ©": 1650,
      "æĻ¶": 1651,
      "åĨį": 1652,
      "ãģĵãĤĮãĤĴ": 1653,
      "ç¶ļãģį": 1654,
      "ãĢĤï¼Ī": 1655,
      "ãģĹãģ¾": 1656,
      "ãĥĹãĥ¬": 1657,
      "ãģ®è§": 1658,
      "è¡¨è¨ĺ": 1659,
      "ãĤ¦ãĤ§": 1660,
      "ãĥŀãĥ³": 1661,
      "é«ĺãģĦ": 1662,
      "am": 1663,
      "os": 1664,
      "ç«¯": 1665,
      "ç·ı": 1666,
      "å¾Įãģ«": 1667,
      "ãģ®å¤ī": 1668,
      "è¶³": 1669,
      "èĿ¦å¤·": 1670,
      "ãĤĴãģ¤": 1671,
      "å¤©": 1672,
      "è¨³": 1673,
      "ãĥ¼ãĥŀ": 1674,
      "åķĨ": 1675,
      "ãģ»ãģ©": 1676,
      "éĤ": 1677,
      "ãĤ¤ãĥ©ãĤ¯": 1678,
      "é»": 1679,
      "ä¿®": 1680,
      "ãĢıï¼Ī": 1681,
      "æıĽ": 1682,
      "çĶŁçī©åŃ¦": 1683,
      "çª": 1684,
      "ĦåĽ²": 1685,
      "ĨĴ": 1686,
      "ãģ®éĸĵ": 1687,
      "å¾´": 1688,
      "éĻ¸": 1689,
      "ct": 1690,
      "ãĤ¼": 1691,
      "å½¹": 1692,
      "ãĤĴæ±": 1693,
      "æ³¨": 1694,
      "éĻ¤": 1695,
      "ç·¨": 1696,
      "ãĤĴè¦ĭ": 1697,
      "ãģ®åĮ": 1698,
      "çļĦãģ«ãģ¯": 1699,
      "å¼¦": 1700,
      "å½¢å®¹è©ŀ": 1701,
      "å¥ı": 1702,
      "å¢ĥ": 1703,
      "åĥį": 1704,
      "30": 1705,
      "éĬ": 1706,
      "ãģ®ãģĮ": 1707,
      "è¡ĮãĤıãĤĮ": 1708,
      "è¨ĺè¿°": 1709,
      "åľ°åŁŁ": 1710,
      "èĪĪ": 1711,
      "ãĥŁãĥ³ãĤ°": 1712,
      "çľŁ": 1713,
      "çµĦãģ¿": 1714,
      "å¸¸ãģ«": 1715,
      "ãģ®ãģĵãģ¨": 1716,
      "ãĤĴæİ": 1717,
      "ãģ®çŁ": 1718,
      "èĩªçĶ±": 1719,
      "æ°ĳæĹı": 1720,
      "æĬĢè¡ĵ": 1721,
      "ç¹Ķ": 1722,
      "de": 1723,
      "éĺ": 1724,
      "ãģĹãģ¦ãģĬãĤĬ": 1725,
      "ãģĳãĤĮãģ°": 1726,
      "åĪĨåŃĲ": 1727,
      "åĳĬ": 1728,
      "ä¼ģ": 1729,
      "ä½ĵãģĮ": 1730,
      "ãĤīãĤĮãģ¦": 1731,
      "åĲĮæ§ĺ": 1732,
      "éķ·ãģķ": 1733,
      "ç§ĳæĽ¸": 1734,
      "ãģķãģĽãĤĭ": 1735,
      "ãģ§ãģ®": 1736,
      "ãģĭãĤĬ": 1737,
      "èĩªåĪĨ": 1738,
      "åıĹé¨ĵ": 1739,
      "50": 1740,
      "Ġ/": 1741,
      "åĪĨéĩİ": 1742,
      "éĿ©": 1743,
      "æ´ĭ": 1744,
      "ãĥĭãĥ¥": 1745,
      "çİĭ": 1746,
      "ãģ²ãģ¨": 1747,
      "çĬ¶æħĭ": 1748,
      "ãĥ¼ãĤ·ãĥ§ãĥ³": 1749,
      "åħ¸": 1750,
      "åįł": 1751,
      "çĻºçĶŁ": 1752,
      "å·Ŀ": 1753,
      "çĽ®çļĦ": 1754,
      "æľĢãĤĤ": 1755,
      "ä¿ĿèŃ·æľŁéĸĵ": 1756,
      "çĿ": 1757,
      "ãĥĺ": 1758,
      "ãĢģãĢİ": 1759,
      "å¹ķ": 1760,
      "ãĥ©ãĤ¤": 1761,
      "åĽ½æ°ĳ": 1762,
      "ãĥ³ãĥĹ": 1763,
      "æĸ¹å¼ı": 1764,
      "ãĤĪãģĨãģ«ãģªãģ£ãģŁ": 1765,
      "æĿ±äº¬": 1766,
      "ãĥĹãĥŃãĤ°ãĥ©ãĥŁãĥ³ãĤ°": 1767,
      "ãģ®ãģĨãģ¡": 1768,
      "ãģĦãģĨ": 1769,
      "ãĤĴåĲ«": 1770,
      "ãĤīãģļ": 1771,
      "å¤±": 1772,
      "ãĤĵãģ©": 1773,
      "ç§ģ": 1774,
      "èĥļ": 1775,
      "åĢį": 1776,
      "æĮĻ": 1777,
      "æĶ¿æ²»": 1778,
      "ãĥįãĥ«": 1779,
      "æ»ħ": 1780,
      "AB": 1781,
      "¿æĺĵ": 1782,
      "ãģ¨ãģĵãĤį": 1783,
      "ãģªãģ®ãģ§": 1784,
      "å¹´ãģ®": 1785,
      "çĶ¨èªŀ": 1786,
      "æī±": 1787,
      "ãģĵãģ®ãĤĪãģĨãģ«": 1788,
      "èĳĹä½ľèĢħ": 1789,
      "è¼¸": 1790,
      "åħ±éĢļ": 1791,
      "un": 1792,
      "ãģĭãģ¤": 1793,
      "ãģ®æĦıåĳ³": 1794,
      "çĽ¤": 1795,
      "æĻ®": 1796,
      "ä¸»å¼µ": 1797,
      "èģŀ": 1798,
      "ãĥ©ãĥ³ãĤ¹": 1799,
      "ab": 1800,
      "çĨ": 1801,
      "éī": 1802,
      "ãģ®æĿ": 1803,
      "ãģ§ãģĤãĤĭãģĮ": 1804,
      "åĽ½å®¶": 1805,
      "ãĥķãĤ©": 1806,
      "ãģ®åķı": 1807,
      "æĤ": 1808,
      "çĸ": 1809,
      "ãģ«åħ¥": 1810,
      "ãģ§ãģĤ": 1811,
      "äºĪ": 1812,
      "ãĤ¯ãĥŃ": 1813,
      "çĻ½": 1814,
      "ãĤ¸ãĤ¢": 1815,
      "è«¸": 1816,
      "è»¢": 1817,
      "ãģ»ãģ¨": 1818,
      "æ®µ": 1819,
      "ãģ¨ãģĦãģĨæĦıåĳ³ãģ§ãģĤãĤĭ": 1820,
      "éĢŁåº¦": 1821,
      "æ¤įçī©": 1822,
      "ãģ®å¯¾": 1823,
      "é³": 1824,
      "ãĤ¢ãĤ¤": 1825,
      "å½±éŁ¿": 1826,
      "å±ĭ": 1827,
      "åĥı": 1828,
      "as": 1829,
      "ãĢĤï¼ī": 1830,
      "ãģ¨ãģªãģ£ãģ¦ãģĦãĤĭ": 1831,
      "ãĤīãģĦ": 1832,
      "ãģĤãĤĭãģĦãģ¯": 1833,
      "ãĤ«ãĥ¼ãĥ": 1834,
      "ãĤ«ãĥ¬ãĥ³": 1835,
      "èĢĥãģĪãĤĭ": 1836,
      "åĤ¬": 1837,
      "è¤ĩæķ°": 1838,
      "ie": 1839,
      "Ľ¸": 1840,
      "ãĤĴç¤º": 1841,
      "ãģŁãģ¡": 1842,
      "ãģ®æ§ĭ": 1843,
      "åŃ¦éĥ¨": 1844,
      "çĶŁçĶ£": 1845,
      "åīµ": 1846,
      "çķ¥": 1847,
      "196": 1848,
      "çĻºå±ķ": 1849,
      "æ¸Ľ": 1850,
      "ãĤ¨ãĥ³": 1851,
      "çµĦç¹Ķ": 1852,
      "åıĤçħ§": 1853,
      "13": 1854,
      "å®Ĺ": 1855,
      "ãģ®æ°": 1856,
      "åĳ¨": 1857,
      "äººéĸĵ": 1858,
      "åľ§": 1859,
      "å®ļç¾©": 1860,
      "çĻºéŁ³": 1861,
      "ãģ»ãģ¨ãĤĵãģ©": 1862,
      "æĨ": 1863,
      "ãĤĤãģĹ": 1864,
      "ä»¤": 1865,
      "å¼±": 1866,
      "ãĥ³ãĥĢ": 1867,
      "æĸ¹åĲĳ": 1868,
      "æŃ´åı²": 1869,
      "å£°": 1870,
      "æĭįåŃĲ": 1871,
      "ï½ŀ": 1872,
      "ãĤ¢ãĤ¯ãĤ»": 1873,
      "éģºä¼ĿåŃĲ": 1874,
      "ä¼ģæ¥Ń": 1875,
      "ãģ®åķıé¡Į": 1876,
      "ir": 1877,
      "ur": 1878,
      "æ£": 1879,
      "èį": 1880,
      "ĠT": 1881,
      "ãĤĥ": 1882,
      "ãģ®èªŀ": 1883,
      "æķ´": 1884,
      "ãĤ·ãĥ³": 1885,
      "ãĥ³ãĥĳ": 1886,
      "ä¾Ľ": 1887,
      "çĤº": 1888,
      "ãģĵãģ¨ãģĮãģ§ãģįãĤĭ": 1889,
      "åĤĻ": 1890,
      "ä¸İãģĪ": 1891,
      "ãģ®åĢ¤": 1892,
      "âĶĢ": 1893,
      "èħ": 1894,
      "ĠC": 1895,
      "ãģ¨ãģĹãģŁ": 1896,
      "ãĤ¤ãĤ¹ãĥ©": 1897,
      "ãĤĴæı": 1898,
      "ãĥĨãĥ¬": 1899,
      "çī¹å¾´": 1900,
      "è¾¼": 1901,
      "ãĤĪãĤĬãĤĤ": 1902,
      "è¼ĥ": 1903,
      "ãĤĴè¡ĮãģĨ": 1904,
      "æĺłçĶ»": 1905,
      "ç¦": 1906,
      "ãģ®åĩ": 1907,
      "çĶ°": 1908,
      "äºĴ": 1909,
      "ãģ®æĢ": 1910,
      "ãģ®æĹ": 1911,
      "ãĤĦãģĻ": 1912,
      "ãĤĤãģ®ãģ§ãģĤãĤĭ": 1913,
      "ãĤµãĥ¼ãĥ": 1914,
      "éĸĭçĻº": 1915,
      "ãģ®æĪĲ": 1916,
      "ĠB": 1917,
      "ãģ¨åĲĮãģĺ": 1918,
      "ãģ¾ãģ¾": 1919,
      "ãģ¾ãģļ": 1920,
      "ãĤ¿ãĤ¤": 1921,
      "è²¨": 1922,
      "æıĲ": 1923,
      "æĪ¦äºī": 1924,
      "éĩįè¦ģãģª": 1925,
      "«çĶ»": 1926,
      "æ¡": 1927,
      "Ĵ°": 1928,
      "ãĥ¤": 1929,
      "ãĤĴè¡¨ãģĻ": 1930,
      "ãĥ«ãĥĪ": 1931,
      "çĽŁ": 1932,
      "æ¨¡": 1933,
      "ãĤŃãĥ£": 1934,
      "è¾²": 1935,
      "çŃīãģĹãģĦ": 1936,
      "math": 1937,
      "çĮ": 1938,
      "ãģŁãĤĬ": 1939,
      "å®³": 1940,
      "éĢĨ": 1941,
      "æĹ¥ãģ«": 1942,
      "ãģĤãĤĬãģ¾ãģĻ": 1943,
      "ãģ§ãģįãģ¾ãģĻ": 1944,
      "åł´åĲĪãģ¯": 1945,
      "å£«": 1946,
      "æŁ»": 1947,
      "ãĤ³ãĥ³ãĥĶ": 1948,
      "éģ¸æĬŀ": 1949,
      "éį": 1950,
      "ãģ®ãģĤãĤĭ": 1951,
      "ãģ¨èĢĥãģĪ": 1952,
      "ãģĦãģ«": 1953,
      "ï¼īãĢį": 1954,
      "åħ·": 1955,
      "ãĤ¤ãĤ®": 1956,
      "ãĥªãĥģãĥ£": 1957,
      "ç´Ķ": 1958,
      "åĪĨé¡ŀ": 1959,
      "äººãģĮ": 1960,
      "åĲĪãĤıãģĽ": 1961,
      "åįµ": 1962,
      "åįĶ": 1963,
      "åĩºé¡Į": 1964,
      "éĻ¢": 1965,
      "å®Łé¨ĵ": 1966,
      "éļİ": 1967,
      "å¥½": 1968,
      "å½ĵæĻĤ": 1969,
      "æ¶Īè²»": 1970,
      "ãģ®åľ°": 1971,
      "ãĤ¤ãĤ®ãĥªãĤ¹": 1972,
      "ãĥªãĥģãĥ£ãĥ¼ãĥī": 1973,
      "ge": 1974,
      "ãģĵãģ¨ãģĭãĤī": 1975,
      "æ³¢": 1976,
      "İŁ": 1977,
      "åĲ¦": 1978,
      "æĸ½": 1979,
      "çīĩ": 1980,
      "è©ŀãģ§ãģĤãĤĭ": 1981,
      "ãģ§ãģįãģªãģĦ": 1982,
      "ä»ĸãģ®": 1983,
      "ãģ«ãģĬãģĦãģ¦ãģ¯": 1984,
      "ãģ®åĭķ": 1985,
      "ãĤ³ãĥ³ãĥĶãĥ¥": 1986,
      "ãĤĴãģĻãĤĭ": 1987,
      "ãģªãģĳãĤĮãģ°": 1988,
      "ãģ®åĬ": 1989,
      "è¨±": 1990,
      "æĶ¯": 1991,
      "æ¸¯": 1992,
      "ç¶Ļ": 1993,
      "è£Ĥ": 1994,
      "ãĤ®ãĥª": 1995,
      "Ġyou": 1996,
      "è¨¼æĺİ": 1997,
      "ul": 1998,
      "éľ": 1999,
      "ļãĥ³ãĤ¿ãĥ¼": 2000,
      "ãĥ¼ãģĮ": 2001,
      "èªŀãģ®": 2002,
      "å¹´ãģ«ãģ¯": 2003,
      "å½¢å¼ı": 2004,
      "çĲĨè«ĸ": 2005,
      "ç¤İ": 2006,
      "000": 2007,
      "ãģ«å¯¾ãģĻãĤĭ": 2008,
      "ãĤ«ãĥ¼ãĥļãĥ³ãĤ¿ãĥ¼": 2009,
      "rm": 2010,
      "Ġ3": 2011,
      "Ġãģ§": 2012,
      "è¡Ĩ": 2013,
      "ãģ£ãģ¦ãĤĤ": 2014,
      "ãĤıãģĳ": 2015,
      "ãģªãģ©ãĤĴ": 2016,
      "ãģ®è²": 2017,
      "åĩ¦": 2018,
      "å½¢æĪĲ": 2019,
      "å·®": 2020,
      "æľĢåĪĿ": 2021,
      "æĶ¿åºľ": 2022,
      "æŁĵ": 2023,
      "åĦª": 2024,
      "::": 2025,
      "ce": 2026,
      "ow": 2027,
      "ãģ«ãģ¨": 2028,
      "ãģĻãģ¹ãģ¦": 2029,
      "ãģ¾ãĤĭ": 2030,
      "çī©çĲĨ": 2031,
      "ãģ®ç¯": 2032,
      "ãĥ¬ãĥĻãĥ«": 2033,
      "ãĥĹãĤ¹": 2034,
      "çĲĨè§£": 2035,
      "ãĥīãĥ©": 2036,
      "ãĤĴæĮĩ": 2037,
      "å²": 2038,
      "Ġ\"": 2039,
      "Ġ0": 2040,
      "Ġãģĭ": 2041,
      "èªĺ": 2042,
      "åŃ¦ç¿Ĵ": 2043,
      "ãĤĴæī": 2044,
      "éĽĳ": 2045,
      "ä½¿ãĤıãĤĮ": 2046,
      "Ġto": 2047,
      "ãĥĹãĥŃãĤ°ãĥ©ãĥł": 2048,
      "ç§»åĭķ": 2049,
      "çĹ": 2050,
      "çĴ°": 2051,
      "ãĤĮãģªãģĦ": 2052,
      "ãģĭãĤĭ": 2053,
      "çĶº": 2054,
      "ä»ĭ": 2055,
      "ãģ®ç·": 2056,
      "ä½ĵãģ®": 2057,
      "ä½ĵç³»": 2058,
      "åĭķçī©": 2059,
      "è¨ĺéĮ²": 2060,
      "åħ¨ãģ¦": 2061,
      "ãĤ¤ãĥ³ãĤ¿": 2062,
      "åħ±åĴĮ": 2063,
      "ãģ®å®Ł": 2064,
      "ãģĵãģĵãģ§": 2065,
      "ãģ®åīį": 2066,
      "å®Įåħ¨": 2067,
      "te": 2068,
      "ãģĮå¤ļãģĦ": 2069,
      "ãģŁãģĦ": 2070,
      "ãĤīãģªãģĦ": 2071,
      "ãĤ¢ãĥ©": 2072,
      "èªŀãĤĴ": 2073,
      "ç´ļ": 2074,
      "ä¸Ĭãģ«": 2075,
      "ãĤ³ãĥ³": 2076,
      "è¿Ķ": 2077,
      "æĽ¸ãģį": 2078,
      "éĢļå¸¸": 2079,
      "æķĻèĤ²": 2080,
      "æºĢ": 2081,
      "èĦĪ": 2082,
      "ãģĵãģĵãģ§ãģ¯": 2083,
      "å¼ķãģį": 2084,
      "ä»®åĲį": 2085,
      "ãģ®åĨħ": 2086,
      "..": 2087,
      "ãģ®åİŁ": 2088,
      "åĽ½åĨħ": 2089,
      "çµĲåĲĪ": 2090,
      "éĸĭåĤ¬": 2091,
      "è¦ıåīĩ": 2092,
      "å¤§ãģįãģı": 2093,
      "é¦ĸ": 2094,
      "ãģ®åŃ¦": 2095,
      "æ¿Ģ": 2096,
      ")ãĢģ": 2097,
      "ĠM": 2098,
      "Ġãģ§ãģĻ": 2099,
      "ŃåĴĮ": 2100,
      "æ¸¬": 2101,
      "æīĭç¶ļãģį": 2102,
      "ãģªãĤīãģªãģĦ": 2103,
      "é£¾": 2104,
      "æ§ĭæĪĲ": 2105,
      "ç¨®é¡ŀ": 2106,
      "èģ·": 2107,
      "å»¶": 2108,
      "å»º": 2109,
      "ĠP": 2110,
      "ãģ¦ãĤĤ": 2111,
      "ï¼į": 2112,
      "ä¸¦": 2113,
      "ãĤ¢ãĤ¸ãĤ¢": 2114,
      "ãĤ¤ãĥ³ãĥī": 2115,
      "ãģĵãģ¨ãģ«": 2116,
      "æ³ģ": 2117,
      "ãģĺãĤħãģĨ": 2118,
      "çĽ¸æīĭ": 2119,
      "ä¼Ŀçµ±": 2120,
      "âĢ¦": 2121,
      "å¹ķåºľ": 2122,
      "éįµ": 2123,
      "Ġe": 2124,
      "ãģĵãģ®æ": 2125,
      "ãģĻãĤĭãģŁãĤģ": 2126,
      "ãģĳãģĦ": 2127,
      "ãģĦãģ¦ãģĦãĤĭ": 2128,
      "çĻ»": 2129,
      "æĺŃåĴĮ": 2130,
      "è¡¨ç¤º": 2131,
      "ãĥĹãĥ©": 2132,
      "æĽ´": 2133,
      "ãĥŁãĥ¥": 2134,
      "ãģ®å¤ļ": 2135,
      "ãģķãĤĮãģ¦ãģĦãģŁ": 2136,
      "ãģ®å®ļ": 2137,
      "é¦Ļ": 2138,
      "è·¯": 2139,
      "mathrm": 2140,
      "DP": 2141,
      "ter": 2142,
      "çĪ": 2143,
      "Ġand": 2144,
      "ãģľ": 2145,
      "ãĥĮ": 2146,
      "ãģĮå¿ħè¦ģ": 2147,
      "ãĥ©ãĥ¼": 2148,
      "å¾ĭ": 2149,
      "æĸĩç«ł": 2150,
      "ãĥĥãĥģ": 2151,
      "çĶŁæĪĲ": 2152,
      "å°Ħ": 2153,
      "ãĥŃãĤ·ãĤ¢": 2154,
      "æŃ¦": 2155,
      "ãĥķãĥ©ãĥ³ãĤ¹": 2156,
      "è³ŀ": 2157,
      "éłĥ": 2158,
      "ãģĿãģ®ãģŁãĤģ": 2159,
      "æ®ĭ": 2160,
      "èĦ³": 2161,
      "å¤§ãģįãģª": 2162,
      "åĲ«ãģ¾": 2163,
      "éĥ½å¸Ĥ": 2164,
      "æ¶²æĻ¶": 2165,
      "ãģ®æĹ¥": 2166,
      "ãĤ¡": 2167,
      "ãģ®è¨Ģèªŀ": 2168,
      "å¤«": 2169,
      "å¾ĵ": 2170,
      "ãģ®çłĶç©¶": 2171,
      "ä¸ĬãģĴ": 2172,
      "ãĤ¸ãĥ³": 2173,
      "å¹³éĿ¢": 2174,
      "ãĥļãĥ¼ãĤ¸": 2175,
      "æ©Łèĥ½": 2176,
      "ãĤĪãģĦ": 2177,
      "äºĶ": 2178,
      "ãģ£ãģ¦ãģĦãģŁ": 2179,
      "çļ®": 2180,
      "å½Ļ": 2181,
      "ãģ®çĤ": 2182,
      "åĩºæĿ¥": 2183,
      "åĩºçīĪ": 2184,
      "ãģĺãĤĭ": 2185,
      "åł´æīĢ": 2186,
      "ãĤªãĥ³": 2187,
      "è¦ģç´ł": 2188,
      "çŁ¥èŃĺ": 2189,
      "æ¼«çĶ»": 2190,
      "å¿ħãģļ": 2191,
      "ãģ¨ãĤĤãģ«": 2192,
      "è¿°ãģ¹": 2193,
      "ä¹Ĺ": 2194,
      "ä¸ĢèĪ¬ãģ«": 2195,
      "ãģłãģĳãģ§": 2196,
      "ãĤ³ãĥ³ãĥĶãĥ¥ãĥ¼ãĤ¿": 2197,
      "åĿ": 2198,
      "æĳ": 2199,
      "éª": 2200,
      "ãģĦãģĦ": 2201,
      "èªŀãģĮ": 2202,
      "ãģĭãĤīãģ¯": 2203,
      "ãĤĴæĬ": 2204,
      "å°¾": 2205,
      "ãģ®è³": 2206,
      "ãĤ³ãĥ¼ãĥī": 2207,
      "è£ľ": 2208,
      "ation": 2209,
      "åĤ¾": 2210,
      "ãĤĴçĶ¨ãģĦãĤĭ": 2211,
      "ãĤ¢ãĤ¯ãĤ»ãĥ³ãĥĪ": 2212,
      "å¦": 2213,
      "Ġ4": 2214,
      "Īł": 2215,
      "ãģ®ãģŁãĤģ": 2216,
      "ãģ«ãģĭ": 2217,
      "ãģ«åŁº": 2218,
      "ãģĮãģªãģĦ": 2219,
      "ãģĤãģ¾ãĤĬ": 2220,
      "ãģ®åŁ": 2221,
      "ãĤ¯ãĥ«": 2222,
      "æķ°ãģ¯": 2223,
      "éĸ¢éĢ£": 2224,
      "ç§ĳçĽ®": 2225,
      "ç¬¬ä¸Ģ": 2226,
      "å¿ľãģĻãĤĭ": 2227,
      "èĬ±": 2228,
      "if": 2229,
      "é®": 2230,
      "æľ¨": 2231,
      "ãģıãĤĭ": 2232,
      "ãĤ·ãĤ¹ãĥĨ": 2233,
      "ãģĽãĤĭ": 2234,
      "æĻĤãģ«": 2235,
      "çŃĭ": 2236,
      "ang": 2237,
      "åĮ»çĻĤ": 2238,
      "âĶĢâĶĢ": 2239,
      "ãĤ·ãĤ¹ãĥĨãĥł": 2240,
      "NA": 2241,
      "ãģ®ä¾ĭ": 2242,
      "ï¼ĭ": 2243,
      "ãģ®æ¯": 2244,
      "ãĤĴæĶ": 2245,
      "ãģ®èĩ": 2246,
      "å±Ģ": 2247,
      "å¾Įãģ®": 2248,
      "è¦ĭãĤīãĤĮãĤĭ": 2249,
      "èĳĹä½ľæ¨©æ³ķ": 2250,
      "ãģ®èĳĹä½ľçī©": 2251,
      "æ··": 2252,
      "æ¯įéŁ³": 2253,
      "éĤ¦": 2254,
      "ãĥĹãĥŃãĤ°ãĥ©ãĥŁãĥ³ãĤ°è¨Ģèªŀ": 2255,
      "ãĥĨãĥ¬ãĥĵ": 2256,
      "ãģ®åĩº": 2257,
      "é®®": 2258,
      "èĹ": 2259,
      "é§": 2260,
      "ãģ®å¹": 2261,
      "èª²": 2262,
      "æľª": 2263,
      "äººå·¥": 2264,
      "çŁŃ": 2265,
      "ãģĿãĤĮãĤī": 2266,
      "ãģ¹ãģį": 2267,
      "åĽ³å½¢": 2268,
      "ãģ®èĳĹä½ľæ¨©": 2269,
      "éĿŀå¸¸ãģ«": 2270,
      "ãģªãģĮãĤī": 2271,
      "ãģ®æīĭ": 2272,
      "éīĦ": 2273,
      "éª¨": 2274,
      "70": 2275,
      "ãģ®éķ·ãģķ": 2276,
      "ãģ¨ãģ«": 2277,
      "ãĥĪãĥ³": 2278,
      "ãģĿãģĵ": 2279,
      "æīĵ": 2280,
      "çĤ¹ãĤĴ": 2281,
      "æĽ¸ãģĭ": 2282,
      "ãģ®ä¸Ńãģ§": 2283,
      "ç¢ºçİĩ": 2284,
      "ãĥĴãĥĪ": 2285,
      "çĭ¬ç«ĭ": 2286,
      "çªģ": 2287,
      "çĿĢ": 2288,
      "ãģ«åŁºãģ¥": 2289,
      "ad": 2290,
      "ãģ¨ãģķãĤĮãĤĭ": 2291,
      "ãģ¨æĢĿ": 2292,
      "ãģ¾ãģ¨": 2293,
      "å¤ª": 2294,
      "éŁ³æ¥½": 2295,
      "ãģĺãģ¦": 2296,
      "æĬķ": 2297,
      "æķĻç§ĳæĽ¸": 2298,
      "æ®ĸ": 2299,
      "åįĺãģ«": 2300,
      "ãĤ°ãĥ©ãĥķ": 2301,
      "çµĮæ¸ĪåŃ¦": 2302,
      "ell": 2303,
      "æ¨Ļæºĸ": 2304,
      "ãģ²ãģ¨ãģ¤": 2305,
      "æ¡Ī": 2306,
      "ãģĦãģ£ãģŁ": 2307,
      "åĽ½éļĽ": 2308,
      "åĭĿ": 2309,
      "ãĤ«ãĥ¼": 2310,
      "ãĤĤãģ®ãĤĴ": 2311,
      "èĳĹ": 2312,
      "æĪĲç«ĭ": 2313,
      "ç¾İ": 2314,
      "ç¶Ń": 2315,
      "è»Ĭ": 2316,
      "end": 2317,
      "å§Ķ": 2318,
      "60": 2319,
      "id": 2320,
      "ĠD": 2321,
      "ãģ®ç´°èĥŀ": 2322,
      "ãģĮçĶŁ": 2323,
      "äºĨ": 2324,
      "ãĥªãĥ³ãĤ°": 2325,
      "å¹´åº¦": 2326,
      "åĽ½èªŀ": 2327,
      "äººç§°": 2328,
      "æķ°ãĤĴ": 2329,
      "å¯Ł": 2330,
      "è¡ĮçĤº": 2331,
      "ãĥķãĤ§": 2332,
      "æ¨©åĪ©": 2333,
      "ãĥ¦ãĥ¼": 2334,
      "å®ĹæķĻ": 2335,
      "GDP": 2336,
      "um": 2337,
      "æ¹": 2338,
      "èĲ": 2339,
      "ãģ«ãģªãĤĬ": 2340,
      "ãģ©ãģ¡": 2341,
      "ãĥ³ãĥŀ": 2342,
      "ä½ĵãģ¯": 2343,
      "æ¸©": 2344,
      "ãĤ¨ãĥ«": 2345,
      "åĬĽãĤĴ": 2346,
      "åĨħå®¹": 2347,
      "æ¯Ķè¼ĥ": 2348,
      "è©ķä¾¡": 2349,
      "ly": 2350,
      "ple": 2351,
      "ut": 2352,
      "ãģ«ãģªãģ£ãģ¦ãģĦãĤĭ": 2353,
      "ãģŁãģĻ": 2354,
      "ãģĭãģı": 2355,
      "ãģĭãģĳ": 2356,
      "å¤®": 2357,
      "ãģ®æ¨": 2358,
      "ãĥ¼ãĥĸ": 2359,
      "äººãģ¯": 2360,
      "ãģªãģ©ãģ¯": 2361,
      "ãĤ·ãĥ³ãĤ°": 2362,
      "é¦Ļæ¸¯": 2363,
      "ç°": 2364,
      "ãĥ³ãĤ¹": 2365,
      "å¹£": 2366,
      "ãģ¨ãģĦãģĦãģ¾ãģĻ": 2367,
      "å¾Ĵ": 2368,
      "ãģ®ç§": 2369,
      "ãģ®çĲ": 2370,
      "åĩºãģĻ": 2371,
      "å¸ĥ": 2372,
      "ãģļãĤĮ": 2373,
      "åħ¥è©¦": 2374,
      "è»¸": 2375,
      "ãĤ¤ãĥĮ": 2376,
      "ãĢħãģª": 2377,
      "æľĿé®®": 2378,
      "ãģĦãģıãģ¤ãģĭ": 2379,
      "ãģ®æĻĤä»£": 2380,
      "æ¦Ĥå¿µ": 2381,
      "çĮ®": 2382,
      "ãģ®çĤ¹": 2383,
      "ãģ®ãĤ¢": 2384,
      "ãģ®æĮ": 2385,
      "åĽº": 2386,
      "ãģĵãģ¨ãĤĤãģĤãĤĭ": 2387,
      "ãģ®ç¨": 2388,
      "åį°": 2389,
      "å¯¾çŃĸ": 2390,
      "è²¿æĺĵ": 2391,
      "å·¦": 2392,
      "é«ĺæł¡": 2393,
      "ãģ»ãģĨ": 2394,
      "éĢ£åĲĪ": 2395,
      "åŁºç¤İ": 2396,
      "ä¹Ŀ": 2397,
      "æ¶Īæ»ħ": 2398,
      "ãĤĴçĶ¨ãģĦãģ¦": 2399,
      "è²¡çĶ£": 2400,
      "é³¥": 2401,
      "æŁĵèī²": 2402,
      ")ãĢĤ": 2403,
      "çģ": 2404,
      "éİ": 2405,
      "Ġk": 2406,
      "Ġv": 2407,
      "ãģ®ä¸»": 2408,
      "ãģ®æ³": 2409,
      "å¹´ãģĭãĤī": 2410,
      "éĢı": 2411,
      "ãģĹãģŁãĤĬ": 2412,
      "ãģ¨ãģĦãģĦ": 2413,
      "è©³": 2414,
      "å¸«": 2415,
      "ãĤĤãģ®ãģ¯": 2416,
      "å¯¾è±¡": 2417,
      "è¿½": 2418,
      "ä¸»ãģ«": 2419,
      "ãĤµãĤ¤ãĥĪ": 2420,
      "ãĤºãĥł": 2421,
      "çŁ¥èĥ½": 2422,
      "æŀĲ": 2423,
      "èªŃãģ¿": 2424,
      "æ±ŁæĪ¸æĻĤä»£": 2425,
      "ãģ®åŁº": 2426,
      "èĲ½": 2427,
      "ãģ®çĲĨ": 2428,
      "ãĤ¥": 2429,
      "ãĤĴãģ¨": 2430,
      "ãģķãģ¾": 2431,
      "æĹ§": 2432,
      "å¾®": 2433,
      "ä½ĵãĤĴ": 2434,
      "éŁ³ç¬¦": 2435,
      "æŃĮ": 2436,
      "ãĥĸãĥ«": 2437,
      "ãĥĥãĤ¯ãĤ¹": 2438,
      "ãĤ®ãĥ¼": 2439,
      "ãĤ¢ãĥ«ãĥĲ": 2440,
      "ãģĮãģĤãĤĬãģ¾ãģĻ": 2441,
      "æ¯Ķä¾ĭ": 2442,
      "ãģ®å¤§ãģį": 2443,
      "ãģ®åįĺ": 2444,
      "åĮºåĪ¥": 2445,
      "èī¯ãģĦ": 2446,
      "CH": 2447,
      "æ½": 2448,
      "ãģĬãģı": 2449,
      "ãģªãģ©ãģ§": 2450,
      "ãģ®èµ": 2451,
      "å¯Ĩ": 2452,
      "ãĥ¬ãĤ¤": 2453,
      "æ¸¡": 2454,
      "ãģĵãģ¨ãģĮãģĤãĤĭ": 2455,
      "ä»¥åīį": 2456,
      "æİ¨": 2457,
      "åħ¬è¡¨": 2458,
      "ãģĹãģ°ãģĹãģ°": 2459,
      "ãģ®èĩª": 2460,
      "çį": 2461,
      "ĿéĽ¢": 2462,
      "ãģ¾ãģ£ãģŁ": 2463,
      "çĶ·": 2464,
      "ãĥ»ãĥ»": 2465,
      "åĪĨè£Ĥ": 2466,
      "ãĤĴæĽ¸": 2467,
      "çĶŁæ´»": 2468,
      "å°Ĥ": 2469,
      "å¿Ĺ": 2470,
      "ãģĽãģĦ": 2471,
      "ãģķãĤĮãģ¦ãģĬãĤĬ": 2472,
      "ãģ®åħ¬": 2473,
      "æĬĢé¤¨": 2474,
      "ãĤĵãģ§ãģĦãĤĭ": 2475,
      "æ¼¢åŃĹ": 2476,
      "ãĤĨãĤĭ": 2477,
      "ä¿®é£¾": 2478,
      "com": 2479,
      "å©": 2480,
      "å´": 2481,
      "æĵ": 2482,
      "ĨãĤ£": 2483,
      "ĳåķı": 2484,
      "ãģ«ãģªãģ£ãģ¦": 2485,
      "ãĥ¼ãĤ¿ãĥ¼": 2486,
      "ãĤ¯ãĥĪ": 2487,
      "ãĤ¯è³ª": 2488,
      "ãĤ¿ãĥ³ãĥĳ": 2489,
      "ä»£è¡¨": 2490,
      "ine": 2491,
      "ãĤ¨ãĥįãĥ«": 2492,
      "è£ģ": 2493,
      "ä¹±": 2494,
      "åĸ¶": 2495,
      "æĻ®éĢļ": 2496,
      "è²¨å¹£": 2497,
      "åħ±åĴĮåĽ½": 2498,
      "åĿĩ": 2499,
      "ãĤ¿ãĥ³ãĥĳãĤ¯è³ª": 2500,
      "25": 2501,
      "Ġre": 2502,
      "ãĤĴä¸Ńå¿ĥ": 2503,
      "ãģ®æł": 2504,
      "åĽł": 2505,
      "æķ£": 2506,
      "ãĤ¿ãĥŁ": 2507,
      "æĸ¹ãģĮ": 2508,
      "åī¯": 2509,
      "éĥ¨ãģ®": 2510,
      "åº¦ãģĮ": 2511,
      "æĶ¿çŃĸ": 2512,
      "ç¬¬äºĮ": 2513,
      "å¹³è¡Į": 2514,
      "ç¯ī": 2515,
      "ãĤ¨ãĥ³ãĤ¸ãĥ³": 2516,
      "ãĤ«ãĥ¼ãĥļãĥ³ãĤ¿ãĥ¼ãĤº": 2517,
      "**": 2518,
      "ap": 2519,
      "ik": 2520,
      "ĠãĢĮ": 2521,
      "ãģ§ãģĹãĤĩãģĨ": 2522,
      "ãĥ³ãģ¯": 2523,
      "ãģ£ãģ": 2524,
      "ãģ¾ãģĹãĤĩãģĨ": 2525,
      "ï¼ĪãĢĮ": 2526,
      "ãĢįãĢģ": 2527,
      "ãģıãģł": 2528,
      "ãģıãĤīãģĦ": 2529,
      "åı°": 2530,
      "ãģ®æ¥": 2531,
      "ãĥ¼ãĥĦ": 2532,
      "ãĤ°ãĥ«": 2533,
      "æł¹": 2534,
      "æ¬§": 2535,
      "æľĢå¤§": 2536,
      "å¥®": 2537,
      "æĭł": 2538,
      "è¦ıå®ļ": 2539,
      "èıĮ": 2540,
      "æ³¨æĦı": 2541,
      "éĬĢ": 2542,
      "ãģ®æĢ§": 2543,
      "åĩ¦çĲĨ": 2544,
      "IP": 2545,
      "Ġr": 2546,
      "Ġx": 2547,
      "Ġ{": 2548,
      "ãģĦãģļãĤĮ": 2549,
      "ãģĭãģ«": 2550,
      "ãģĭãĤĵ": 2551,
      "åĽ½æĬĢé¤¨": 2552,
      "ä¼´": 2553,
      "çĻ¾": 2554,
      "æĦĽ": 2555,
      "ãĤ¸ãĤ§": 2556,
      "æĽ¿": 2557,
      "ãģĵãģ¨ãģĮå¤ļãģĦ": 2558,
      "å®Łè¡Į": 2559,
      "éĢ£éĤ¦": 2560,
      "æĶ¿æ¨©": 2561,
      "ãĥĵãĤ¢": 2562,
      "ãģªãĤīãģ°": 2563,
      "è¶ħ": 2564,
      "åı¯èĥ½æĢ§": 2565,
      "èŃ°è«ĸ": 2566,
      "ãĥ´ãĤ£": 2567,
      "éģķãģĦ": 2568,
      "¤ľ": 2569,
      "æ¢": 2570,
      "èĸ": 2571,
      "Ġï¼Ŀ": 2572,
      "ãĤ©": 2573,
      "ãģ®ãģŁãĤģãģ«": 2574,
      "ãģĮãģĤãģ£ãģŁ": 2575,
      "ãģĻãĤĮãģ°": 2576,
      "ãģ®å¾Į": 2577,
      "èªŀå½Ļ": 2578,
      "çµ¶": 2579,
      "ãĥ¼ãĥĩ": 2580,
      "åĭ¢": 2581,
      "ä¾µ": 2582,
      "ãĤ«ãĥ«": 2583,
      "ãĥĹãĥª": 2584,
      "åı¤ä»£": 2585,
      "ãģ®ä¸Ģéĥ¨": 2586,
      "è¥¿æ´ĭ": 2587,
      "ç¸®": 2588,
      "çĪ¶": 2589,
      "å§Ķåĵ¡": 2590,
      "cm": 2591,
      "con": 2592,
      "¡çĶ¨": 2593,
      "ĠH": 2594,
      "ãģĦãģ¡": 2595,
      "ï¼ŀ": 2596,
      "ãģĤãĤī": 2597,
      "åħµ": 2598,
      "éģł": 2599,
      "ãģ®çĬ¶": 2600,
      "194": 2601,
      "çĻºè¡¨": 2602,
      "ãģĻãĤĭãģĵãģ¨ãģ¯": 2603,
      "æĶ¾éĢģ": 2604,
      "ãģ®è§£": 2605,
      "è¬": 2606,
      "Ġ_": 2607,
      "ãģ®ãĤĤ": 2608,
      "èª¤": 2609,
      "åĪĬ": 2610,
      "ãĤĪãģ£ãģ¦": 2611,
      "äººãĢħ": 2612,
      "ãĤ·ãĥĬ": 2613,
      "åĬ´": 2614,
      "ãĤ«ãĥª": 2615,
      "æ°ı": 2616,
      "ãģĿãģ®ä»ĸ": 2617,
      "ä½¿ãĤıãĤĮãĤĭ": 2618,
      "è£ħ": 2619,
      "è¾ŀ": 2620,
      "çľģ": 2621,
      "ä¾¡åĢ¤": 2622,
      "è¿ĳä»£": 2623,
      "ç¯ĦåĽ²": 2624,
      "æ·±": 2625,
      "æĴ®": 2626,
      "ãģĸãģ¾": 2627,
      "ega": 2628,
      "ãĤ¤ãĥ³ãĥķ": 2629,
      "ãĤĴæ±Ĥ": 2630,
      "ãĤĴç¤ºãģĻ": 2631,
      "äººå·¥çŁ¥èĥ½": 2632,
      "ç°¡": 2633,
      "ãĤ¢ãĥ«ãĥĲãĥł": 2634,
      "he": 2635,
      "si": 2636,
      "us": 2637,
      "¢¨": 2638,
      "é¢¨": 2639,
      "ãģ®éĸ¢ä¿Ĥ": 2640,
      "ãĤĴçµĮ": 2641,
      "çµµ": 2642,
      "ãģªãģ©ãģĮãģĤãĤĭ": 2643,
      "ä¸Ńå¤®": 2644,
      "çī¹å®ļ": 2645,
      "ãģ»ãģ¼": 2646,
      "åįĺèªŀ": 2647,
      "çĶ£æ¥Ń": 2648,
      "éĽĨåĽ£": 2649,
      "omega": 2650,
      "åıįå¿ľ": 2651,
      "é¤Ĭ": 2652,
      "éĽ£ãģĹãģĦ": 2653,
      "ãĤĴåıĹãģĳ": 2654,
      "ãĤ¤ãĤ¹ãĥ©ãĥł": 2655,
      "ãģķãģ¾ãģĸãģ¾": 2656,
      "ãģıãģłãģķãģĦ": 2657,
      "og": 2658,
      "ï¼Į": 2659,
      "å®¤": 2660,
      "ãĤ¢ãĤ¤ãĥĮ": 2661,
      "ãģįãģ¾ãģĻ": 2662,
      "éĢĢ": 2663,
      "æķ¬": 2664,
      "æĿ¿": 2665,
      "ãĥ³ãĥĦ": 2666,
      "èĩªèº«": 2667,
      "é«ĺçŃī": 2668,
      "æĿ¡ä»¶": 2669,
      "èĬ½": 2670,
      "ãģ®å¼ı": 2671,
      "æģĲ": 2672,
      "çĨ±": 2673,
      "ãģ®æĹ¥æľ¬": 2674,
      "âĨĴ": 2675,
      "ãģĭãģĦ": 2676,
      "è¡Ģ": 2677,
      "ãģ§ãģĤãĤĭãģ¨": 2678,
      "ãĤ¯ãĥª": 2679,
      "ãĤĦãĤĦ": 2680,
      "ãģĭãĤīæĿ¥": 2681,
      "æĸĩèĦĪ": 2682,
      "åºı": 2683,
      "ãģ¨ãģĹãģ¦ãģĦãĤĭ": 2684,
      "ä¾Ŀ": 2685,
      "å®Łæĸ½": 2686,
      "éĽ»æ°Ĺ": 2687,
      "å£Ĭ": 2688,
      "est": 2689,
      "å¤ļãģıãģ®": 2690,
      "ãģ«éĸ¢ãģĹãģ¦": 2691,
      "æ±ºå®ļ": 2692,
      "ãģ®çŁ¥": 2693,
      "ãģ«ãģ¨ãģ£ãģ¦": 2694,
      "çĴ°å¢ĥ": 2695,
      "ãģ®ç¨®": 2696,
      "ãģ®å¤§ãģįãģķ": 2697,
      "ãĤ¨ãĥįãĥ«ãĤ®ãĥ¼": 2698,
      "Sch": 2699,
      "ãģ®ãģ«": 2700,
      "ãģ®ãĤĤãģ®": 2701,
      "ãģ®ä½įç½®": 2702,
      "ãĤĴè¡¨": 2703,
      "ãĤĴå¾Ĺ": 2704,
      "ãģ®å·": 2705,
      "ãģĻãĤĭãģŁãĤģãģ«": 2706,
      "å¾©": 2707,
      "ãĤĴæĭ": 2708,
      "ä¸Ģå®ļ": 2709,
      "æķ°ãģĮ": 2710,
      "ãĥķãĥĪ": 2711,
      "ãĤ¸ãĥ¥": 2712,
      "æ²¹": 2713,
      "æĿ±åĮĹ": 2714,
      "ãĤ¤ãĥ¤": 2715,
      "ist": 2716,
      "ãĥĻãĥ«ãĥĮ": 2717,
      "æ¼Ķå¥ı": 2718,
      "ãģĹãģŁãģĮãģ£ãģ¦": 2719,
      "ç·¨éĽĨ": 2720,
      "ãĤĴåĲ«ãĤĢ": 2721,
      "ãģ®æ§ĭéĢł": 2722,
      "çĻ»åł´": 2723,
      "ãģķãģ¾ãģĸãģ¾ãģª": 2724,
      "ĠG": 2725,
      "ãģ®ä»ķ": 2726,
      "ãĤĴä½¿çĶ¨": 2727,
      "åı¥": 2728,
      "ãĥ©ãĥ³ãĥĢ": 2729,
      "åĲĪæĪĲ": 2730,
      "çĶŁæ®ĸ": 2731,
      "åĮĸãģĹãģŁ": 2732,
      "ãĥ¬ãĤ¹": 2733,
      "è§¦": 2734,
      "å¸¯": 2735,
      "195": 2736,
      "çĤŃ": 2737,
      "ere": 2738,
      "äºĭå®Ł": 2739,
      "åħ¨ä½ĵ": 2740,
      "ãģ¸ãģ®": 2741,
      "æ§ĺãĢħãģª": 2742,
      "ãģ®æķĻ": 2743,
      "èªįèŃĺ": 2744,
      "ãĤĦãģĻãģĦ": 2745,
      "æĳĺ": 2746,
      "DNA": 2747,
      "²å¾Ĺ": 2748,
      "ĠãĢģ": 2749,
      "ãģĮåŃĺåľ¨ãģĻãĤĭ": 2750,
      "ãģ®åĳ": 2751,
      "ãĤĬç«ĭ": 2752,
      "æľĽ": 2753,
      "åĲ¸": 2754,
      "ãĤ¹ãĥļ": 2755,
      "äººãģ®": 2756,
      "ãģªãģ©ãģ«": 2757,
      "ãĥĥãĥī": 2758,
      "ãģ®ç«": 2759,
      "ãĤ·ãĥ¼": 2760,
      "è¡ĮãĤıãĤĮãĤĭ": 2761,
      "èĩ´": 2762,
      "ãĤĤãģ®ãģ®": 2763,
      "ãĤªãĤ¹": 2764,
      "çı¾è±¡": 2765,
      "æĪĲéķ·": 2766,
      "æĢ§è³ª": 2767,
      "æľĪãģ«": 2768,
      "æĺİæ²»": 2769,
      "ãĤµãĤ¤": 2770,
      "çŃīåĪĨ": 2771,
      "eme": 2772,
      "é»Ĵ": 2773,
      "ãĥĻãĥ«ãĥĮæĿ¡ç´Ħ": 2774,
      "ich": 2775,
      "ŀį": 2776,
      "ãģªãĤı": 2777,
      "ãģĭãĤĮãĤĭ": 2778,
      "äº¡": 2779,
      "å®Ī": 2780,
      "é¡į": 2781,
      "åĩºãģĹ": 2782,
      "ä¸Ĭãģ§": 2783,
      "ãģĵãģ®ãģ¨ãģį": 2784,
      "è²ł": 2785,
      "ãģĿãĤĮãĤĴ": 2786,
      "åĬĽãģĮ": 2787,
      "ãĥĭãĥ¼": 2788,
      "åıĹãģĳ": 2789,
      "ãģ¸ãģ¨": 2790,
      "åĬłçĽŁ": 2791,
      "æĸĩåŃĹåĪĹ": 2792,
      "ä»ĺãģĳ": 2793,
      "ãģ®å½±éŁ¿": 2794,
      "ãģ®è§Ĵ": 2795,
      "ãģ®å®ļç¾©": 2796,
      "TP": 2797,
      "ĠE": 2798,
      "ĠãģĬ": 2799,
      "ãģ¨ãģªãģ£ãģ¦": 2800,
      "ãĤĴéĻ¤": 2801,
      "ãģŁãĤĭ": 2802,
      "åŃ¦ç§ĳ": 2803,
      "ãģĿãĤĤ": 2804,
      "éĿĴ": 2805,
      "ä¸»èªŀ": 2806,
      "ãĥŀãĤ¤": 2807,
      "åİ³": 2808,
      "éķ·ãģĦ": 2809,
      "ãģ¨åĳ¼ãģ³": 2810,
      "çĶ»åĥı": 2811,
      "ãģ«å¯¾ãģĹ": 2812,
      "å½¼ãĤī": 2813,
      "ĠâĨĴ": 2814,
      "éĺ²": 2815,
      "åĲĮæ§ĺãģ«": 2816,
      "éĿ©åĳ½": 2817,
      "ãĤ·ãĥ³ãĤ°ãĥ«": 2818,
      "ãģ®æ³ķ": 2819,
      "ãĤĤãģĨ": 2820,
      "ãĤ¢ãĥ³": 2821,
      "ãģ®æĬ": 2822,
      "ãģ®æİ": 2823,
      "çļĩ": 2824,
      "ãģªãģ©ãĤĤ": 2825,
      "ãĥŃãĥ¼ãĥŀ": 2826,
      "ä¸Ĭãģ®": 2827,
      "ãģĽãģļ": 2828,
      "å¸°": 2829,
      "éĢļãĤĬ": 2830,
      "ãĤŃãĥªãĤ¹ãĥĪ": 2831,
      "ãĥĬãĥĪãĥª": 2832,
      "ãĥįãĥĥãĥĪ": 2833,
      "ãģ®åĲĪ": 2834,
      "è¿ĳãģĦ": 2835,
      "å·¥æ¥Ń": 2836,
      "åıĤèĢĥ": 2837,
      "äº¬éĥ½": 2838,
      "ook": 2839,
      "ãģ©ãģĨãģĹ": 2840,
      "1970": 2841,
      "é»Ħ": 2842,
      "çĸĳåķı": 2843,
      "åĤ¾åĲĳ": 2844,
      "å§Ķåĵ¡ä¼ļ": 2845,
      "cd": 2846,
      "ĠãĤĤ": 2847,
      "ãģ®ä¿ĿèŃ·æľŁéĸĵ": 2848,
      "ãģ¨ãģ¨ãĤĤãģ«": 2849,
      "ãģ¯ãģĺ": 2850,
      "ãĥ«ãģ®": 2851,
      "ãģ®ç¥": 2852,
      "å¤§éĻ¸": 2853,
      "åº§": 2854,
      "èĢħãģ®": 2855,
      "ãĤ¸ãĥ§": 2856,
      "çĲĨçĶ±": 2857,
      "ãĥģãĤ§": 2858,
      "ant": 2859,
      "æ²³": 2860,
      "ãģ®åıį": 2861,
      "èª¿æŁ»": 2862,
      "ãģĵãĤĮãĤīãģ®": 2863,
      "ãģ®åĲįè©ŀãģ§ãģĤãĤĭ": 2864,
      "ä»ĬæĹ¥": 2865,
      "ãģ®å¤īåĮĸ": 2866,
      "èĪĪå¥®": 2867,
      "ãģ®ç¯ĦåĽ²": 2868,
      "çį²å¾Ĺ": 2869,
      "ãĤ·ãĥĬãĥĹãĤ¹": 2870,
      "ãĥĬãĥĪãĥªãĤ¦ãĥł": 2871,
      "21": 2872,
      "24": 2873,
      "be": 2874,
      "¶Ī": 2875,
      "Ġãģ¨ãģĦãģĨ": 2876,
      "ĦŁ": 2877,
      "ãģĮãĤĬ": 2878,
      "å¾³": 2879,
      "æĿĳ": 2880,
      "ãģ®è¾": 2881,
      "éĥİ": 2882,
      "æ¨ª": 2883,
      "ãĥķãĥ¬": 2884,
      "æĢ§ãĤĴ": 2885,
      "çĤ¹ãģĮ": 2886,
      "ãĤ»ãĥ³ãĤ¿ãĥ¼": 2887,
      "å¹³æĪĲ": 2888,
      "åŀĤ": 2889,
      "Ġ=~": 2890,
      "éģİç¨ĭ": 2891,
      "è¿ĳå¹´": 2892,
      "ãģĶãģ¨ãģ«": 2893,
      "åįĬå³¶": 2894,
      "åºĥãģı": 2895,
      "èŃ°ä¼ļ": 2896,
      "ãģ®åŃĲ": 2897,
      "æĤª": 2898,
      "ç¦ģ": 2899,
      "over": 2900,
      "ãģ¯ãģªãģĦ": 2901,
      "ãĤĴåĪ©çĶ¨": 2902,
      "ãĥ¼ãĥ©": 2903,
      "ãģıãĤĬ": 2904,
      "ãģĵãģ¨ãģ«ãģªãĤĭ": 2905,
      "å¾ħ": 2906,
      "ãģłãģĭãĤī": 2907,
      "æĿĲ": 2908,
      "ãģ®è«": 2909,
      "çĤ¹ãģ§": 2910,
      "å¤īãĤı": 2911,
      "ate": 2912,
      "ãĥıãĥ³ãĥŀ": 2913,
      "åĪĿæľŁ": 2914,
      "rix": 2915,
      "åįģåĪĨ": 2916,
      "åīµä½ľ": 2917,
      "´»": 2918,
      "¹åĪ¤": 2919,
      "ãģ§ãģªãģĦ": 2920,
      "ãģĮå¤ļãģı": 2921,
      "ãģªãģŁ": 2922,
      "ãģĹãĤĪãģĨ": 2923,
      "ãģĻãģªãĤı": 2924,
      "ãģ®å¢": 2925,
      "ãģĭãĤĴ": 2926,
      "ãĤ¹ãĤ±": 2927,
      "å®£": 2928,
      "ãģ®æĭ": 2929,
      "åĪĨãģ®": 2930,
      "ãģłãģ¨": 2931,
      "è¡Įåĭķ": 2932,
      "éĸĵãģ«": 2933,
      "åīįãģ«": 2934,
      "éĢ£è¼ī": 2935,
      "ãĤ½ãĥķãĥĪ": 2936,
      "æħ£": 2937,
      "æĸ°èģŀ": 2938,
      "ãģ®ä¸Ģãģ¤": 2939,
      "éłĺåŁŁ": 2940,
      "åıĤåĬł": 2941,
      "æ¿ĥ": 2942,
      "æ¤ľç´¢ãĤ¨ãĥ³ãĤ¸ãĥ³": 2943,
      "ãĤ¤ãĥ³ãĤ¿ãĥ¼ãĥ": 2944,
      "ãģ©ãģ¡ãĤī": 2945,
      "è²¡çĶ£æ¨©": 2946,
      "ãģ®çĬ¶æħĭ": 2947,
      "Scheme": 2948,
      "ãģĻãģªãĤıãģ¡": 2949,
      "90": 2950,
      "ax": 2951,
      "ay": 2952,
      "lo": 2953,
      "¯åĭķ": 2954,
      "Ġ,": 2955,
      "ãģ®æľ¬": 2956,
      "ãģĮè¡ĮãĤıãĤĮ": 2957,
      "ãģĻãģĲ": 2958,
      "ãģ®åº": 2959,
      "èªĮ": 2960,
      "ãģĹãģ¦ãĤĤ": 2961,
      "è¡Ŀ": 2962,
      "ä¸Ģãģ¤": 2963,
      "åįĥ": 2964,
      "ãģ®è»": 2965,
      "å½¢è³ª": 2966,
      "ãĥĨãĥ³": 2967,
      "ãģĺãģŁ": 2968,
      "çĻºè¦ĭ": 2969,
      "å¤ļæķ°": 2970,
      "ãĥ¥ãĥ¼": 2971,
      "åħ¥ãĤĮ": 2972,
      "æĽ¸ãģı": 2973,
      "æľĢçµĤ": 2974,
      "å¿ľçĶ¨": 2975,
      "æ©Łéĸ¢": 2976,
      "å¼·ãģĦ": 2977,
      "ãģ®åł´åĲĪãģ¯": 2978,
      "ãĤĴä½ľãĤĭ": 2979,
      "åĶ±": 2980,
      "ç§ģãģ¯": 2981,
      "ãĤ®ãĥªãĤ·ãĥ£": 2982,
      "ãģ®å¤ļãģı": 2983,
      "å©ļ": 2984,
      "ãĤŃãĥªãĤ¹ãĥĪæķĻ": 2985,
      "éº": 2986,
      "įãĥĥãĥĪ": 2987,
      "ãĤĴä¸İ": 2988,
      "æľį": 2989,
      "ãĢįãĢģãĢĮ": 2990,
      "ãĥ©ãĤ¹": 2991,
      "éĢ±": 2992,
      "äººåı£": 2993,
      "ãĥĥãĤ·ãĥ¥": 2994,
      "åĲĪæł¼": 2995,
      "ä½ľæĪĲ": 2996,
      "åľı": 2997,
      "è¨ĢãģĨ": 2998,
      "ãĤīãĤĮãģªãģĦ": 2999,
      "æĻ¯": 3000,
      "åĨĻ": 3001,
      "æĪĲãĤĬç«ĭ": 3002,
      "è²·": 3003,
      "æ®Ĭ": 3004,
      "çµ±è¨Ī": 3005,
      "ãĥ¢ãĥ³": 3006,
      "ä¾¡æł¼": 3007,
      "æ´»çĶ¨": 3008,
      "ç¢ºèªį": 3009,
      "åħĥç´ł": 3010,
      "ãģ®åĪ©": 3011,
      "ãģĻãĤĭãģĵãģ¨ãģ§": 3012,
      "èĤī": 3013,
      "ãĤ²ãĥ¼ãĥłãģ¯": 3014,
      "åĢĭäºº": 3015,
      "èªįãĤģ": 3016,
      "æİ¥ç¶ļ": 3017,
      "ãģ®æŃ»": 3018,
      "åĸĦ": 3019,
      "ãĤ°ãĥ«ãĥ¼ãĥĹ": 3020,
      "é«ĺçŃīåŃ¦æł¡": 3021,
      "ave": 3022,
      "di": 3023,
      "mat": 3024,
      "nt": 3025,
      "©ĭ": 3026,
      "ºæ¿Ģ": 3027,
      "ãģĦãĤı": 3028,
      "ï¼ı": 3029,
      "ãģĤãģªãģŁ": 3030,
      "ãģ¾ãĤĮãģŁ": 3031,
      "ãģĻãĤĭãģĵãģ¨ãĤĴ": 3032,
      "ãĤ¤ãĤª": 3033,
      "å¹´ãģ¾ãģ§": 3034,
      "ä¼ĳ": 3035,
      "å¤§æĪ¦": 3036,
      "é¡ĺ": 3037,
      "æĢ¥": 3038,
      "ç·´": 3039,
      "ãĥīãĥ«": 3040,
      "ãĥŀãĥĥãĥģ": 3041,
      "åĢ«": 3042,
      "ãĥĩãĥ«": 3043,
      "éĢļä¿¡": 3044,
      "çī¹æ®Ĭ": 3045,
      "ä¸ĭãģ«": 3046,
      "éĿ¢ç©į": 3047,
      "ãģ¨ãģįãģ«": 3048,
      "ãģ¨ãģįãģ«ãģ¯": 3049,
      "æĭ¡": 3050,
      "ãĥĢãĥ«": 3051,
      "ãģĴãĤīãĤĮãĤĭ": 3052,
      "ãĤĴæĮģãģ£ãģ¦ãģĦãĤĭ": 3053,
      "å°ĳãģĹ": 3054,
      "è¶Ĭ": 3055,
      "ãģ®æĶ¯": 3056,
      "ãĤĴæıĲ": 3057,
      "åħ·ä½ĵ": 3058,
      "åĲ¦å®ļ": 3059,
      "80": 3060,
      "pe": 3061,
      "yãģ¯": 3062,
      "ãģ«ãģĹãģŁ": 3063,
      "ãĤĴåıĸãĤĬ": 3064,
      "ãģªãģĭ": 3065,
      "ãģĭãĤĤãģĹ": 3066,
      "èªŀãģ§": 3067,
      "ãģ¤ãģ¤": 3068,
      "æķĹ": 3069,
      "äººãģ«": 3070,
      "éĽĦ": 3071,
      "çĶŁåĳ½": 3072,
      "éŁ»": 3073,
      "ãģ«ãĤĪãĤĮãģ°": 3074,
      "ç«ľ": 3075,
      "çŃĨ": 3076,
      "çĤ¹ãģĭãĤī": 3077,
      "æľĢé«ĺ": 3078,
      "ãĥĸãĥ«ãĤ¯": 3079,
      "è§£çŃĶ": 3080,
      "æ¯Ľ": 3081,
      "atch": 3082,
      "ãģ¶ãĤĵ": 3083,
      "çĦ¡ãģĦ": 3084,
      "ãģķãģĽãģŁ": 3085,
      "çĬ¶æ³ģ": 3086,
      "æĢĿæĥ³": 3087,
      "ãĤĴãĤĤãģ¤": 3088,
      "ãĤĴæ±º": 3089,
      "å¤±æ¥Ń": 3090,
      "ãģĭãģ¤ãģ¦": 3091,
      "ãĤµãĥ¼ãĥĵ": 3092,
      "å»¶éķ·": 3093,
      "ãĤªãĤ¹ãĥŀãĥ³": 3094,
      "ãĤ¤ãĥ³ãĤ¿ãĥ¼ãĥįãĥĥãĥĪ": 3095,
      "va": 3096,
      "ºĢ": 3097,
      "Ĳãĥ¼": 3098,
      "ãģ®ãģ§ãģĤãĤĭ": 3099,
      "ãģ«å±ŀ": 3100,
      "ãģ¨ãĤĬ": 3101,
      "ï¼Ĵ": 3102,
      "ãģĤãĤıãģĽ": 3103,
      "ãģ®å¾": 3104,
      "ãĥ³ãģ®": 3105,
      "èª°": 3106,
      "ãĤ¹ãģ¯": 3107,
      "åı¸": 3108,
      "ãģ®æ¼": 3109,
      "ãĥ¼ãĥģ": 3110,
      "ç´Ļ": 3111,
      "ãĤıãģĻ": 3112,
      "æĹ¥ç¨ĭ": 3113,
      "ãĤ¿ãĥ«": 3114,
      "ãĥ³ãĥĿ": 3115,
      "éŁ³ãģ¯": 3116,
      "éłĤ": 3117,
      "åĢĻ": 3118,
      "ãĥĩãĤ¶": 3119,
      "ä½¿ãģĦ": 3120,
      "ãĥĸãĥ©": 3121,
      "çĽ´æİ¥": 3122,
      "ä¿ĿåŃĺ": 3123,
      "ä¸įäºĮ": 3124,
      "æ§ĭæĸĩ": 3125,
      "å¡©": 3126,
      "åĦĦ": 3127,
      "ç¸¾": 3128,
      "ãĥ´ãĤ¡": 3129,
      "ä¸Ģæĸ¹ãģ§": 3130,
      "æļĹ": 3131,
      "ss": 3132,
      "èĮ": 3133,
      "ãģ®éĥ¨åĪĨ": 3134,
      "ãģĮãģĦ": 3135,
      "ãģªãģľ": 3136,
      "ãĤĤãģ£": 3137,
      "ãģ¾ãĤĮ": 3138,
      "ãģ¾ãģł": 3139,
      "ï¼ĪâĢ»": 3140,
      "ãĤ¹ãĤ¯": 3141,
      "å¹ħ": 3142,
      "ãĤ¤ãĤ¨": 3143,
      "åĽ½ãģ®": 3144,
      "ãĥ³ãĥĩ": 3145,
      "ç«¶": 3146,
      "æĢ§ãģĮ": 3147,
      "éļľ": 3148,
      "éĽ»ç£ģ": 3149,
      "åł´åĲĪãģ«ãģ¯": 3150,
      "æŀļ": 3151,
      "ãĥļãĥ³": 3152,
      "ãģĴãĤĭ": 3153,
      "çµ±éłĺ": 3154,
      "çµĤäºĨ": 3155,
      "åĪĩãĤĬ": 3156,
      "ãģ«åĪĨé¡ŀ": 3157,
      "ãģ®æ¥½": 3158,
      "ãģ®æĢ§è³ª": 3159,
      ":âĢ»": 3160,
      "ase": 3161,
      "ci": 3162,
      "ld": 3163,
      "qu": 3164,
      "çł´": 3165,
      "ãģ§è¡¨": 3166,
      "ãĤ¹ãĥĿ": 3167,
      "ãģ¤ãģİ": 3168,
      "éĢĶ": 3169,
      "ãģĹãģŁãĤĤãģ®": 3170,
      "æĹ©": 3171,
      "æĸĩçĮ®": 3172,
      "å½¢ãģ§": 3173,
      "ãĥĨãĤ¹ãĥĪ": 3174,
      "å¤ļæ§ĺ": 3175,
      "ãģĿãģ®ãģ¾ãģ¾": 3176,
      "ãģ«ãĤĪãģ£ãģ¦ãģ¯": 3177,
      "ãĥĸãĥª": 3178,
      "çī¹åĪ¥": 3179,
      "ç·ļåĪĨ": 3180,
      "ãĥīãĤ¤ãĥĦèªŀ": 3181,
      "ãĤĴçĶ¨ãģĦãģŁ": 3182,
      "ãĥ¯ãĥ¼ãĤ¯": 3183,
      "åĪ¤æĸŃ": 3184,
      "å®īå®ļ": 3185,
      "æĨ²": 3186,
      "äºĴãģĦãģ«": 3187,
      "èĹ¤": 3188,
      "ãģ£ãģ½": 3189,
      "ãĤ¤ãĥ³ãĥķãĥ¬": 3190,
      "è¡Ŀçªģ": 3191,
      "))": 3192,
      "31": 3193,
      "der": 3194,
      "tim": 3195,
      "ure": 3196,
      "âĪł": 3197,
      "æ©ĭ": 3198,
      "èĶ": 3199,
      "èŀį": 3200,
      "ĠãĤ¢": 3201,
      "ĺİ": 3202,
      "ãģ¦ãģĦãģŁ": 3203,
      "ãģŁãĤī": 3204,
      "ãĥ¼ãĤº": 3205,
      "ï¼īãĥ»": 3206,
      "ãĥĪãĥ©": 3207,
      "ãĤ¤ãĤº": 3208,
      "ãĥªãĤºãĥł": 3209,
      "ãĥ¼ãĥĢ": 3210,
      "ãģĬãģĨ": 3211,
      "å¾ģ": 3212,
      "æĸĩãģ¯": 3213,
      "äººæł¼": 3214,
      "ãĥĥãĥĦ": 3215,
      "çī©ä¾¡": 3216,
      "é¡ķ": 3217,
      "éĩĪ": 3218,
      "ãģ¡ãĤĩãģĨ": 3219,
      "éĿĻ": 3220,
      "è²©": 3221,
      "ãĥ¡ãĥ³ãĥĪ": 3222,
      "æĬĹ": 3223,
      "çŁ¥ãĤīãĤĮãģ¦ãģĦãĤĭ": 3224,
      "æ¯İ": 3225,
      "éĸĭå§ĭ": 3226,
      "Ġare": 3227,
      "åģ¶": 3228,
      "æĸ°ãģĹãģĦ": 3229,
      "åıĸãĤĭ": 3230,
      "ãģ®ä¸Ńå¿ĥ": 3231,
      "éĩıãģ¯": 3232,
      "çĶ±æĿ¥": 3233,
      "å¸Ĥåł´": 3234,
      "èĬ¸": 3235,
      "ãĥĩãĤ£ãĤ¢": 3236,
      "ãģĹãģıãģ¯": 3237,
      "ãģµãģı": 3238,
      "è£½ä½ľ": 3239,
      "éģ©çĶ¨": 3240,
      "lay": 3241,
      "ãģĹãģ¾ãģĨ": 3242,
      "æĨ¶": 3243,
      "angle": 3244,
      "ãģ®æ¯Ķ": 3245,
      "ãģ®ç¨®é¡ŀ": 3246,
      "matrix": 3247,
      "ãĤµãĥ¼ãĥĵãĤ¹": 3248,
      "%ãĢģ": 3249,
      "II": 3250,
      "ht": 3251,
      "è¸": 3252,
      "ĠW": 3253,
      "ãģ«ãģĹãģ¦": 3254,
      "ãģ«åĩº": 3255,
      "ãģĹãģį": 3256,
      "ãģĻãĤĭãĤĤãģ®": 3257,
      "ãģ£ãģ¦ãģĬãĤĬ": 3258,
      "æĸĩæĺİ": 3259,
      "ä¸Ńãģ«": 3260,
      "å®ļçĲĨ": 3261,
      "ãĤ¸ãĤª": 3262,
      "å±Ī": 3263,
      "ç·ł": 3264,
      "int": 3265,
      "èĩªåĭķ": 3266,
      "è¨ĺæĨ¶": 3267,
      "åĳ¼ãģ³": 3268,
      "åıĹç²¾": 3269,
      "æ¬¡ãģ®": 3270,
      "åįĺä½į": 3271,
      "ãģ¨ãģĦãģĨæĦıåĳ³ãģ®åĲįè©ŀãģ§ãģĤãĤĭ": 3272,
      "ãĥ¢ãĥĩãĥ«": 3273,
      "åıįå¯¾": 3274,
      "2004": 3275,
      "å°ĳãģªãģı": 3276,
      "å°İåħ¥": 3277,
      "éĽ£æĺĵ": 3278,
      "ãģ®åĽ³": 3279,
      "åıĬãģ³": 3280,
      "1980": 3281,
      "ãģ®åĮº": 3282,
      "èį·": 3283,
      "ãģłãģĳãģ§ãģªãģı": 3284,
      "åĬ´åĥį": 3285,
      "40": 3286,
      "è¢": 3287,
      "èĻ": 3288,
      "ĠL": 3289,
      "ãģ«ä½ı": 3290,
      "ãģ«ãģªãĤĬãģ¾ãģĻ": 3291,
      "ãģ¨ãģĹ": 3292,
      "ãĤĴåıĤçħ§": 3293,
      "ãģĤãģĦ": 3294,
      "ãģĭãģªãĤĬ": 3295,
      "ãĤīãģı": 3296,
      "ï¼Īï¼ī": 3297,
      "ãģ©ãĤĮ": 3298,
      "ãĥ¼ãĥķ": 3299,
      "éģ£": 3300,
      "çĽ£": 3301,
      "ãĤĵãģª": 3302,
      "ãģªãģ©ãģ¨": 3303,
      "åĲĪè¡Ĩ": 3304,
      "å¤§åķı": 3305,
      "æĿŁ": 3306,
      "ä½ĵåĪ¶": 3307,
      "ãģ¨ãģĹãģ¦ãĤĤ": 3308,
      "èĩ³": 3309,
      "éł»": 3310,
      "ãĤįãģı": 3311,
      "æıı": 3312,
      "ãĥ¼ãĥĪãĥ«": 3313,
      "éģ¸æĮĻ": 3314,
      "èģ´": 3315,
      "å¤§ãģįãģĦ": 3316,
      "èĭ±èªŀãģ§": 3317,
      "èªŃãĤĢ": 3318,
      "é¦¬": 3319,
      "ãģ¨è¨ĢãģĨ": 3320,
      "çŃĶãģĪ": 3321,
      "éģİåİ»å½¢": 3322,
      "ãģ®åĪĨéĩİ": 3323,
      "ãĥĹãĥ¬ãĤ¤": 3324,
      "ãĤĴæĶ¯": 3325,
      "å°ĤéĸĢ": 3326,
      "æ¢°": 3327,
      "BC": 3328,
      "Ġ5": 3329,
      "ĠãĤĦ": 3330,
      "ãģ¨ãģ¿": 3331,
      "åŃĶ": 3332,
      "åĪºæ¿Ģ": 3333,
      "ãĤ¤ãĥ©ãĥ³": 3334,
      "çµ¦": 3335,
      "ç´¹": 3336,
      "çĽĬ": 3337,
      "çĽĽ": 3338,
      "åĽ½ãģ¯": 3339,
      "ãĤĴæºĢ": 3340,
      "ä¸Ģèĩ´": 3341,
      "ä½ľçĶ¨": 3342,
      "ãģ®çı¾": 3343,
      "å¤§ãģª": 3344,
      "ãģ®èŃ": 3345,
      "æī¿": 3346,
      "ãģ¿ãģ¾ãģĹãĤĩãģĨ": 3347,
      "ãĤªãĥ©ãĥ³ãĥĢ": 3348,
      "ä¼ļç¤¾": 3349,
      "è²¢": 3350,
      "ãģļãģ¤": 3351,
      "ãģĿãģ®ãĤĪãģĨãģª": 3352,
      "çµĲãģ³": 3353,
      "ãĥļãĥ«": 3354,
      "all": 3355,
      "ãģ«ãģĬãģĦãģ¦ãĤĤ": 3356,
      "ãģ¨ãģĻãĤĭãģ¨": 3357,
      "ous": 3358,
      "åıįå°Ħ": 3359,
      "è¦ıæ¨¡": 3360,
      "ç¤¾ä¼ļä¸»ç¾©": 3361,
      "å¢ĹåĬł": 3362,
      "èĩªçĦ¶è¨Ģèªŀ": 3363,
      "ãģ®å½¢å®¹è©ŀ": 3364,
      "ãģªãģĳãĤĮãģ°ãģªãĤīãģªãģĦ": 3365,
      "èªĺå°İ": 3366,
      "åĩºæĿ¥ãĤĭ": 3367,
      "åī¯è©ŀ": 3368,
      "ä¸įäºĮå¤«": 3369,
      "23": 3370,
      "Â°": 3371,
      "æį": 3372,
      "ĠJ": 3373,
      "ãģĦãģ£ãģ½": 3374,
      "ãģĮçĻº": 3375,
      "ãģ®åĵ": 3376,
      "äºķ": 3377,
      "ãģĹãģ¦ãģĦãģı": 3378,
      "ãģĹãģ¦ãģĦãģªãģĦ": 3379,
      "ãĤ¹ãĤ¿ãĥ¼": 3380,
      "èªŀãģ§ãģĤãĤĭ": 3381,
      "ãģ®æ¤ľ": 3382,
      "ãģ©ãģ®ãĤĪãģĨãģ«": 3383,
      "æĹ¢": 3384,
      "ãģĭãĤīãģªãĤĭ": 3385,
      "ãĤĴæŃ": 3386,
      "å¤§çµ±éłĺ": 3387,
      "ä¸Ńãģ§": 3388,
      "ãģ®è¿": 3389,
      "èĥĮ": 3390,
      "å¯Ħ": 3391,
      "ãĥĨãĥ¼ãĥĸ": 3392,
      "å¸Ń": 3393,
      "åĲĮä¸Ģ": 3394,
      "éĻ½": 3395,
      "çµĮé¨ĵ": 3396,
      "åħ¨åĽ½": 3397,
      "ç·ļãĤĴ": 3398,
      "ãģ¨ãģįãģ¯": 3399,
      "æ®»": 3400,
      "åģı": 3401,
      "ä¹³": 3402,
      "è©±ãģĹ": 3403,
      "ãĤ±ãĥ¼ãĤ·ãĥ§ãĥ³": 3404,
      "å¿ħè¦ģãģĮãģĤãĤĭ": 3405,
      "ãģĶãĤį": 3406,
      "ãĤ³ãĥ³ãĥĨ": 3407,
      "ãģ®åĢį": 3408,
      "ä½İãģĦ": 3409,
      "ãģĸãĤĵ": 3410,
      "ãĤĴä½¿ãģĨ": 3411,
      "ãĤ¦ãĤ£ãĥ¼ãĥ³": 3412,
      "éħ¸åĮĸ": 3413,
      "osa": 3414,
      "éĺª": 3415,
      "åįłãĤģãĤĭ": 3416,
      "æ¨¡è©¦": 3417,
      "ãĤ®ãĥªãĤ·ãĤ¢": 3418,
      "å²¸": 3419,
      "ãģ®ç·ı": 3420,
      "ãģ®æ¨©": 3421,
      "ãģĦãĤıãĤĨãĤĭ": 3422,
      "ç´¹ä»ĭ": 3423,
      "ear": 3424,
      "°·": 3425,
      "è°·": 3426,
      "éŃ": 3427,
      "Ġu": 3428,
      "ĸ³": 3429,
      "ŀľ": 3430,
      "ãģ®ä¸Ĭ": 3431,
      "ãĤĴèµ·ãģĵ": 3432,
      "ãģĮåĪĨ": 3433,
      "ãģĮéĢ²": 3434,
      "ãģĮèµ·ãģĵ": 3435,
      "ä¸ģ": 3436,
      "ãģĻãģĨ": 3437,
      "ãģĭãģª": 3438,
      "ä½µ": 3439,
      "ãģ¾ãģ§ãģ¯": 3440,
      "ãģĻãĤĭåł´åĲĪ": 3441,
      "ãĤ¹ãĤ«": 3442,
      "ãģıãģªãĤĭ": 3443,
      "ãĤ¢ãĥ¼": 3444,
      "ãĤ¢ãĥĬ": 3445,
      "ãģ®æµ": 3446,
      "ãģķãĤĮãģªãģĦ": 3447,
      "ãģĭãĤīãģ§ãģĤãĤĭ": 3448,
      "ãĤĴæĦıåĳ³": 3449,
      "çĶ¨ãģĦãĤĭ": 3450,
      "åĲĪåĲĮ": 3451,
      "ä¸Ģæ¬¡": 3452,
      "å¤§ä¼ļ": 3453,
      "ãĥ³ãĥģ": 3454,
      "æĸ¹å½¢": 3455,
      "ãģ®èī": 3456,
      "ä¾¿": 3457,
      "åŃĲãģĮ": 3458,
      "æĶ»": 3459,
      "æĦıèŃĺ": 3460,
      "ãģĵãģ¨ãģĮåĪĨ": 3461,
      "ãĥŀãĥ¼": 3462,
      "æİ¢": 3463,
      "çĽ¸æĴ": 3464,
      "æľīåĲį": 3465,
      "åĪ¶éĻĲ": 3466,
      "å°ıãģķ": 3467,
      "åħ¬éĸĭ": 3468,
      "æ©Łæ§ĭ": 3469,
      "åĪĿãĤģãģ¦": 3470,
      "éĻĲãĤĬ": 3471,
      "åĻ¨å®ĺ": 3472,
      "è¤ĩéĽĳ": 3473,
      "ãĥªãĤ¹ãĤ¯": 3474,
      "ãĤĴåıĹãģĳãĤĭ": 3475,
      "æĶ¹æŃ£": 3476,
      "åĬ¹æŀľ": 3477,
      "ign": 3478,
      "ãģ®ãģĵãģ¨ãģ§ãģĤãĤĭ": 3479,
      "ãĤĴæıı": 3480,
      "ãĥĹãĥ©ãĥĪãĥ³": 3481,
      "æ¹¾": 3482,
      "iki": 3483,
      "ãĥįãĥĥãĥĪãĥ¯ãĥ¼ãĤ¯": 3484,
      "times": 3485,
      "çĽ¸æĴ²": 3486,
      "foo": 3487,
      "op": 3488,
      "ãģ®éħį": 3489,
      "ãģ®ãģıãĤīãģĦ": 3490,
      "ãģ¨ãģĭ": 3491,
      "ãģĹãĤį": 3492,
      "ãĤ¹ãģ®": 3493,
      "è¨İ": 3494,
      "ãģ®æ©Ł": 3495,
      "è¡Ľ": 3496,
      "åŃ¦ãģ¯": 3497,
      "äººæ°Ĺ": 3498,
      "ãĥĥãĤ«": 3499,
      "åĲĪçī©": 3500,
      "æĪĳ": 3501,
      "è¨ĢãģĦ": 3502,
      "çĲī": 3503,
      "éĥ¨ãģ«": 3504,
      "å¯¾å¿ľ": 3505,
      "ç¨İ": 3506,
      "ãģĿãĤĮãģĮ": 3507,
      "éļ£": 3508,
      "ãĤŃãĥ¼": 3509,
      "æīĭæ³ķ": 3510,
      "æŃ£ãģĹãģĦ": 3511,
      "åĪ¶åº¦": 3512,
      "ãĥªãĥ¼ãĤº": 3513,
      "ãĥģãĥ£ãĥ¼ãĥĪ": 3514,
      "æĮĩæĳĺ": 3515,
      "æµ·éģĵ": 3516,
      "Ġhave": 3517,
      "å½¼ãģ¯": 3518,
      "ãģ®æŃ£": 3519,
      "éģİåİ»åķı": 3520,
      "å®ŁéļĽãģ«": 3521,
      "å½¹åī²": 3522,
      "ãģ®æĿ¡": 3523,
      "ãģ®æ°ĳ": 3524,
      "ãĤĴæĮĩãģĻ": 3525,
      "ãģĿãģĵãģ§": 3526,
      "çĤŃç´ł": 3527,
      "ãģĭãĤĤãģĹãĤĮãģªãģĦ": 3528,
      "è¸ı": 3529,
      "27": 3530,
      "du": 3531,
      "ive": 3532,
      "ta": 3533,
      "ĠR": 3534,
      "ĠV": 3535,
      "Ġ|": 3536,
      "ĠãģĦ": 3537,
      "Ľ²": 3538,
      "ãģ«ä¼´": 3539,
      "ãĤĴè§£": 3540,
      "ãĤĴå¤ī": 3541,
      "ãģªãģĹ": 3542,
      "ãģĹãĤĵ": 3543,
      "ãģŁãģĹ": 3544,
      "ãģ®å¿": 3545,
      "ãĤ¤ãĤ¿": 3546,
      "ãĤĴæŀľ": 3547,
      "ãģ®çķ": 3548,
      "ãģ®çŃ": 3549,
      "åº·": 3550,
      "æķ°ãģ§ãģĤãĤĭ": 3551,
      "ãģ®è·": 3552,
      "ãĥŃãĥ¼": 3553,
      "ãĤ«ãĥ©": 3554,
      "åĩºãģĹãģŁ": 3555,
      "ãģĤãĤĬãģ¾ãģĽãĤĵ": 3556,
      "æ³ķå¾ĭ": 3557,
      "ãĤĪãģĨãģ«ãģªãĤĬ": 3558,
      "2010": 3559,
      "ãĢıãĢİ": 3560,
      "ãģĿãĤĮãģ¯": 3561,
      "åħ¥ãĤĬ": 3562,
      "ä¼ĿéģĶ": 3563,
      "ãĥıãĥ³": 3564,
      "æŃ£ç¢º": 3565,
      "åĲĳãģĳ": 3566,
      "ãĥļãĥĢãĥ«": 3567,
      "ãĤıãĤĮãģ¦ãģĦãĤĭ": 3568,
      "è©±èĢħ": 3569,
      "ä¸ĸçķĮå¤§æĪ¦": 3570,
      "ãģ®åĪĿ": 3571,
      "éĻĲçķĮ": 3572,
      "ãģ®åħ¥": 3573,
      "å¤§ãģįãģķ": 3574,
      "å°ĳãģªãģĦ": 3575,
      "åģ´ãģ«": 3576,
      "è³ĩæľ¬": 3577,
      "çķªçĽ®": 3578,
      "ãģ®åī²": 3579,
      "å®ŁéļĽãģ«ãģ¯": 3580,
      "éģ¸æĬľ": 3581,
      "ãģ®æĶ¿": 3582,
      "åĬ©è©ŀ": 3583,
      "ä¸İãģĪãĤīãĤĮãģŁ": 3584,
      "åĲ«ãģ¾ãĤĮãĤĭ": 3585,
      "è£ģåĪ¤": 3586,
      "AC": 3587,
      "ac": 3588,
      "beg": 3589,
      "ãģĦãģ§": 3590,
      "ãĤĴãģĬ": 3591,
      "ãģĮãĤĭ": 3592,
      "ãģŁãģªãģĦ": 3593,
      "ãģĤãĤĮãģ°": 3594,
      "ãģĨãģ¡": 3595,
      "ãĤĤåŃĺåľ¨ãģĻãĤĭ": 3596,
      "ãĥĪãĥł": 3597,
      "ãģ®æ´»": 3598,
      "åŃ¦èĢħ": 3599,
      "ãģ©ãģĵ": 3600,
      "å¾¡": 3601,
      "ãĤĴæ§ĭ": 3602,
      "çĶ¨æ³ķ": 3603,
      "çī©ä½ĵ": 3604,
      "ãĤ¿ãĥ³": 3605,
      "åĮĸãģĻãĤĭ": 3606,
      "ä¸Ĭè¨ĺ": 3607,
      "éĻº": 3608,
      "ä¸»è¦ģ": 3609,
      "åĢŁ": 3610,
      "ç¾¤": 3611,
      "ãĥĲãĤ¤": 3612,
      "æľŁæĹ¥ç¨ĭ": 3613,
      "ther": 3614,
      "çī¹æĴ®": 3615,
      "ãģĪãĤĭãģ¨": 3616,
      "ãĥ¼ãĥ«ãĥī": 3617,
      "æ¬¡ä¸ĸçķĮå¤§æĪ¦": 3618,
      "èĭ¥": 3619,
      "æº¶": 3620,
      "ãģ¾ãģ§ãģ«": 3621,
      "è¨ĪçĶ»": 3622,
      "ãģ«ãĤĪãĤĭãģ¨": 3623,
      "å°ıãģķãģĦ": 3624,
      "ãģ®ä¸Ńãģ«": 3625,
      "Ġbe": 3626,
      "æ°´ç´ł": 3627,
      "ãģ®åħ¨": 3628,
      "ãĥľãĥ¼ãĥī": 3629,
      "æ¥½åĻ¨": 3630,
      "ãĤ¢ãĥ¡ãĥªãĤ«åĲĪè¡Ĩ": 3631,
      "è¦³å¯Ł": 3632,
      "1990": 3633,
      "Ġnot": 3634,
      "ãĤĴéĢļãģĺãģ¦": 3635,
      "ç·ıåĲĪ": 3636,
      "çµĦãģ¿åĲĪãĤıãģĽ": 3637,
      "ãģ®çŁ³": 3638,
      "çĨŁ": 3639,
      "ãģ®æ°´": 3640,
      "ãģ®å®Łé¨ĵ": 3641,
      "...": 3642,
      "æŁĵèī²ä½ĵ": 3643,
      "ãģ®èµ·": 3644,
      "ãĤªãĤ¹ãĥŀãĥ³å¸ĿåĽ½": 3645,
      "ãģ®åĮºåĪ¥": 3646,
      "osaur": 3647,
      "begin": 3648,
      "26": 3649,
      "29": 3650,
      "AN": 3651,
      "Osi": 3652,
      "iz": 3653,
      "ry": 3654,
      "rom": 3655,
      "ĠY": 3656,
      "Ġon": 3657,
      "ãģ«ãģı": 3658,
      "ãģ«å¿ľ": 3659,
      "ãģĮãģ¤": 3660,
      "ãģĮåŃĺåľ¨": 3661,
      "ï¼ħ": 3662,
      "ãĤĤãģĤãĤĬ": 3663,
      "ãģıãģ¨": 3664,
      "ãĤ¢ãĥĭ": 3665,
      "ãĤ¢ãĥĥãĥĹ": 3666,
      "éĸ£": 3667,
      "éģ¿": 3668,
      "éģħ": 3669,
      "å½±": 3670,
      "åĪĨæŀĲ": 3671,
      "äººãģ¨": 3672,
      "ãĥ³ãĥĸ": 3673,
      "åºĹ": 3674,
      "å®ļæķĻç§ĳæĽ¸": 3675,
      "ãĤĤãģ®ãģĮ": 3676,
      "æĹ¥æľ¬ãģ®": 3677,
      "åĢī": 3678,
      "çĤ¹ãģ¯": 3679,
      "é«Ħ": 3680,
      "æĺİãĤīãģĭ": 3681,
      "æİĽ": 3682,
      "ç´°èĥŀãģĮ": 3683,
      "èĪ¹": 3684,
      "åħ¨ãģı": 3685,
      "æ°ĳä¸»": 3686,
      "ãĥĬãĥ¼": 3687,
      "åİŁåīĩ": 3688,
      "ãĤ»ãĥ«": 3689,
      "åģ¥": 3690,
      "ãģªãĤīãģļ": 3691,
      "ãĤıãĤĮãģŁ": 3692,
      "ç´Ģåħĥ": 3693,
      "Ġse": 3694,
      "å»·": 3695,
      "ãģĵãĤĮãĤīãģ¯": 3696,
      "ãģ¨ãģ®éĸ¢ä¿Ĥ": 3697,
      "ãģĻãĤĭãģĵãģ¨ãģĮãģ§ãģįãĤĭ": 3698,
      "åŁºæľ¬çļĦãģª": 3699,
      "ãĥĭãĥ¥ãĥ¼ãĥŃ": 3700,
      "ãģ®è³ª": 3701,
      "ãģ«ãģĭãģĳãģ¦": 3702,
      "ãģ®æĮĩ": 3703,
      "ãģĦãģ£ãģ½ãģĨ": 3704,
      "ãģ®èī²": 3705,
      "Sm": 3706,
      "Ġãģ§ãģĤãĤĭ": 3707,
      "Ġun": 3708,
      "ãģ®ãģªãģĦ": 3709,
      "ãģ®ãģ§ãģĻ": 3710,
      "ãģ®é«ĺ": 3711,
      "ãģ¯ãģĦ": 3712,
      "ãģ§ãģ«": 3713,
      "ãĤĴãģĹãģ¦ãģĦãĤĭ": 3714,
      "ãģĭãģŁ": 3715,
      "ãģĭãĤĮ": 3716,
      "ãĤĤå¤ļãģĦ": 3717,
      "è¨ĵ": 3718,
      "ãĥĪãĤ³": 3719,
      "ãģ®æĥ": 3720,
      "ãģ®æ¶Ī": 3721,
      "ãĥªãĥĥãĥĪ": 3722,
      "ãģĭãĤīãģ®": 3723,
      "ãĥ³ãĥľ": 3724,
      "æĪ»": 3725,
      "å¯§": 3726,
      "åĩºèº«": 3727,
      "çĲĨçļĦ": 3728,
      "çĲĨç§ĳ": 3729,
      "ãĤ³ãĥŃ": 3730,
      "ç·ĳ": 3731,
      "éł¼": 3732,
      "ãģĵãģ®ãģŁãĤģ": 3733,
      "ãģĵãĤĮãģĮ": 3734,
      "ãĥŀãĥ«": 3735,
      "æİ²": 3736,
      "ç´°èĥŀèĨľ": 3737,
      "èµ°": 3738,
      "æ¬¡æĸ¹ç¨ĭå¼ı": 3739,
      "æľīãģĻãĤĭ": 3740,
      "ç¨®åŃĲ": 3741,
      "èĢĥãģĪæĸ¹": 3742,
      "è·¡": 3743,
      "æĴĥ": 3744,
      "ãģ®æŃ´åı²": 3745,
      "ãģ®æĪ¦": 3746,
      "èµ¤å¡ļä¸įäºĮå¤«": 3747,
      "è¼¸éĢģ": 3748,
      "ult": 3749,
      "çĹħ": 3750,
      "ãĤ¢ãĥ©ãĥĸ": 3751,
      "ãģĦãģļãĤĮãĤĤ": 3752,
      "ä¾ĿåŃĺ": 3753,
      "ãĤ¤ãĤ¿ãĥªãĤ¢": 3754,
      "CP": 3755,
      "PC": 3756,
      "pr": 3757,
      "Ġ:": 3758,
      "Ġ>": 3759,
      "ãģ®äº¤": 3760,
      "ãģ«å¤ī": 3761,
      "ãģ¦ãĤĭ": 3762,
      "ï¼ĵ": 3763,
      "ãģĤãģ£ãģ¦": 3764,
      "ãĥ³ãģ¨": 3765,
      "ãģĹãģ¦ãģįãģŁ": 3766,
      "èªŀãģ¨": 3767,
      "ãĤ¤ãĥī": 3768,
      "åĪĨéĽ¢": 3769,
      "æĺ¥": 3770,
      "æŃ©": 3771,
      "æĻĤæľŁ": 3772,
      "åĲĮæĻĤãģ«": 3773,
      "2000": 3774,
      "å¯¾å¿ľãģĻãĤĭ": 3775,
      "ä¼ļåł´": 3776,
      "ä¼ļè©±": 3777,
      "ä¼ļèŃ°": 3778,
      "æ¸ħ": 3779,
      "åľ°çĲĥ": 3780,
      "å®Łè³ª": 3781,
      "ãĥĲãĥ¼": 3782,
      "Ġ\\,": 3783,
      "éĽ»ä½į": 3784,
      "ãģªãģıãģªãĤĭ": 3785,
      "çŁ¥çļĦ": 3786,
      "åł´åĲĪãĤĤãģĤãĤĭ": 3787,
      "çĽ¸ä¼¼": 3788,
      "åĨħãģ«": 3789,
      "å¹³åĿĩ": 3790,
      "ãģ«å¯¾å¿ľãģĻãĤĭ": 3791,
      "ãĤ¤ãĥ³ãĤº": 3792,
      "æ©Łæ¢°": 3793,
      "è©¦ãģ¿": 3794,
      "æīĢå¾Ĺ": 3795,
      "èµ·ãģį": 3796,
      "åĢĭåĪ¥": 3797,
      "ãĤ¶ãĥ¼": 3798,
      "ãĤĴè¡Įãģ£ãģŁ": 3799,
      "ãĤĴåıĹãģĳãģŁ": 3800,
      "ãģ¼ãģĨ": 3801,
      "åĶĩ": 3802,
      "åĥįãģį": 3803,
      "åıĹé¨ĵçĶŁ": 3804,
      "è«¸åĽ½": 3805,
      "æĸ¹åĲĳãģ«": 3806,
      "ç¶Ļç¶ļ": 3807,
      "ãģ®è²¿æĺĵ": 3808,
      "ãĤ¯ãĥ«ãĥī": 3809,
      "é³¥å±±": 3810,
      "ãģ®æķĻç§ĳæĽ¸": 3811,
      "ãģ¯ãģĺãĤģ": 3812,
      "èĶµ": 3813,
      "è²©å£²": 3814,
      "()": 3815,
      "per": 3816,
      "pre": 3817,
      "pro": 3818,
      "Î¼": 3819,
      "èĵ": 3820,
      "ãģ®ä¸¡": 3821,
      "ãģ®ãģ»ãģĭ": 3822,
      "ãĢģï¼Ī": 3823,
      "ãģ«å¾ĵ": 3824,
      "ãģĦãĤį": 3825,
      "ãģªãĤĵ": 3826,
      "ãģŁãģĪ": 3827,
      "ï¼ľ": 3828,
      "ãĥ«ãĥĦ": 3829,
      "ãĤ¢ãĥķ": 3830,
      "ãģ®æĦı": 3831,
      "ãģ§ãģĤãĤĭãģŁãĤģ": 3832,
      "å¹´éĸĵ": 3833,
      "ãĤ¯ãĤ¿": 3834,
      "ãĤģãĤīãĤĮãĤĭ": 3835,
      "å¾Ħ": 3836,
      "äººçī©": 3837,
      "äººé¡ŀ": 3838,
      "ä¼¸": 3839,
      "ãģ®ç¬": 3840,
      "åĮĸãģĹ": 3841,
      "ä»£åħ¥": 3842,
      "éŁ³éŁ»": 3843,
      "æŃ³": 3844,
      "ãĤĤãģ®ãģ§": 3845,
      "å±ħ": 3846,
      "æĹ¥æľ¬ãģ§ãģ¯": 3847,
      "ãĥ¡ãĤ¤ãĥ³": 3848,
      "å¤ĸåĽ½": 3849,
      "çĽ¸å½ĵ": 3850,
      "ãģ®å¤ĸ": 3851,
      "æĸ°ãģŁ": 3852,
      "åħ¬å¼ı": 3853,
      "ä¸ĩäºº": 3854,
      "ãĤ³ãĥ³ãĥĳ": 3855,
      "é£Łãģ¹": 3856,
      "ãĤıãĤĬãģ«": 3857,
      "éģ©åĪĩ": 3858,
      "ĠâĪł": 3859,
      "ãģ®æĿ±": 3860,
      "ãĥīãĥ©ãĤ´": 3861,
      "çĹĩ": 3862,
      "é¦ĸçĽ¸": 3863,
      "æ½Ł": 3864,
      "æĸĩèĦĪèĩªçĶ±": 3865,
      "ç¦ģæŃ¢": 3866,
      "ãĤ¹ãĥĿãĥ¼ãĥĦ": 3867,
      "ãģ®åī²åĲĪ": 3868,
      "),": 3869,
      "22": 3870,
      "IS": 3871,
      "The": 3872,
      "age": 3873,
      "éĹ": 3874,
      "ĠãĤĪ": 3875,
      "ãģ¬": 3876,
      "ãģ®ãĥĶãĤ¢ãĥİ": 3877,
      "ãģ«ãģĻãĤĭ": 3878,
      "ãĤĴçį²å¾Ĺ": 3879,
      "ãģĮåı¯èĥ½": 3880,
      "ãģ¦ãģĦ": 3881,
      "ä¸¸": 3882,
      "ãģĻãģ§ãģ«": 3883,
      "ãģĤãģŁãĤĬ": 3884,
      "ãģ®å¸": 3885,
      "ãģĭãĤĮãģŁ": 3886,
      "ä½Ļ": 3887,
      "ãģĹãģ¦ãģĦãģ¾ãģĻ": 3888,
      "ãĥ«ãĥ¼ãĥ«": 3889,
      "ãĤ¢ãĥĥ": 3890,
      "è¨´": 3891,
      "åŃ¦æ´¾": 3892,
      "ãģ©ãģ®ãĤĪãģĨãģª": 3893,
      "ãĥ©ãĥ«": 3894,
      "ãĥ¼ãĥĲ": 3895,
      "ãĤıãģļ": 3896,
      "ãĤĴæĺİ": 3897,
      "ä¸Ģéĥ¨": 3898,
      "ãģ®ç²": 3899,
      "ãĤ·ãĥªãĤ¢": 3900,
      "æĿ¾": 3901,
      "æī¹åĪ¤": 3902,
      "éŁ³ãĤĴ": 3903,
      "ãģ¡ãĤĥ": 3904,
      "ãģĵãģ¨ãģĮãģ§ãģįãģ¾ãģĻ": 3905,
      "å·»": 3906,
      "èŃ²": 3907,
      "ãĥģãĥ¥": 3908,
      "ãĥİãĥ¼ãĥī": 3909,
      "éĽ»åł´": 3910,
      "ong": 3911,
      "åķıé¡Įãģ¯": 3912,
      "ãģ«ãģªãĤĭãģ¨": 3913,
      "åįĺæķ°": 3914,
      "ãģĴãĤĵ": 3915,
      "çµ±æ²»": 3916,
      "è±Ĭ": 3917,
      "å¿ħè¦ģãģª": 3918,
      "åĵ²åŃ¦ãģ¯": 3919,
      "ãģ®åıĹ": 3920,
      "oog": 3921,
      "ãĤ¤ãĥ©ãĤ¹ãĥĪ": 3922,
      "ä¸¡åĽ½": 3923,
      "è·ĿéĽ¢": 3924,
      "ä»®å®ļ": 3925,
      "æŃ»å¾Į": 3926,
      "å§ĵ": 3927,
      "å¥³æĢ§": 3928,
      "ãĤĴä½¿ãģ£ãģ¦": 3929,
      "èı¯": 3930,
      "åı³åĽ³": 3931,
      "ãĤ¦ãĤ§ãĥĸ": 3932,
      "ãĤ«ãĥ¬ãĥ³ãģ¯": 3933,
      "åįĶä¼ļ": 3934,
      "éľĢ": 3935,
      "ãģ®åŁºæľ¬": 3936,
      "æ¬§å·ŀ": 3937,
      "ãĤĴçµĮãģ¦": 3938,
      "å®¤çĶº": 3939,
      "ãĤ¹ãĥļãĤ¤ãĥ³": 3940,
      "ãģ®ç«ĭ": 3941,
      "ãģ®ç¥ŀ": 3942,
      "ãģ®è¾º": 3943,
      "ãĥĩãĤ¶ãĤ¤ãĥ³": 3944,
      "éĽ£æĺĵåº¦": 3945,
      "è¢«": 3946,
      "ä¸ģå¯§": 3947,
      "çĲīçĲĥ": 3948,
      "ç´Ģåħĥåīį": 3949,
      "DE": 3950,
      "ah": 3951,
      "ft": 3952,
      "mand": 3953,
      "ph": 3954,
      "°ãĤĬ": 3955,
      "æĲ": 3956,
      "Ġï¼ĭ": 3957,
      "ãģ®è¡¨": 3958,
      "ãģ®ä¸ĭ": 3959,
      "ãģ¨ç§°": 3960,
      "ãĤĴçĶŁ": 3961,
      "ãģĮé«ĺ": 3962,
      "ãģ¦ãģĬãĤĬ": 3963,
      "ãģĹãĤĩ": 3964,
      "ãģ®å±": 3965,
      "ãĥ³ãĤ¯": 3966,
      "ãĤ¹ãĥĨãĤ£": 3967,
      "ä»ı": 3968,
      "èªŀå°¾": 3969,
      "ãģķãĤĮãģ¾ãģĻ": 3970,
      "çļĦãģ§ãģĤãĤĭ": 3971,
      "ãģĬãģį": 3972,
      "ãģ¨ãģĦãģĨãģĵãģ¨": 3973,
      "ãĤ·ãĥ«": 3974,
      "å°±": 3975,
      "ãģ®èĥ": 3976,
      "ãģ¨ãģĹãģ¦æī±": 3977,
      "ãĤ«ãĥ³": 3978,
      "å½¢å®¹": 3979,
      "å½¢æħĭ": 3980,
      "åŃĲãģ¯": 3981,
      "èĢħãģ«": 3982,
      "ãĥĹãĥĪ": 3983,
      "æłĦ": 3984,
      "è²¸": 3985,
      "è«¾": 3986,
      "åĢĴ": 3987,
      "è¨ĺè¼ī": 3988,
      "åīįç½®": 3989,
      "äºĭãĤĴ": 3990,
      "å¹³å®ī": 3991,
      "åįĺç´Ķ": 3992,
      "ç¢ģ": 3993,
      "åħ±åĲĮ": 3994,
      "æĻĤä»£ãģ«ãģ¯": 3995,
      "ãģ®åĲĮ": 3996,
      "éĩıãģĮ": 3997,
      "ãĤ±ãĤ¤ãĥ³ãĤº": 3998,
      "å¼·ãģı": 3999,
      "ãĤ¬ãĥ«": 4000,
      "æĢĿèĢĥ": 4001,
      "ãģ¥ãģĳ": 4002,
      "ç¹Ĭ": 4003,
      "åĮ»åŃ¦éĥ¨": 4004,
      "ãģ®åįĬ": 4005,
      "ãģ®å¼·": 4006,
      "ãĤ¢ãĤ¯ãĤ·ãĥ§ãĥ³": 4007,
      "ãĤ¦ãĤ£ãĤŃ": 4008,
      "æ£Ħ": 4009,
      "ç¦ı": 4010,
      "ãĤ¿ãĤ¤ãĥĪãĥ«": 4011,
      "è¿°ãģ¹ãĤĭ": 4012,
      "ç¾İè¡ĵ": 4013,
      "ãĤĴä¸Ńå¿ĥãģ«": 4014,
      "ãģĭãĤīæĿ¥ãģŁ": 4015,
      "ãģ«éĸ¢ãģĹãģ¦ãģ¯": 4016,
      "ãĥĨãĥ¼ãĥĸãĥ«": 4017,
      "ãģ®è·ĿéĽ¢": 4018,
      "ãģ®æĥħ": 4019,
      "oogle": 4020,
      "28": 4021,
      "Google": 4022,
      "TO": 4023,
      "ima": 4024,
      "so": 4025,
      "©å£Ĭ": 4026,
      "âĳ": 4027,
      "ĠF": 4028,
      "ĠN": 4029,
      "Ġãģ²": 4030,
      "ãģ®æĸĩåŃĹ": 4031,
      "ãģ«ãĤı": 4032,
      "ãģ«èĩ³": 4033,
      "ãĤĴçĽ®": 4034,
      "ãĤĴéĸĭ": 4035,
      "ãĤĴè¶ħ": 4036,
      "ãģĮå¤§": 4037,
      "ãģ¾ãĤĮãĤĭ": 4038,
      "å®¢": 4039,
      "åĪĨè§£": 4040,
      "åĪĨéŁ³ç¬¦": 4041,
      "ãĤıãģ£ãģŁ": 4042,
      "ãĤĴæ¸": 4043,
      "åį±": 4044,
      "åįļ": 4045,
      "ãģ®èĭ": 4046,
      "ãĥ¬ãĤ³ãĥ¼ãĥī": 4047,
      "ãĤ¦ãĤ¤ãĥ«": 4048,
      "èĩªãĤī": 4049,
      "å¾ĮåįĬ": 4050,
      "è»½": 4051,
      "è¦ĭãģŁ": 4052,
      "æĬľ": 4053,
      "ä½¿ãģĨ": 4054,
      "æľĢå¾Į": 4055,
      "è£ı": 4056,
      "ãģ§ãĤĤãģĤãĤĭ": 4057,
      "é¡ŀä¼¼": 4058,
      "æĭ¬": 4059,
      "ãģ¨ãģĦãģĨæĦıåĳ³ãģ®å½¢å®¹è©ŀ": 4060,
      "ãĤ®ãĥ£": 4061,
      "åĮ»å¸«": 4062,
      "åĮĹæµ·éģĵ": 4063,
      "èĢĥãģĪãģ¦": 4064,
      "è¨Ńç«ĭ": 4065,
      "è¨Ńè¨Ī": 4066,
      "å°ĳå¹´": 4067,
      "æľĿå»·": 4068,
      "çĭ¬èĩª": 4069,
      "ãģ®åĲįåīį": 4070,
      "ä½ıæ°ĳ": 4071,
      "2022": 4072,
      "ä¼¼ãģŁ": 4073,
      "ç®¡çĲĨ": 4074,
      "åķĨåĵģ": 4075,
      "ãģ®åĮ»": 4076,
      "def": 4077,
      "ABC": 4078,
      "è¼¸åĩº": 4079,
      "èįī": 4080,
      "æ¯Ķè¼ĥçļĦ": 4081,
      "command": 4082,
      "ãĥ¼ãĥĩãĤ£": 4083,
      "æģĲç«ľ": 4084,
      "ãĤ¢ãĥ¡ãĥªãĤ«åĲĪè¡ĨåĽ½": 4085,
      "\";": 4086,
      "book": 4087,
      "cle": 4088,
      "ment": 4089,
      "ne": 4090,
      "}\\": 4091,
      "Ġan": 4092,
      "ãģ®ãĤ«": 4093,
      "ãģ®çī¹å¾´": 4094,
      "ãģ«ç½®": 4095
    },
    "merges": [
      [
        "ã",
        "ģ"
      ],
      [
        "ã",
        "Ĥ"
      ],
      [
        "ã",
        "ĥ"
      ],
      [
        "ã",
        "Ģ"
      ],
      [
        "ãģ",
        "®"
      ],
      [
        "ãĢ",
        "ģ"
      ],
      [
        "ãĤ",
        "ĭ"
      ],
      [
        "ãĢ",
        "Ĥ"
      ],
      [
        "ãģ",
        "«"
      ],
      [
        "ãģ",
        "¨"
      ],
      [
        "ãģ",
        "¯"
      ],
      [
        "ãģ",
        "Ħ"
      ],
      [
        "ãģ",
        "§"
      ],
      [
        "ãĤ",
        "Ĵ"
      ],
      [
        "ãģ",
        "Į"
      ],
      [
        "ãģ",
        "ª"
      ],
      [
        "ãģ",
        "¦"
      ],
      [
        "ãģ",
        "Ĺ"
      ],
      [
        "ãģ",
        "Ł"
      ],
      [
        "ï",
        "¼"
      ],
      [
        "ãĤ",
        "Į"
      ],
      [
        "ä",
        "¸"
      ],
      [
        "ãģ",
        "Ļ"
      ],
      [
        "ãĥ",
        "¼"
      ],
      [
        "ãģ",
        "Ĥ"
      ],
      [
        "ãģ",
        "ĵ"
      ],
      [
        "ãģ",
        "Ĩ"
      ],
      [
        "ãģ®",
        "å"
      ],
      [
        "ãģ",
        "ĭ"
      ],
      [
        "ãĥ",
        "³"
      ],
      [
        "ãĤ",
        "Ĥ"
      ],
      [
        "ãĤ",
        "ī"
      ],
      [
        "å",
        "Ń"
      ],
      [
        "ä",
        "½"
      ],
      [
        "ãģ",
        "£"
      ],
      [
        "ãģ",
        "¾"
      ],
      [
        "ãĤ",
        "Ĭ"
      ],
      [
        "è",
        "ª"
      ],
      [
        "æ",
        "ľ"
      ],
      [
        "ãģĤ",
        "ãĤĭ"
      ],
      [
        "ç",
        "Ķ"
      ],
      [
        "å",
        "Ĳ"
      ],
      [
        "ãģ",
        "ķ"
      ],
      [
        "ï¼",
        "Ī"
      ],
      [
        "ï¼",
        "ī"
      ],
      [
        "å",
        "Ī"
      ],
      [
        "æ",
        "ĸ"
      ],
      [
        "å",
        "¤"
      ],
      [
        "ãĤ",
        "Ī"
      ],
      [
        "ä",
        "º"
      ],
      [
        "ãģĻ",
        "ãĤĭ"
      ],
      [
        "ãģĹ",
        "ãģ¦"
      ],
      [
        "ãĤ",
        "¹"
      ],
      [
        "ä",
        "»"
      ],
      [
        "ãĢ",
        "į"
      ],
      [
        "ãĢ",
        "Į"
      ],
      [
        "å",
        "®"
      ],
      [
        "ãģ",
        "ı"
      ],
      [
        "ãĥ",
        "«"
      ],
      [
        "å",
        "¹"
      ],
      [
        "ãĤ",
        "¢"
      ],
      [
        "è",
        "¨"
      ],
      [
        "å",
        "ı"
      ],
      [
        "ãĥ",
        "Ī"
      ],
      [
        "ãģ",
        "į"
      ],
      [
        "èª",
        "ŀ"
      ],
      [
        "ãĥ",
        "»"
      ],
      [
        "å",
        "ħ"
      ],
      [
        "ãģ®",
        "æ"
      ],
      [
        "ãĤ",
        "¤"
      ],
      [
        "å",
        "Ľ"
      ],
      [
        "è",
        "¡"
      ],
      [
        "ãģĦ",
        "ãĤĭ"
      ],
      [
        "ãĥ",
        "ª"
      ],
      [
        "ãģ§",
        "ãģĤãĤĭ"
      ],
      [
        "ãģĵ",
        "ãģ¨"
      ],
      [
        "ãģķ",
        "ãĤĮ"
      ],
      [
        "å¹",
        "´"
      ],
      [
        "åŃ",
        "¦"
      ],
      [
        "ãģ",
        "¤"
      ],
      [
        "ãģ",
        "©"
      ],
      [
        "ãĥ",
        "©"
      ],
      [
        "ãģ",
        "Ŀ"
      ],
      [
        "é",
        "ĸ"
      ],
      [
        "ç",
        "ī"
      ],
      [
        "é",
        "Ģ"
      ],
      [
        "è",
        "¦"
      ],
      [
        "ãģ£",
        "ãģ¦"
      ],
      [
        "ç",
        "µ"
      ],
      [
        "æ",
        "ķ"
      ],
      [
        "ãĥ¼",
        "ãĥ"
      ],
      [
        "ãĤ",
        "¯"
      ],
      [
        "ãģ",
        "Ī"
      ],
      [
        "ç",
        "´"
      ],
      [
        "ç",
        "ļ"
      ],
      [
        "ãģĹ",
        "ãģŁ"
      ],
      [
        "ãĤ",
        "Ħ"
      ],
      [
        "ãģ¨",
        "ãģĦ"
      ],
      [
        "é",
        "ģ"
      ],
      [
        "æ",
        "Ĺ"
      ],
      [
        "å",
        "½"
      ],
      [
        "ãģ§",
        "ãģ¯"
      ],
      [
        "çļ",
        "Ħ"
      ],
      [
        "ãģ£",
        "ãģŁ"
      ],
      [
        "ãģ",
        "ĳ"
      ],
      [
        "å",
        "Į"
      ],
      [
        "ãĤ",
        "ģ"
      ],
      [
        "ãģ",
        "Ĭ"
      ],
      [
        "ãģĭ",
        "ãĤī"
      ],
      [
        "è",
        "©"
      ],
      [
        "ç",
        "Ľ"
      ],
      [
        "åĪ",
        "Ĩ"
      ],
      [
        "ãĤ",
        "ı"
      ],
      [
        "å",
        "¾"
      ],
      [
        "åĽ",
        "½"
      ],
      [
        "ãĤĴ",
        "æ"
      ],
      [
        "æĸ",
        "ĩ"
      ],
      [
        "ãĤ",
        "ĵ"
      ],
      [
        "å",
        "ĳ"
      ],
      [
        "äº",
        "º"
      ],
      [
        "å",
        "¼"
      ],
      [
        "ãģª",
        "ãģĦ"
      ],
      [
        "ãģ¨ãģĦ",
        "ãģĨ"
      ],
      [
        "ä",
        "¼"
      ],
      [
        "ãģª",
        "ãģ©"
      ],
      [
        "è",
        "Ģ"
      ],
      [
        "ãĥ",
        "ĥ"
      ],
      [
        "çĶ",
        "¨"
      ],
      [
        "åĲ",
        "Ī"
      ],
      [
        "ä¸",
        "Ģ"
      ],
      [
        "ä½",
        "ľ"
      ],
      [
        "æľ",
        "¬"
      ],
      [
        "å",
        "ľ"
      ],
      [
        "æĹ",
        "¥"
      ],
      [
        "ãģ",
        "ł"
      ],
      [
        "ãĤĪ",
        "ãģĨ"
      ],
      [
        "çī",
        "©"
      ],
      [
        "ãĤ",
        "¿"
      ],
      [
        "ãģ®",
        "ç"
      ],
      [
        "å",
        "ĭ"
      ],
      [
        "ãĤ",
        "·"
      ],
      [
        "ãģ«",
        "ãģ¯"
      ],
      [
        "å¤",
        "§"
      ],
      [
        "æ",
        "Ŀ"
      ],
      [
        "ãĥ³",
        "ãĥ"
      ],
      [
        "é",
        "Ľ"
      ],
      [
        "çĶ",
        "Ł"
      ],
      [
        "å",
        "į"
      ],
      [
        "å",
        "º"
      ],
      [
        "é",
        "¡"
      ],
      [
        "ãģ",
        "°"
      ],
      [
        "æ",
        "Ī"
      ],
      [
        "æķ",
        "°"
      ],
      [
        "æĸ",
        "¹"
      ],
      [
        "è¨",
        "Ģ"
      ],
      [
        "å",
        "Ĭ"
      ],
      [
        "å",
        "°"
      ],
      [
        "ä½",
        "ĵ"
      ],
      [
        "é",
        "Ł"
      ],
      [
        "ä¸",
        "Ń"
      ],
      [
        "ãģ«",
        "ãĤĪ"
      ],
      [
        "å",
        "¿"
      ],
      [
        "ãģ®",
        "è"
      ],
      [
        "æ",
        "³"
      ],
      [
        "é",
        "ĩ"
      ],
      [
        "é",
        "ĥ"
      ],
      [
        "ãĤī",
        "ãĤĮ"
      ],
      [
        "ãģ¾",
        "ãģĻ"
      ],
      [
        "æ",
        "Ļ"
      ],
      [
        "ç",
        "§"
      ],
      [
        "ãģ¨",
        "ãģĹãģ¦"
      ],
      [
        "ãĥ",
        "Ń"
      ],
      [
        "è",
        "ĥ"
      ],
      [
        "å",
        "ī"
      ],
      [
        "ä",
        "¾"
      ],
      [
        "å",
        "¯"
      ],
      [
        "ãĤ",
        "«"
      ],
      [
        "æ",
        "°"
      ],
      [
        "ł",
        "´"
      ],
      [
        "ãģĦ",
        "ãģ¦"
      ],
      [
        "å",
        "ĩ"
      ],
      [
        "åĭ",
        "ķ"
      ],
      [
        "åĮ",
        "ĸ"
      ],
      [
        "ç",
        "Ĳ"
      ],
      [
        "ç",
        "Ļ"
      ],
      [
        "ä»",
        "£"
      ],
      [
        "ãĥ",
        "¬"
      ],
      [
        "è¡",
        "Į"
      ],
      [
        "æ",
        "ĺ"
      ],
      [
        "æ",
        "¨"
      ],
      [
        "å½",
        "¢"
      ],
      [
        "æ",
        "Ģ"
      ],
      [
        "è¡",
        "¨"
      ],
      [
        "æ",
        "ī"
      ],
      [
        "ãĤ",
        "°"
      ],
      [
        "ãģª",
        "ãĤĭ"
      ],
      [
        "åŃ",
        "Ĳ"
      ],
      [
        "èĢ",
        "ħ"
      ],
      [
        "å®",
        "ļ"
      ],
      [
        "ä",
        "¿"
      ],
      [
        "åĩ",
        "º"
      ],
      [
        "éŁ",
        "³"
      ],
      [
        "æ",
        "Ħ"
      ],
      [
        "ãģ¦",
        "ãģĦãĤĭ"
      ],
      [
        "æ",
        "Ń"
      ],
      [
        "ä¸",
        "Ĭ"
      ],
      [
        "ãĥ",
        "ķ"
      ],
      [
        "è©",
        "ŀ"
      ],
      [
        "ãĥ",
        "Ĩ"
      ],
      [
        "ãĤ",
        "¸"
      ],
      [
        "ãĥ",
        "Ĺ"
      ],
      [
        "è",
        "§"
      ],
      [
        "æ",
        "Ľ"
      ],
      [
        "çĲ",
        "Ĩ"
      ],
      [
        "ãģ",
        "Ľ"
      ],
      [
        "ç",
        "ķ"
      ],
      [
        "ãĤ",
        "³"
      ],
      [
        "ãģ",
        "¿"
      ],
      [
        "ãģĤ",
        "ãĤĬ"
      ],
      [
        "ç",
        "«"
      ],
      [
        "å",
        "¸"
      ],
      [
        "æĻ",
        "Ĥ"
      ],
      [
        "éĥ",
        "¨"
      ],
      [
        "å",
        "ķ"
      ],
      [
        "è",
        "ĩ"
      ],
      [
        "ãĤĤ",
        "ãģ®"
      ],
      [
        "ãģ",
        "ĺ"
      ],
      [
        "æ³",
        "ķ"
      ],
      [
        "1",
        "9"
      ],
      [
        "è",
        "ĳ"
      ],
      [
        "å",
        "±"
      ],
      [
        "ãģ",
        "¡"
      ],
      [
        "åĲ",
        "Į"
      ],
      [
        "ç",
        "Ĥ"
      ],
      [
        "è",
        "³"
      ],
      [
        "ç",
        "Ń"
      ],
      [
        "å",
        "ł´"
      ],
      [
        "ãģ¾",
        "ãģŁ"
      ],
      [
        "ãĤĪãģĨ",
        "ãģ«"
      ],
      [
        "ãĤ",
        "ª"
      ],
      [
        "ı",
        "¾"
      ],
      [
        "2",
        "0"
      ],
      [
        "å",
        "Ĩ"
      ],
      [
        "é",
        "Ļ"
      ],
      [
        "ç",
        "¤"
      ],
      [
        "ç",
        "·"
      ],
      [
        "éĸ",
        "ĵ"
      ],
      [
        "é",
        "ł"
      ],
      [
        "ãģŁ",
        "ãĤģ"
      ],
      [
        "éĸ",
        "¢"
      ],
      [
        "ãģĵ",
        "ãģ®"
      ],
      [
        "æ",
        "ł"
      ],
      [
        "å¯",
        "¾"
      ],
      [
        "ãĤ",
        "£"
      ],
      [
        "æ",
        "Ķ"
      ],
      [
        "ä¼",
        "ļ"
      ],
      [
        "æĦ",
        "ı"
      ],
      [
        "ç",
        "ı¾"
      ],
      [
        "ãĥ",
        "ł"
      ],
      [
        "æĪ",
        "Ĳ"
      ],
      [
        "æ",
        "¥"
      ],
      [
        "åķ",
        "ı"
      ],
      [
        "æĹ¥",
        "æľ¬"
      ],
      [
        "ãĥ",
        "ī"
      ],
      [
        "è",
        "¿"
      ],
      [
        "æĢ",
        "§"
      ],
      [
        "é¡",
        "Į"
      ],
      [
        "ãģĦ",
        "ãģŁ"
      ],
      [
        "ãģķãĤĮ",
        "ãĤĭ"
      ],
      [
        "çĻ",
        "º"
      ],
      [
        "æ¨",
        "©"
      ],
      [
        "é",
        "Ŀ"
      ],
      [
        "ä¸",
        "»"
      ],
      [
        "è",
        "²"
      ],
      [
        "i",
        "n"
      ],
      [
        "æ",
        "¸"
      ],
      [
        "Ĺ",
        "ä½ľ"
      ],
      [
        "ãģĵ",
        "ãĤĮ"
      ],
      [
        "ãĤ",
        "¦"
      ],
      [
        "è",
        "«"
      ],
      [
        "è¦",
        "ģ"
      ],
      [
        "ãģĵãģ¨",
        "ãģĮ"
      ],
      [
        "ãģ",
        "ļ"
      ],
      [
        "èĩ",
        "ª"
      ],
      [
        "åĳ",
        "³"
      ],
      [
        "ãĥ",
        "ŀ"
      ],
      [
        "å¤",
        "ļ"
      ],
      [
        "å",
        "Ģ"
      ],
      [
        "è¨",
        "ĺ"
      ],
      [
        "å",
        "·"
      ],
      [
        "e",
        "r"
      ],
      [
        "çĤ",
        "¹"
      ],
      [
        "å¾",
        "Į"
      ],
      [
        "åº",
        "¦"
      ],
      [
        "ä¸",
        "ĸ"
      ],
      [
        "å¼",
        "ı"
      ],
      [
        "å",
        "Ł"
      ],
      [
        "ãģ§",
        "ãģį"
      ],
      [
        "ãĢ",
        "İ"
      ],
      [
        "ãĢ",
        "ı"
      ],
      [
        "ç",
        "Ł"
      ],
      [
        "ç",
        "¨"
      ],
      [
        "åĲ",
        "į"
      ],
      [
        "å",
        "ĵ"
      ],
      [
        "è",
        "Ń"
      ],
      [
        "ãģĿ",
        "ãģ®"
      ],
      [
        "ãģĹãģ¦",
        "ãģĦãĤĭ"
      ],
      [
        "ãģķãĤĮ",
        "ãģŁ"
      ],
      [
        "å",
        "İ"
      ],
      [
        "ãĤ¹",
        "ãĥĪ"
      ],
      [
        "ãĥ",
        "¡"
      ],
      [
        "ä»",
        "¥"
      ],
      [
        "ãĥ",
        "£"
      ],
      [
        "ç",
        "¾"
      ],
      [
        "ãģĿ",
        "ãĤĮ"
      ],
      [
        "åľ",
        "°"
      ],
      [
        "å®",
        "Ł"
      ],
      [
        "ç",
        "¶"
      ],
      [
        "ãģ§",
        "ãģĻ"
      ],
      [
        "ãĥ",
        "ĩ"
      ],
      [
        "ãĥ",
        "¥"
      ],
      [
        "§",
        "ĭ"
      ],
      [
        "åħ",
        "¥"
      ],
      [
        "ãĤĮ",
        "ãĤĭ"
      ],
      [
        "ãĢģ",
        "ãĢĮ"
      ],
      [
        "è",
        "»"
      ],
      [
        "çµ",
        "Į"
      ],
      [
        "è¦",
        "ĭ"
      ],
      [
        "é",
        "«"
      ],
      [
        "æ",
        "´"
      ],
      [
        "æľ",
        "Ī"
      ],
      [
        "ãģĮ",
        "ãģĤãĤĭ"
      ],
      [
        "ãĥ",
        "Ĳ"
      ],
      [
        "æ",
        "Ĭ"
      ],
      [
        "ä½",
        "¿"
      ],
      [
        "e",
        "n"
      ],
      [
        "çļĦ",
        "ãģª"
      ],
      [
        "è¨Ģ",
        "èªŀ"
      ],
      [
        "ç´",
        "°"
      ],
      [
        "ãĤ",
        "¨"
      ],
      [
        "ç«",
        "ĭ"
      ],
      [
        "æĽ",
        "¸"
      ],
      [
        "ä¾",
        "ĭ"
      ],
      [
        "éĢ",
        "ļ"
      ],
      [
        "çĽ",
        "®"
      ],
      [
        "æľ",
        "Ł"
      ],
      [
        "é«",
        "ĺ"
      ],
      [
        "ãĤ",
        "į"
      ],
      [
        "åī",
        "į"
      ],
      [
        "èĳ",
        "Ĺä½ľ"
      ],
      [
        "åľ",
        "¨"
      ],
      [
        "ãĥ",
        "ģ"
      ],
      [
        "äº",
        "ĭ"
      ],
      [
        "é",
        "ļ"
      ],
      [
        "ç",
        "©"
      ],
      [
        "ãģ«ãĤĪ",
        "ãģ£ãģ¦"
      ],
      [
        "è³",
        "ª"
      ],
      [
        "æ",
        "¬"
      ],
      [
        "æĺ",
        "İ"
      ],
      [
        "t",
        "h"
      ],
      [
        "åĬ",
        "Ľ"
      ],
      [
        "ãĥ",
        "ĭ"
      ],
      [
        "è«",
        "ĸ"
      ],
      [
        "æľ",
        "Ģ"
      ],
      [
        "ç",
        "¬"
      ],
      [
        "èĥ",
        "ŀ"
      ],
      [
        "a",
        "n"
      ],
      [
        "ãĤ",
        "µ"
      ],
      [
        "ķ",
        "·"
      ],
      [
        "ãģ£ãģ¦",
        "ãģĦãĤĭ"
      ],
      [
        "é",
        "ķ·"
      ],
      [
        "ç§",
        "ĳ"
      ],
      [
        "Ġ",
        "\\"
      ],
      [
        "ãĥ",
        "ĸ"
      ],
      [
        "çī",
        "¹"
      ],
      [
        "åĳ",
        "¼"
      ],
      [
        "åŃ",
        "Ĺ"
      ],
      [
        "æĦı",
        "åĳ³"
      ],
      [
        "è§",
        "£"
      ],
      [
        "ç",
        "Ħ"
      ],
      [
        "æ",
        "İ"
      ],
      [
        "ãģ",
        "»"
      ],
      [
        "ç´°",
        "èĥŀ"
      ],
      [
        "ãĥ",
        "İ"
      ],
      [
        "è",
        "Ī"
      ],
      [
        "ä¸",
        "ĭ"
      ],
      [
        "çµ",
        "Ĳ"
      ],
      [
        "ãĥ",
        "Ł"
      ],
      [
        "ç¾",
        "©"
      ],
      [
        "ãģª",
        "ãĤĬ"
      ],
      [
        "å",
        "¥"
      ],
      [
        "ãĤ",
        "Ń"
      ],
      [
        "ãģ«",
        "ãģĬ"
      ],
      [
        "ãĤīãĤĮ",
        "ãĤĭ"
      ],
      [
        "æ",
        "Į"
      ],
      [
        "ãģ",
        "³"
      ],
      [
        "æķ",
        "Ļ"
      ],
      [
        "åħ",
        "¨"
      ],
      [
        "éĽ",
        "»"
      ],
      [
        "æ¥",
        "Ń"
      ],
      [
        "æ",
        "±"
      ],
      [
        "0",
        "0"
      ],
      [
        "ä½",
        "į"
      ],
      [
        "Ġ",
        "("
      ],
      [
        "éĢ",
        "£"
      ],
      [
        "ãģ®",
        "ãģ§"
      ],
      [
        "ãģĪ",
        "ãĤĭ"
      ],
      [
        "æ°",
        "ĳ"
      ],
      [
        "ãĥ",
        "Ĭ"
      ],
      [
        "è",
        "µ"
      ],
      [
        "æ",
        "²"
      ],
      [
        "ãĤĪãģĨ",
        "ãģª"
      ],
      [
        "èĢ",
        "ĥ"
      ],
      [
        "ãģ«",
        "ãģ¤"
      ],
      [
        "å¤",
        "ī"
      ],
      [
        "å¤",
        "ĸ"
      ],
      [
        "ç·",
        "ļ"
      ],
      [
        "è",
        "£"
      ],
      [
        "ãĤ",
        "º"
      ],
      [
        "ãģ§",
        "ãĤĤ"
      ],
      [
        "èĥ",
        "½"
      ],
      [
        "æī",
        "ĭ"
      ],
      [
        "ãģ§",
        "ãģĤãĤĬ"
      ],
      [
        "ãģª",
        "ãģ£ãģŁ"
      ],
      [
        "æ",
        "µ"
      ],
      [
        "ãģª",
        "ãģı"
      ],
      [
        "åŃ",
        "ĺ"
      ],
      [
        "çŁ",
        "¥"
      ],
      [
        "ãĤ",
        "½"
      ],
      [
        "é",
        "¨"
      ],
      [
        "ãĥ¼",
        "ãĥ«"
      ],
      [
        "åł´",
        "åĲĪ"
      ],
      [
        "o",
        "n"
      ],
      [
        "å®",
        "¶"
      ],
      [
        "æ",
        "¯"
      ],
      [
        "åı",
        "Ĺ"
      ],
      [
        "ãĥ",
        "ĳ"
      ],
      [
        "æ¬",
        "¡"
      ],
      [
        "ãĥ¼ãĥ",
        "ī"
      ],
      [
        "ç¤",
        "¾"
      ],
      [
        "æĿ",
        "±"
      ],
      [
        "è",
        "¾"
      ],
      [
        "ãĤ¤",
        "ãĥ"
      ],
      [
        "çĽ",
        "¸"
      ],
      [
        "ãģ¨",
        "ãģ¯"
      ],
      [
        "åĨ",
        "ħ"
      ],
      [
        "é¡",
        "ŀ"
      ],
      [
        "æĶ",
        "¿"
      ],
      [
        "çļĦ",
        "ãģ«"
      ],
      [
        "çŃ",
        "ī"
      ],
      [
        "ãģ®å",
        "¤"
      ],
      [
        "é",
        "ħ"
      ],
      [
        "ãĢį",
        "ãĢĮ"
      ],
      [
        "é¨",
        "ĵ"
      ],
      [
        "ãģ",
        "¹"
      ],
      [
        "ãģ¨",
        "åĳ¼"
      ],
      [
        "ãģĳ",
        "ãĤĭ"
      ],
      [
        "æ",
        "¼"
      ],
      [
        "ãĥ³",
        "ãĤ°"
      ],
      [
        "åİ",
        "Ł"
      ],
      [
        "ç¬",
        "¬"
      ],
      [
        "a",
        "t"
      ],
      [
        "è",
        "ĭ"
      ],
      [
        "éĸ",
        "ĭ"
      ],
      [
        "æ",
        "ŀ"
      ],
      [
        "åķı",
        "é¡Į"
      ],
      [
        "r",
        "e"
      ],
      [
        "ç¶",
        "ļ"
      ],
      [
        "ç",
        "½"
      ],
      [
        "ãĤ",
        "»"
      ],
      [
        "ãģ«ãģ¤",
        "ãģĦãģ¦"
      ],
      [
        "éĿ",
        "¢"
      ],
      [
        "æĿ",
        "¥"
      ],
      [
        "i",
        "s"
      ],
      [
        "æ",
        "º"
      ],
      [
        "ãģ",
        "¸"
      ],
      [
        "ç",
        "®"
      ],
      [
        "çķ",
        "Į"
      ],
      [
        "å¹",
        "³"
      ],
      [
        "ä¼",
        "Ŀ"
      ],
      [
        "Ġ",
        "a"
      ],
      [
        "ãĤĴæ",
        "Į"
      ],
      [
        "è§",
        "Ĵ"
      ],
      [
        "l",
        "e"
      ],
      [
        "å",
        "£"
      ],
      [
        "è",
        "ī"
      ],
      [
        "ãĥĥ",
        "ãĤ¯"
      ],
      [
        "ä»",
        "ĸ"
      ],
      [
        "ç",
        "İ"
      ],
      [
        "ãĤ",
        "ĩ"
      ],
      [
        "ãģĹ",
        "ãģĦ"
      ],
      [
        "å",
        "ŀ"
      ],
      [
        "ãģ",
        "¶"
      ],
      [
        "ãĥ¼ãĥ",
        "ł"
      ],
      [
        "ãģĹ",
        "ãģĭ"
      ],
      [
        "çĽ",
        "´"
      ],
      [
        "ãģ§ãģį",
        "ãĤĭ"
      ],
      [
        "ç",
        "³"
      ],
      [
        "æ",
        "¶"
      ],
      [
        "ãģ¾",
        "ãģ§"
      ],
      [
        "ãĤ¿",
        "ãĥ¼"
      ],
      [
        "ãĥ",
        "Ķ"
      ],
      [
        "ãģ¨",
        "ãģį"
      ],
      [
        "æ",
        "ĭ"
      ],
      [
        "åĪ",
        "©"
      ],
      [
        "å¿",
        "ħ"
      ],
      [
        "ãģĵãģ¨",
        "ãĤĴ"
      ],
      [
        "èª",
        "¬"
      ],
      [
        "ãģĪ",
        "ãģ°"
      ],
      [
        "ãĤ",
        "§"
      ],
      [
        "ãģ«",
        "ãģªãĤĭ"
      ],
      [
        "ç½",
        "®"
      ],
      [
        "ãĥ",
        "ı"
      ],
      [
        "æ",
        "®"
      ],
      [
        "ç´",
        "ł"
      ],
      [
        "c",
        "h"
      ],
      [
        "ãĥ",
        "Ļ"
      ],
      [
        "æľ",
        "ī"
      ],
      [
        "Ĵ",
        "Į"
      ],
      [
        "ãĤĪ",
        "ãĤĬ"
      ],
      [
        "åį",
        "ĺ"
      ],
      [
        "Ġ",
        "-"
      ],
      [
        "äº",
        "Į"
      ],
      [
        "ãģĬ",
        "ãĤĬ"
      ],
      [
        "©",
        "Ł"
      ],
      [
        "ç",
        "¥"
      ],
      [
        "ãĥĹ",
        "ãĥŃ"
      ],
      [
        "ãĤĮ",
        "ãģ°"
      ],
      [
        "çĶ",
        "»"
      ],
      [
        "éĩ",
        "į"
      ],
      [
        "ï¼ī",
        "ãĢĤ"
      ],
      [
        "æŃ",
        "£"
      ],
      [
        "å®",
        "¹"
      ],
      [
        "ãģ«",
        "å¯¾"
      ],
      [
        "ãĥĥ",
        "ãĥĪ"
      ],
      [
        "ä¿",
        "Ŀ"
      ],
      [
        "ãĤ",
        "²"
      ],
      [
        "ãģ®",
        "ãĤĪãģĨãģ«"
      ],
      [
        "æ",
        "ı"
      ],
      [
        "åĪ",
        "¶"
      ],
      [
        "ãģķãĤĮ",
        "ãģ¦ãģĦãĤĭ"
      ],
      [
        "ç³",
        "»"
      ],
      [
        "ãĤ¤",
        "ãĥ³"
      ],
      [
        "ãĥ",
        "ĵ"
      ],
      [
        "ç¨",
        "ĭ"
      ],
      [
        "â",
        "Ģ"
      ],
      [
        "æ",
        "ħ"
      ],
      [
        "ãĥª",
        "ãĤ¢"
      ],
      [
        "åĬ",
        "ł"
      ],
      [
        "åŁ",
        "º"
      ],
      [
        "ä¸",
        "į"
      ],
      [
        "ãģ¨ãģĦãģĨ",
        "æĦıåĳ³"
      ],
      [
        "ç´",
        "Ħ"
      ],
      [
        "ãĥ",
        "Ģ"
      ],
      [
        "åĲ",
        "ĳ"
      ],
      [
        "åĪ",
        "¥"
      ],
      [
        "ç",
        "ľ"
      ],
      [
        "å½",
        "ĵ"
      ],
      [
        "ãĥ¼",
        "ãĥĪ"
      ],
      [
        "èĭ",
        "±"
      ],
      [
        "ãĥ",
        "ļ"
      ],
      [
        "æĿ",
        "¡"
      ],
      [
        "å",
        "ģ"
      ],
      [
        "å",
        "ĴĮ"
      ],
      [
        "a",
        "l"
      ],
      [
        "æĸ",
        "°"
      ],
      [
        "æ",
        "¤"
      ],
      [
        "Ġ",
        "="
      ],
      [
        "ãĤ",
        "®"
      ],
      [
        "åĮ",
        "»"
      ],
      [
        "è»",
        "į"
      ],
      [
        "è¨",
        "Ī"
      ],
      [
        "ãģ«ãĤĪ",
        "ãĤĭ"
      ],
      [
        "æ",
        "ĥ"
      ],
      [
        "è",
        "¼"
      ],
      [
        "ãĥ",
        "į"
      ],
      [
        "åŀ",
        "ĭ"
      ],
      [
        "ãģª",
        "ãĤī"
      ],
      [
        "çĶŁ",
        "çī©"
      ],
      [
        "å°",
        "ı"
      ],
      [
        "ãĤ°",
        "ãĥ©"
      ],
      [
        "é",
        "£"
      ],
      [
        "ãĤ",
        "Ģ"
      ],
      [
        "§",
        "ĺ"
      ],
      [
        "åħ",
        "¬"
      ],
      [
        "ãģĤ",
        "ãģ£ãģŁ"
      ],
      [
        "æĪ",
        "¦"
      ],
      [
        "å¿",
        "ľ"
      ],
      [
        "ç",
        "¢"
      ],
      [
        "ãģĦ",
        "ãģ¾ãģĻ"
      ],
      [
        "åı",
        "ĸ"
      ],
      [
        "çĶ",
        "£"
      ],
      [
        "ãģ¨",
        "ãĤĤ"
      ],
      [
        "æ",
        "©Ł"
      ],
      [
        "ãģ«ãģĬ",
        "ãģĦãģ¦"
      ],
      [
        "ãģ",
        "Ĵ"
      ],
      [
        "ãĢ",
        "ħ"
      ],
      [
        "ãĤı",
        "ãĤĮ"
      ],
      [
        "ãģĿ",
        "ãģ®å"
      ],
      [
        "åħ",
        "±"
      ],
      [
        "ãĤĩ",
        "ãģĨ"
      ],
      [
        "çµ",
        "Ħ"
      ],
      [
        "æ",
        "§ĭ"
      ],
      [
        "æ¸",
        "Ī"
      ],
      [
        "ç¤",
        "º"
      ],
      [
        "ãģ«",
        "ãĤĤ"
      ],
      [
        "è©",
        "¦"
      ],
      [
        "ãĥ",
        "§"
      ],
      [
        "o",
        "r"
      ],
      [
        "ãģ¨",
        "ãģĻãĤĭ"
      ],
      [
        "çµ",
        "±"
      ],
      [
        "æĻĤ",
        "ä»£"
      ],
      [
        "ãĥ",
        "¢"
      ],
      [
        "æ°",
        "Ĺ"
      ],
      [
        "è¿",
        "°"
      ],
      [
        "éģ",
        "İ"
      ],
      [
        "a",
        "r"
      ],
      [
        "ãģ®å",
        "Ĳ"
      ],
      [
        "èĳĹä½ľ",
        "æ¨©"
      ],
      [
        "ä¾",
        "¡"
      ],
      [
        "å",
        "¢"
      ],
      [
        "æī",
        "Ģ"
      ],
      [
        "çµĮ",
        "æ¸Ī"
      ],
      [
        "éĽ",
        "Ĩ"
      ],
      [
        "1",
        "0"
      ],
      [
        "e",
        "s"
      ],
      [
        "è¿",
        "ĳ"
      ],
      [
        "ä",
        "¹"
      ],
      [
        "éļ",
        "Ľ"
      ],
      [
        "å",
        "Ĥ"
      ],
      [
        "ãģ®",
        "ä¸Ń"
      ],
      [
        "æ´",
        "»"
      ],
      [
        "åŃĺ",
        "åľ¨"
      ],
      [
        "ç",
        "¯"
      ],
      [
        "åĪ",
        "Ŀ"
      ],
      [
        "å¾",
        "Ĺ"
      ],
      [
        "èĪ",
        "¬"
      ],
      [
        "ãĥ",
        "Ŀ"
      ],
      [
        "éĩ",
        "ı"
      ],
      [
        "æł",
        "¼"
      ],
      [
        "æ",
        "§ĺ"
      ],
      [
        "ç¢",
        "º"
      ],
      [
        "å¤ļ",
        "ãģı"
      ],
      [
        "ãģ¾",
        "ãĤĬ"
      ],
      [
        "ç´",
        "Ģ"
      ],
      [
        "ç§",
        "°"
      ],
      [
        "o",
        "m"
      ],
      [
        "åĭķ",
        "è©ŀ"
      ],
      [
        "Ġ",
        "b"
      ],
      [
        "Ġ",
        "s"
      ],
      [
        "ł",
        "Ķ"
      ],
      [
        "ä¸Ģ",
        "èĪ¬"
      ],
      [
        "ãģł",
        "ãģĳ"
      ],
      [
        "ç©",
        "¶"
      ],
      [
        "o",
        "u"
      ],
      [
        "ä¿",
        "Ĥ"
      ],
      [
        "è©",
        "±"
      ],
      [
        "è",
        "±"
      ],
      [
        "ãģ¨",
        "ãģªãĤĭ"
      ],
      [
        "æĸĩ",
        "åŃĹ"
      ],
      [
        "Ġ",
        "ãģ¯"
      ],
      [
        "ãĤ",
        "±"
      ],
      [
        "æ°",
        "´"
      ],
      [
        "æĹ¥æľ¬",
        "èªŀ"
      ],
      [
        "å¿",
        "ĥ"
      ],
      [
        "ä¸",
        "ī"
      ],
      [
        "åı",
        "į"
      ],
      [
        "Ĭ",
        "¶"
      ],
      [
        "åħ",
        "ĥ"
      ],
      [
        "åĵ",
        "ģ"
      ],
      [
        "å¸",
        "¸"
      ],
      [
        "å¿ħ",
        "è¦ģ"
      ],
      [
        "ä¸ĸ",
        "çķĮ"
      ],
      [
        "²",
        "åŃ¦"
      ],
      [
        "å¹´",
        "ãģ«"
      ],
      [
        "ãĥ³",
        "ãĥĪ"
      ],
      [
        "çĦ",
        "¡"
      ],
      [
        "ãĤĴæĮ",
        "ģ"
      ],
      [
        "ãģ",
        "Ķ"
      ],
      [
        "ï¼ī",
        "ãĢģ"
      ],
      [
        "ãģĹãģĭ",
        "ãģĹ"
      ],
      [
        "ãģ®å",
        "Ī"
      ],
      [
        "ãģ«ãĤĪ",
        "ãĤĬ"
      ],
      [
        "ãģ",
        "²"
      ],
      [
        "æł",
        "¡"
      ],
      [
        "ãĤĤ",
        "ãģĤãĤĭ"
      ],
      [
        "è¦",
        "ı"
      ],
      [
        "éĩ",
        "ĳ"
      ],
      [
        "åĽ",
        "ŀ"
      ],
      [
        "ãĥ³ãĥ",
        "ī"
      ],
      [
        "åĲĮ",
        "ãģĺ"
      ],
      [
        "æ²",
        "»"
      ],
      [
        "åĮ",
        "Ĺ"
      ],
      [
        "łĶ",
        "ç©¶"
      ],
      [
        "éģ",
        "¸"
      ],
      [
        "å¼",
        "·"
      ],
      [
        "éĻ",
        "Ĳ"
      ],
      [
        "ãģĻãĤĭ",
        "ãģĵãģ¨"
      ],
      [
        "ç®",
        "Ĺ"
      ],
      [
        "ãģķãĤĮ",
        "ãģ¦"
      ],
      [
        "è",
        "Ħ"
      ],
      [
        "Ġ",
        "ãģ®"
      ],
      [
        "ãĥª",
        "ãĥ¼"
      ],
      [
        "ç¥",
        "ŀ"
      ],
      [
        "åŁ",
        "Ł"
      ],
      [
        "ç¤¾",
        "ä¼ļ"
      ],
      [
        "ç",
        "¿"
      ],
      [
        "ãĤģ",
        "ãĤĭ"
      ],
      [
        "çİ",
        "ĩ"
      ],
      [
        "20",
        "0"
      ],
      [
        "åı",
        "¤"
      ],
      [
        "ãĤ",
        "¬"
      ],
      [
        "åĽ",
        "³"
      ],
      [
        "èī",
        "²"
      ],
      [
        "ä»",
        "ĺ"
      ],
      [
        "åı",
        "·"
      ],
      [
        "åı",
        "¯"
      ],
      [
        "èµ",
        "·"
      ],
      [
        "å",
        "ł"
      ],
      [
        "ãĤ¯",
        "ãĥ©"
      ],
      [
        "æŀ",
        "ľ"
      ],
      [
        "Ġ",
        "1"
      ],
      [
        "éĢ",
        "ł"
      ],
      [
        "äº",
        "¤"
      ],
      [
        "çķ",
        "°"
      ],
      [
        "ãĢģ",
        "'"
      ],
      [
        "ãģ«",
        "éĸ¢"
      ],
      [
        "Ġ",
        "t"
      ],
      [
        "ãģ®å",
        "ħ"
      ],
      [
        "éħ",
        "į"
      ],
      [
        "ç¨",
        "®"
      ],
      [
        "è",
        "ģ"
      ],
      [
        "éĢ",
        "²"
      ],
      [
        "ãĤª",
        "ãĥ¼"
      ],
      [
        "i",
        "c"
      ],
      [
        "ãģ®æ",
        "ķ"
      ],
      [
        "è",
        "Ĥ"
      ],
      [
        "Ġ",
        "th"
      ],
      [
        "è±",
        "¡"
      ],
      [
        "ãĥ",
        "ľ"
      ],
      [
        "çĶ",
        "±"
      ],
      [
        "ãĥķ",
        "ãĤ"
      ],
      [
        "ãģ®å",
        "®"
      ],
      [
        "ãĤ¢",
        "ãĥ«"
      ],
      [
        "Ġ",
        "ï¼Ī"
      ],
      [
        "éģ",
        "ĭ"
      ],
      [
        "çµ",
        "Ĥ"
      ],
      [
        "ãĥĶ",
        "ãĤ¢"
      ],
      [
        "ãĤ²",
        "ãĥ¼ãĥł"
      ],
      [
        "éģ",
        "ĵ"
      ],
      [
        "åĢ",
        "ĭ"
      ],
      [
        "æħ",
        "ĭ"
      ],
      [
        "ãģĭ",
        "ãģ£ãģŁ"
      ],
      [
        "èĢĥ",
        "ãģĪ"
      ],
      [
        "ãģķ",
        "ãģĽ"
      ],
      [
        "ãģŁ",
        "ãģ¨"
      ],
      [
        "1",
        "8"
      ],
      [
        "ãģ",
        "ŀ"
      ],
      [
        "å¤§",
        "ãģį"
      ],
      [
        "åį",
        "Ĭ"
      ],
      [
        "å·",
        "¥"
      ],
      [
        "èĭ±",
        "èªŀ"
      ],
      [
        "é",
        "¤"
      ],
      [
        "è¨",
        "Ń"
      ],
      [
        "æĹ",
        "ı"
      ],
      [
        "å°",
        "ĳ"
      ],
      [
        "éĸ¢",
        "ä¿Ĥ"
      ],
      [
        "ä¸ĸ",
        "ç´Ģ"
      ],
      [
        "ãģĮ",
        "ãģĤãĤĬ"
      ],
      [
        "åı",
        "²"
      ],
      [
        "ä¸»",
        "ç¾©"
      ],
      [
        "r",
        "a"
      ],
      [
        "è",
        "¥"
      ],
      [
        "ãĥ©",
        "ãĥ³"
      ],
      [
        "å°",
        "İ"
      ],
      [
        "åĵ",
        "²åŃ¦"
      ],
      [
        "m",
        "a"
      ],
      [
        "æ",
        "Ł"
      ],
      [
        "ãĤı",
        "ãĤĮãĤĭ"
      ],
      [
        "Ġ",
        "c"
      ],
      [
        "ãģ®",
        "ä¸Ģ"
      ],
      [
        "èĳ",
        "ī"
      ],
      [
        "ãģ®å",
        "ł´"
      ],
      [
        "å¤ļ",
        "ãģĦ"
      ],
      [
        "å",
        "»"
      ],
      [
        "ç",
        "ĭ"
      ],
      [
        "å",
        "ĥ"
      ],
      [
        "ç",
        "Ĭ¶"
      ],
      [
        "ãĤīãĤĮ",
        "ãģŁ"
      ],
      [
        "è",
        "¶"
      ],
      [
        "ãĤ",
        "¶"
      ],
      [
        "ãģªãģ©",
        "ãģ®"
      ],
      [
        "éĽ",
        "£"
      ],
      [
        "ãĥ¼",
        "ãĤ¿"
      ],
      [
        "åĲ",
        "«"
      ],
      [
        "è¡",
        "ĵ"
      ],
      [
        "çĶ¨",
        "ãģĦ"
      ],
      [
        "èª",
        "į"
      ],
      [
        "å",
        "¡"
      ],
      [
        "ä¸",
        "ĩ"
      ],
      [
        "ãģ®å",
        "½"
      ],
      [
        "ãģ®å",
        "ı"
      ],
      [
        "èª",
        "¿"
      ],
      [
        "ãģĽ",
        "ãĤĵ"
      ],
      [
        "æİ",
        "¥"
      ],
      [
        "æµ",
        "ģ"
      ],
      [
        "ãĥĶãĤ¢",
        "ãĥİ"
      ],
      [
        "çĦ",
        "¶"
      ],
      [
        "æľ",
        "Ŀ"
      ],
      [
        "Ļ",
        "¨"
      ],
      [
        "ãĤ",
        "´"
      ],
      [
        "éĥ",
        "½"
      ],
      [
        "è¡¨",
        "çı¾"
      ],
      [
        "èŃ",
        "·"
      ],
      [
        "éĩ",
        "İ"
      ],
      [
        "èŃ",
        "ĺ"
      ],
      [
        "ãĤ¤ãĥ",
        "Ħ"
      ],
      [
        "è",
        "º"
      ],
      [
        "ãĤ·",
        "ãĥ§"
      ],
      [
        "è¥",
        "¿"
      ],
      [
        "r",
        "i"
      ],
      [
        "ãģĵ",
        "ãģĵ"
      ],
      [
        "éł",
        "ĺ"
      ],
      [
        "æ¯",
        "Ķ"
      ],
      [
        "é",
        "Į"
      ],
      [
        "ãģĦ",
        "ãģı"
      ],
      [
        "ãĥª",
        "ãĤ«"
      ],
      [
        "ãģ®",
        "ãģ¯"
      ],
      [
        "¤",
        "ĩ"
      ],
      [
        "ãģª",
        "ãģ£ãģ¦ãģĦãĤĭ"
      ],
      [
        "èª",
        "Ń"
      ],
      [
        "æĢ",
        "Ŀ"
      ],
      [
        "ï¼",
        "Ŀ"
      ],
      [
        "åı¯",
        "èĥ½"
      ],
      [
        "ãĥī",
        "ãĤ¤ãĥĦ"
      ],
      [
        "ãĥ¼",
        "ãĤ¸"
      ],
      [
        "åı",
        "Ĥ"
      ],
      [
        "æ±",
        "º"
      ],
      [
        "ãĥĪ",
        "ãĥ«"
      ],
      [
        "å°",
        "Ĩ"
      ],
      [
        "æ¶",
        "Ī"
      ],
      [
        "å",
        "Ļ¨"
      ],
      [
        "ç",
        "²"
      ],
      [
        "ä½",
        "ķ"
      ],
      [
        "ãģĵãĤĮ",
        "ãģ¯"
      ],
      [
        "ç¿",
        "Ĵ"
      ],
      [
        "æĸĩ",
        "åĮĸ"
      ],
      [
        "ãģĵãĤĮ",
        "ãĤī"
      ],
      [
        "ãĥ¼",
        "ãĤ¹"
      ],
      [
        "åī",
        "ĩ"
      ],
      [
        "ãĥģ",
        "ãĥ£"
      ],
      [
        "åł",
        "±"
      ],
      [
        "e",
        "l"
      ],
      [
        "ãĥ",
        "¨"
      ],
      [
        "ãģ®åł´",
        "åĲĪ"
      ],
      [
        "åº",
        "ĥ"
      ],
      [
        "çı¾",
        "åľ¨"
      ],
      [
        "ãģ",
        "İ"
      ],
      [
        "ãĤĴ",
        "çĶ¨"
      ],
      [
        "ãģĹ",
        "ãĤĩãģĨ"
      ],
      [
        "ãĤĮ",
        "ãģŁ"
      ],
      [
        "äº",
        "¬"
      ],
      [
        "æĬ",
        "Ģ"
      ],
      [
        "Ġ",
        "p"
      ],
      [
        "ãģĿãĤĮ",
        "ãģŀ"
      ],
      [
        "ãģĿãĤĮãģŀ",
        "ãĤĮ"
      ],
      [
        "ãģ",
        "¥"
      ],
      [
        "ãĤĴ",
        "è¡Į"
      ],
      [
        "ãģ®å",
        "Ľ"
      ],
      [
        "åĳ",
        "½"
      ],
      [
        "é",
        "¦"
      ],
      [
        "ãĥ",
        "Ĵ"
      ],
      [
        "å¤§",
        "åŃ¦"
      ],
      [
        "ãģª",
        "ãģĬ"
      ],
      [
        "ä¿",
        "¡"
      ],
      [
        "ãĥ",
        "¯"
      ],
      [
        "ãģ«",
        "ãģĤãĤĭ"
      ],
      [
        "å±",
        "±"
      ],
      [
        "ç",
        "¹"
      ],
      [
        "ç",
        "łĶç©¶"
      ],
      [
        "è",
        "¤ĩ"
      ],
      [
        "ãģª",
        "ãģ£ãģ¦"
      ],
      [
        "Ġ",
        "d"
      ],
      [
        "åħ",
        "ī"
      ],
      [
        "ãĥ¼ãĥ",
        "Ń"
      ],
      [
        "ä½¿",
        "çĶ¨"
      ],
      [
        "ãĤªãĥ¼",
        "ãĤ¹ãĥĪ"
      ],
      [
        "1",
        "2"
      ],
      [
        "æĺ",
        "ĵ"
      ],
      [
        "Ġ",
        "m"
      ],
      [
        "ãĥĹãĥŃ",
        "ãĤ°ãĥ©"
      ],
      [
        "ä¸",
        "İ"
      ],
      [
        "å",
        "Ħ"
      ],
      [
        "å¼",
        "ķ"
      ],
      [
        "ãĥĨ",
        "ãĤ£"
      ],
      [
        "èµ",
        "¤"
      ],
      [
        "æ¤",
        "ľ"
      ],
      [
        "ãģŁãģ¨",
        "ãģĪãģ°"
      ],
      [
        "Ã",
        "Ĺ"
      ],
      [
        "ãĥª",
        "ãĤ¹"
      ],
      [
        "ãĤĵ",
        "ãģ§"
      ],
      [
        "éŁ",
        "¿"
      ],
      [
        "o",
        "o"
      ],
      [
        "éģ",
        "º"
      ],
      [
        "åº",
        "ľ"
      ],
      [
        "ãģ®è",
        "ĳ"
      ],
      [
        "åĢ",
        "¤"
      ],
      [
        "æ´",
        "¾"
      ],
      [
        "ç",
        "¸"
      ],
      [
        "ãģĻãĤĭ",
        "ãģ¨"
      ],
      [
        "ä¿Ŀ",
        "èŃ·"
      ],
      [
        "i",
        "t"
      ],
      [
        "ãģ®",
        "ãĤĪãģĨãģª"
      ],
      [
        "ãģ§",
        "ãģĤãģ£ãģŁ"
      ],
      [
        "èŃ",
        "°"
      ],
      [
        "æĮ",
        "ĩ"
      ],
      [
        "åĮ»",
        "åŃ¦"
      ],
      [
        "èº",
        "«"
      ],
      [
        "Ġ",
        "ãģ¨"
      ],
      [
        "ãģŁãĤģ",
        "ãģ«"
      ],
      [
        "çµĲ",
        "æŀľ"
      ],
      [
        "åģ",
        "´"
      ],
      [
        "s",
        "t"
      ],
      [
        "å¸",
        "Ĥ"
      ],
      [
        "æ¥",
        "½"
      ],
      [
        "è¾",
        "º"
      ],
      [
        "å",
        "§ĭ"
      ],
      [
        "ãĤ¢",
        "ãĥ¡"
      ],
      [
        "ãģ©",
        "ãģĨ"
      ],
      [
        "ãģĬ",
        "ãĤĪ"
      ],
      [
        "å¼",
        "µ"
      ],
      [
        "è",
        "Ĭ"
      ],
      [
        "ãĥ",
        "Ħ"
      ],
      [
        "ãĤĴ",
        "åıĹ"
      ],
      [
        "ãĥĩ",
        "ãĤ£"
      ],
      [
        "éģ",
        "Ķ"
      ],
      [
        "ãģ®å¤",
        "§"
      ],
      [
        "ï¼",
        "ļ"
      ],
      [
        "ãĤīãĤĮ",
        "ãģ¦ãģĦãĤĭ"
      ],
      [
        "ç§",
        "»"
      ],
      [
        "æĭ",
        "į"
      ],
      [
        "ãĤ",
        "ħ"
      ],
      [
        "éĢ",
        "Ł"
      ],
      [
        "è²",
        "»"
      ],
      [
        "ãģĹ",
        "ãģªãģĦ"
      ],
      [
        "ãĢį",
        "ï¼Ī"
      ],
      [
        "ãĥĨ",
        "ãĤ¹"
      ],
      [
        "æµ",
        "·"
      ],
      [
        "ãģķ",
        "ãĤī"
      ],
      [
        "ãĥª",
        "ãĥ³"
      ],
      [
        "ç´",
        "¢"
      ],
      [
        "çī©",
        "è³ª"
      ],
      [
        "19",
        "7"
      ],
      [
        "Ġ",
        "l"
      ],
      [
        "ãģĹ",
        "ãģı"
      ],
      [
        "ãģĹ",
        "ãģ¾ãģĻ"
      ],
      [
        "ãģŁ",
        "ãģł"
      ],
      [
        "ãģ¨åĳ¼",
        "ãģ°"
      ],
      [
        "ãĤ³",
        "ãĥ³ãĥ"
      ],
      [
        "éĥ¨",
        "åĪĨ"
      ],
      [
        "æĥ",
        "ħ"
      ],
      [
        "Ġ",
        "w"
      ],
      [
        "Ħ",
        "ı"
      ],
      [
        "ãģ®å",
        "Ń"
      ],
      [
        "éĢ",
        "ģ"
      ],
      [
        "åĪ",
        "¤"
      ],
      [
        "ãģ®æ",
        "Ļ"
      ],
      [
        "ãĤ¤",
        "ãĥ©"
      ],
      [
        "åĽ",
        "²"
      ],
      [
        "åĲį",
        "è©ŀ"
      ],
      [
        "çĭ",
        "¬"
      ],
      [
        "¾",
        "Į"
      ],
      [
        "å±",
        "ķ"
      ],
      [
        "Ġ",
        "h"
      ],
      [
        "äº",
        "ī"
      ],
      [
        "ãĤ¹",
        "ãĤ¿"
      ],
      [
        "ãĤģ",
        "ãģ¦"
      ],
      [
        "ä¸Ń",
        "åĽ½"
      ],
      [
        "é£",
        "Ł"
      ],
      [
        "åŃ¦",
        "æł¡"
      ],
      [
        "in",
        "g"
      ],
      [
        "ãģ",
        "Ń"
      ],
      [
        "ãĤį",
        "ãģĨ"
      ],
      [
        "ãģĳ",
        "ãģ¦"
      ],
      [
        "åĵ",
        "¡"
      ],
      [
        "ãģ®èĳ",
        "Ĺä½ľ"
      ],
      [
        "ãĥ",
        "´"
      ],
      [
        "æĽ",
        "²"
      ],
      [
        "åİ",
        "»"
      ],
      [
        "ãĤ¢ãĥ¡",
        "ãĥªãĤ«"
      ],
      [
        "ãģ¨",
        "ãģªãģ£ãģŁ"
      ],
      [
        "ãĥĻ",
        "ãĥ«"
      ],
      [
        "r",
        "o"
      ],
      [
        "ä¸",
        "¡"
      ],
      [
        "åī",
        "²"
      ],
      [
        "ãģ«ãģĬ",
        "ãģĳãĤĭ"
      ],
      [
        "æ¶",
        "²"
      ],
      [
        "è¦",
        "³"
      ],
      [
        "åĨ",
        "Ĩ"
      ],
      [
        "æ¼",
        "¢"
      ],
      [
        "ãģ¨",
        "è¨Ģ"
      ],
      [
        "å½",
        "¼"
      ],
      [
        "ãĤ·",
        "ãĤ¢"
      ],
      [
        "è",
        "·"
      ],
      [
        "Ġ",
        "o"
      ],
      [
        "ãģ",
        "µ"
      ],
      [
        "éĿ",
        "ŀ"
      ],
      [
        "é¤",
        "¨"
      ],
      [
        "ãĤ·ãĥ§",
        "ãĥ³"
      ],
      [
        "éģ",
        "ķ"
      ],
      [
        "ãģ¾ãģŁ",
        "ãģ¯"
      ],
      [
        "ãģ¨åĳ¼",
        "ãģ¶"
      ],
      [
        "è§Ĵ",
        "å½¢"
      ],
      [
        "ãģ®å",
        "Ģ"
      ],
      [
        "è¡¨",
        "ãģĻ"
      ],
      [
        "Ġ",
        "ãĤĴ"
      ],
      [
        "ãģ",
        "¼"
      ],
      [
        "çŃ",
        "ĸ"
      ],
      [
        "âĢ",
        "»"
      ],
      [
        "å¢",
        "Ĺ"
      ],
      [
        "s",
        "e"
      ],
      [
        "ãģ®åĲ",
        "į"
      ],
      [
        "ãĤĭ",
        "ãģ¨"
      ],
      [
        "ãģ®å",
        "į"
      ],
      [
        "è¦",
        "ļ"
      ],
      [
        "æ¨",
        "Ļ"
      ],
      [
        "ãĤªãĥ¼ãĤ¹ãĥĪ",
        "ãĥªãĤ¢"
      ],
      [
        "A",
        "I"
      ],
      [
        "å¤ī",
        "åĮĸ"
      ],
      [
        "ãģĬãĤĪ",
        "ãģ³"
      ],
      [
        "ï",
        "½"
      ],
      [
        "ä½",
        "İ"
      ],
      [
        "Ġ",
        "y"
      ],
      [
        "éĻ",
        "į"
      ],
      [
        "éĮ",
        "²"
      ],
      [
        "è",
        "Ĩ"
      ],
      [
        "ä»",
        "Ĭ"
      ],
      [
        "å®",
        "ī"
      ],
      [
        "ä¸Ģ",
        "æĸ¹"
      ],
      [
        "å¸",
        "Ŀ"
      ],
      [
        "ä»",
        "®"
      ],
      [
        "ãģ®æķ",
        "°"
      ],
      [
        "ãģª",
        "ãģĭãģ£ãģŁ"
      ],
      [
        "ãģĹãģ¦",
        "ãģĦãģŁ"
      ],
      [
        "è³",
        "ĩ"
      ],
      [
        "ãģ«å¯¾",
        "ãģĹãģ¦"
      ],
      [
        "Ġ",
        "f"
      ],
      [
        "ãĤ¹",
        "ãĥ©"
      ],
      [
        "ãģ§ãģ¯",
        "ãģªãģı"
      ],
      [
        "ä¾ĭ",
        "ãģĪãģ°"
      ],
      [
        "çī¹",
        "ãģ«"
      ],
      [
        "ãĤ¯ãĥ©",
        "ãĥĨãĤ¹"
      ],
      [
        "1",
        "5"
      ],
      [
        "åı",
        "Ĭ"
      ],
      [
        "ãģł",
        "ãģĮ"
      ],
      [
        "e",
        "d"
      ],
      [
        "i",
        "on"
      ],
      [
        "o",
        "t"
      ],
      [
        "ãģĵ",
        "ãģĨ"
      ],
      [
        "å¹´",
        "ä»£"
      ],
      [
        "ãģ®ç",
        "Ļ"
      ],
      [
        "ãģ®æĻ",
        "Ĥ"
      ],
      [
        "å",
        "³"
      ],
      [
        "ãģ¨",
        "ãģ®"
      ],
      [
        "ãģķ",
        "ãģĦ"
      ],
      [
        "ãģķ",
        "ãĤĵ"
      ],
      [
        "ãģĪ",
        "ãģ¦"
      ],
      [
        "çķ",
        "ª"
      ],
      [
        "ãģ®å",
        "¼"
      ],
      [
        "çŁ",
        "³"
      ],
      [
        "æº",
        "ĸ"
      ],
      [
        "ãģĵ",
        "ãĤį"
      ],
      [
        "åĪ",
        "ĩ"
      ],
      [
        "ãĤ¢",
        "ãĤ¯"
      ],
      [
        "ãģ¨ãģĦ",
        "ãģ£ãģŁ"
      ],
      [
        "ãĤı",
        "ãģĽ"
      ],
      [
        "an",
        "d"
      ],
      [
        "ãģ®",
        "ãģ¿"
      ],
      [
        "ä»",
        "¶"
      ],
      [
        "åı",
        "İ"
      ],
      [
        "åħ",
        "Ī"
      ],
      [
        "ãģ¨ãģĹãģ¦",
        "ãģ¯"
      ],
      [
        "ãĤ¸",
        "ãĥ£"
      ],
      [
        "æľŁ",
        "éĸĵ"
      ],
      [
        "ãĤ½",
        "ãĤ¯ãĥ©ãĥĨãĤ¹"
      ],
      [
        "åĪ©",
        "çĶ¨"
      ],
      [
        "åŃĺåľ¨",
        "ãģĻãĤĭ"
      ],
      [
        "Ġth",
        "e"
      ],
      [
        "æ",
        "·"
      ],
      [
        "ãĥĥ",
        "ãĥĳ"
      ],
      [
        "çŃ",
        "Ķ"
      ],
      [
        "åĲ",
        "Ħ"
      ],
      [
        "å¿",
        "µ"
      ],
      [
        "çĽ´",
        "ç·ļ"
      ],
      [
        "ãģ§ãģ¯",
        "ãģªãģĦ"
      ],
      [
        "åį",
        "Ĺ"
      ],
      [
        "£",
        "ģ"
      ],
      [
        "ãģ¾",
        "ãģĹãģŁ"
      ],
      [
        "æŃ",
        "»"
      ],
      [
        "çľ",
        "Į"
      ],
      [
        "éģĭ",
        "åĭķ"
      ],
      [
        "å°Ĩ",
        "è»į"
      ],
      [
        "ä½",
        "ı"
      ],
      [
        "ä»",
        "ķ"
      ],
      [
        "åıĸ",
        "ãĤĬ"
      ],
      [
        "±",
        "éŁ¿"
      ],
      [
        "æ",
        "Ĵ"
      ],
      [
        "ãĥ",
        "¦"
      ],
      [
        "åĪ",
        "Ĺ"
      ],
      [
        "æĶ",
        "¾"
      ],
      [
        "ç§ĳ",
        "åŃ¦"
      ],
      [
        "æĮ",
        "ģ"
      ],
      [
        "ãģķãĤī",
        "ãģ«"
      ],
      [
        "æ",
        "¿"
      ],
      [
        "ãģ",
        "ĸ"
      ],
      [
        "ãģ®å",
        "ī"
      ],
      [
        "ä»¥",
        "ä¸Ĭ"
      ],
      [
        "en",
        "t"
      ],
      [
        "¦",
        "Ĥ"
      ],
      [
        "ãĤĮ",
        "ãģ¦"
      ],
      [
        "åı",
        "£"
      ],
      [
        "19",
        "9"
      ],
      [
        "ä½į",
        "ç½®"
      ],
      [
        "ç¯",
        "Ģ"
      ],
      [
        "ãĥ¨",
        "ãĥ¼ãĥŃ"
      ],
      [
        "ãĥ¨ãĥ¼ãĥŃ",
        "ãĥĥãĥĳ"
      ],
      [
        "å¤",
        "·"
      ],
      [
        "ãģį",
        "ãģŁ"
      ],
      [
        "æ¼",
        "Ķ"
      ],
      [
        "éĩį",
        "è¦ģ"
      ],
      [
        "ãĥķãĤ",
        "¡"
      ],
      [
        "ãģĿ",
        "ãģĹãģ¦"
      ],
      [
        "æĪ",
        "¸"
      ],
      [
        "è£",
        "½"
      ],
      [
        "å¡",
        "ļ"
      ],
      [
        "ãģ«",
        "åĪĨ"
      ],
      [
        "è¨Ģ",
        "èĳī"
      ],
      [
        "æł",
        "¸"
      ],
      [
        "å·",
        "ŀ"
      ],
      [
        "èª¬",
        "æĺİ"
      ],
      [
        "éģº",
        "ä¼Ŀ"
      ],
      [
        "ãģ",
        "Ĳ"
      ],
      [
        "ãĢ",
        "ľ"
      ],
      [
        "éĸ¢",
        "æķ°"
      ],
      [
        "å®¹",
        "è©ŀ"
      ],
      [
        "ãģĹ",
        "ãģ°"
      ],
      [
        "ãĥ¼",
        "ãĤ¯"
      ],
      [
        "ãģ¤",
        "ãģ¾ãĤĬ"
      ],
      [
        "ãĥĥ",
        "ãĥĹ"
      ],
      [
        "éĽ",
        "¢"
      ],
      [
        "Ġ",
        "ãģĮ"
      ],
      [
        "æĸ",
        "Ń"
      ],
      [
        "åľ",
        "Ł"
      ],
      [
        "ãģŁãģł",
        "ãģĹ"
      ],
      [
        "ãĤĴ",
        "ãĤĤ"
      ],
      [
        "ãĥ¼",
        "ãĥ³"
      ],
      [
        "ãĤĵ",
        "ãģł"
      ],
      [
        "ãģªãĤĬ",
        "ãģ¾ãģĻ"
      ],
      [
        "æ¯",
        "į"
      ],
      [
        "ra",
        "c"
      ],
      [
        "i",
        "l"
      ],
      [
        "ç",
        "±"
      ],
      [
        "çī",
        "Ī"
      ],
      [
        "ç",
        "£ģ"
      ],
      [
        "Ġ",
        "A"
      ],
      [
        "åĮ",
        "º"
      ],
      [
        "ãĤ·",
        "ãĥ¥"
      ],
      [
        "èĳĹä½ľ",
        "çī©"
      ],
      [
        "ãģ®",
        "ãģĨ"
      ],
      [
        "ãģĦ",
        "ãģ¯"
      ],
      [
        "ãģĦ",
        "ãģªãģĦ"
      ],
      [
        "ãĤı",
        "ãĤĬ"
      ],
      [
        "ãĤ·",
        "ãĥ£"
      ],
      [
        "èĩª",
        "çĦ¶"
      ],
      [
        "æ¤",
        "į"
      ],
      [
        "ãĤħ",
        "ãģĨ"
      ],
      [
        "ãģ®çĻ",
        "º"
      ],
      [
        "â",
        "Ķ"
      ],
      [
        "ãģ®æ",
        "Ń"
      ],
      [
        "éł",
        "ħ"
      ],
      [
        "ä»¥",
        "éĻį"
      ],
      [
        "ãģ¹",
        "ãģ¦"
      ],
      [
        "è¨Ī",
        "ç®Ĺ"
      ],
      [
        "e",
        "m"
      ],
      [
        "ãģĻãĤĭ",
        "ãģĵãģ¨ãģĮ"
      ],
      [
        "æº",
        "Ĳ"
      ],
      [
        "èī",
        "¯"
      ],
      [
        "éģİ",
        "åİ»"
      ],
      [
        "ãĥĪãĥ«",
        "ãĤ³"
      ],
      [
        "å",
        "§"
      ],
      [
        "è¨",
        "¼"
      ],
      [
        "æĥ",
        "³"
      ],
      [
        "ãģ®å½",
        "¢"
      ],
      [
        "å³",
        "¶"
      ],
      [
        "å",
        "ĸ"
      ],
      [
        "ãĥ³",
        "ãĤ¿ãĥ¼"
      ],
      [
        "ãĥª",
        "ãĤ¹ãĥĪ"
      ],
      [
        "1",
        "6"
      ],
      [
        "ãģĮ",
        "åĩº"
      ],
      [
        "ãĤ¤",
        "ãĥĪ"
      ],
      [
        "æĸĩ",
        "æ³ķ"
      ],
      [
        "19",
        "8"
      ],
      [
        "çı¾",
        "ä»£"
      ],
      [
        "ãģ»",
        "ãģĭ"
      ],
      [
        "ãģ¤",
        "ãģ®"
      ],
      [
        "ãĥ¬",
        "ãĥ³"
      ],
      [
        "å±",
        "ŀ"
      ],
      [
        "Ħı",
        "åĳ³"
      ],
      [
        "å®",
        "Į"
      ],
      [
        "æŃ",
        "¢"
      ],
      [
        "e",
        "t"
      ],
      [
        "ãģĵãģ¨",
        "ãģ¯"
      ],
      [
        "æĺ",
        "ł"
      ],
      [
        "è²",
        "¡"
      ],
      [
        "Ġ",
        "2"
      ],
      [
        "ãģĿ",
        "ãģĨ"
      ],
      [
        "æĸ¹",
        "æ³ķ"
      ],
      [
        "æĿ¡",
        "ç´Ħ"
      ],
      [
        "ç¥ŀ",
        "çµĮ"
      ],
      [
        "Ġ",
        "in"
      ],
      [
        "ãģ¾",
        "ãģĽãĤĵ"
      ],
      [
        "ãģł",
        "ãĤįãģĨ"
      ],
      [
        "éĽ»",
        "åŃĲ"
      ],
      [
        "ãģªãģ©",
        "ãģĮ"
      ],
      [
        "éł",
        "Ĩ"
      ],
      [
        "ç©",
        "į"
      ],
      [
        "Ŀ",
        "¦"
      ],
      [
        "æĻĤ",
        "éĸĵ"
      ],
      [
        "å±",
        "¤"
      ],
      [
        "ä»¥",
        "ä¸ĭ"
      ],
      [
        "èĤ",
        "²"
      ],
      [
        "ç",
        "ħ"
      ],
      [
        "ãģ¤",
        "ãģĭ"
      ],
      [
        "ç©",
        "º"
      ],
      [
        "è©¦",
        "é¨ĵ"
      ],
      [
        "èµ·",
        "ãģĵ"
      ],
      [
        "çķ°",
        "ãģªãĤĭ"
      ],
      [
        "ãģ«éĸ¢",
        "ãģĻãĤĭ"
      ],
      [
        "éģ",
        "©"
      ],
      [
        "ãģĳ",
        "ãģŁ"
      ],
      [
        "ãĤĴæĮģ",
        "ãģ¤"
      ],
      [
        "ãĤĴ",
        "ä½ľ"
      ],
      [
        "æ±",
        "Ł"
      ],
      [
        "å£",
        "²"
      ],
      [
        "v",
        "e"
      ],
      [
        "ãģ®å",
        "Ĩ"
      ],
      [
        "ä»",
        "»"
      ],
      [
        "è¦",
        "ĸ"
      ],
      [
        "æĸ¹",
        "è¨Ģ"
      ],
      [
        "çĲĨ",
        "åŃ¦"
      ],
      [
        "ãģĵãģ®",
        "ãĤĪãģĨãģª"
      ],
      [
        "Ġo",
        "f"
      ],
      [
        "o",
        "l"
      ],
      [
        "v",
        "er"
      ],
      [
        "æ",
        "»"
      ],
      [
        "Ġ",
        "n"
      ],
      [
        "Ġ",
        "is"
      ],
      [
        "ãĤ¹",
        "ãĥĨ"
      ],
      [
        "ãģĪ",
        "ãģŁ"
      ],
      [
        "20",
        "2"
      ],
      [
        "å¥",
        "³"
      ],
      [
        "æ±",
        "Ĥ"
      ],
      [
        "æ§ĭ",
        "éĢł"
      ],
      [
        "å¸Ŀ",
        "åĽ½"
      ],
      [
        "Ŀ¦",
        "å¤·"
      ],
      [
        "´",
        "åı²"
      ],
      [
        "å",
        "Ķ"
      ],
      [
        "Ġ",
        "+"
      ],
      [
        "ãĤĴ",
        "ä½¿"
      ],
      [
        "ãģ®æ",
        "Ī"
      ],
      [
        "æĸ¹",
        "ç¨ĭ"
      ],
      [
        "ç«",
        "ł"
      ],
      [
        "æĸ¹ç¨ĭ",
        "å¼ı"
      ],
      [
        "ãģ®",
        "äºº"
      ],
      [
        "å®Ł",
        "éļĽ"
      ],
      [
        "ãĤ",
        "Ĩ"
      ],
      [
        "ãĢĤ",
        "ãĢį"
      ],
      [
        "ãģĵãģ¨",
        "ãĤĤ"
      ],
      [
        "ä¼",
        "¼"
      ],
      [
        "æĦ",
        "Ł"
      ],
      [
        "ãģ®åĪ",
        "Ĩ"
      ],
      [
        "æ¤ľ",
        "ç´¢"
      ],
      [
        "Ġ",
        "I"
      ],
      [
        "æĸ",
        "Ļ"
      ],
      [
        "åĽ",
        "Ľ"
      ],
      [
        "éģ¸",
        "æĬ"
      ],
      [
        "ãģ¨åĳ¼ãģ°",
        "ãĤĮãĤĭ"
      ],
      [
        "æĥħ",
        "åł±"
      ],
      [
        "f",
        "rac"
      ],
      [
        "ãģ®",
        "ãģĭ"
      ],
      [
        "ï¼",
        "Ł"
      ],
      [
        "åħ",
        "ļ"
      ],
      [
        "ãĤģ",
        "ãģŁ"
      ],
      [
        "èĢħ",
        "ãģĮ"
      ],
      [
        "ãĥķ",
        "ãĤ£"
      ],
      [
        "è¨ĺ",
        "åı·"
      ],
      [
        "Ġ",
        "g"
      ],
      [
        "Ġ",
        "â"
      ],
      [
        "åĽ",
        "£"
      ],
      [
        "ç¬",
        "¦"
      ],
      [
        "ãģ«ãģ¤ãģĦãģ¦",
        "ãģ¯"
      ],
      [
        "1",
        "1"
      ],
      [
        "e",
        "g"
      ],
      [
        "i",
        "m"
      ],
      [
        "l",
        "a"
      ],
      [
        "ãģ®å",
        "ĭ"
      ],
      [
        "ãĤı",
        "ãĤĭ"
      ],
      [
        "çĲ",
        "ĥ"
      ],
      [
        "æĶ",
        "¹"
      ],
      [
        "èµ¤",
        "å¡ļ"
      ],
      [
        "æ",
        "ģ"
      ],
      [
        "è",
        "ı"
      ],
      [
        "ãģł",
        "ãģ£ãģŁ"
      ],
      [
        "åĮĸ",
        "åŃ¦"
      ],
      [
        "ãĥĭ",
        "ãĤ¢"
      ],
      [
        "åİŁ",
        "åŃĲ"
      ],
      [
        "æ´»",
        "åĭķ"
      ],
      [
        "åı",
        "³"
      ],
      [
        "ãĥĪ",
        "ãĥª"
      ],
      [
        "æ±Ł",
        "æĪ¸"
      ],
      [
        "ãģ®æ",
        "Ķ"
      ],
      [
        "èĨ",
        "ľ"
      ],
      [
        "ãģ«",
        "ãģªãģ£ãģŁ"
      ],
      [
        "ãĥĩ",
        "ãĥ¼ãĤ¿"
      ],
      [
        "æ",
        "ļ"
      ],
      [
        "ãĤĮ",
        "ãģ¦ãģĦãĤĭ"
      ],
      [
        "ãĥ«",
        "ãĤ¯"
      ],
      [
        "åĭ",
        "Ļ"
      ],
      [
        "ä»¥",
        "å¤ĸ"
      ],
      [
        "è¼",
        "ī"
      ],
      [
        "ãģ®åĽ",
        "½"
      ],
      [
        "1",
        "4"
      ],
      [
        "1",
        "7"
      ],
      [
        "1",
        "00"
      ],
      [
        "Ġ",
        "S"
      ],
      [
        "åĬ",
        "¹"
      ],
      [
        "èĢħ",
        "ãģ¯"
      ],
      [
        "ç¨ĭ",
        "åº¦"
      ],
      [
        "åŁº",
        "æľ¬"
      ],
      [
        "çħ",
        "§"
      ],
      [
        "éĸ",
        "Ģ"
      ],
      [
        "ä¸Ń",
        "å¿ĥ"
      ],
      [
        "æ¥",
        "µ"
      ],
      [
        "ãģĿãģ®å",
        "¾Į"
      ],
      [
        "æ",
        "¦Ĥ"
      ],
      [
        "ãĥ",
        "Ľ"
      ],
      [
        "ãĤĴ",
        "éĢļ"
      ],
      [
        "æķ°",
        "åŃ¦"
      ],
      [
        "ãĤ¦",
        "ãĤ£"
      ],
      [
        "åľ°",
        "æĸ¹"
      ],
      [
        "éħ",
        "¸"
      ],
      [
        "ãģª",
        "ãģĮ"
      ],
      [
        "ãģ®å",
        "¯"
      ],
      [
        "ãģ®å",
        "ķ"
      ],
      [
        "ãģ®å",
        "ľ"
      ],
      [
        "ãĤ¤",
        "ãĥ«"
      ],
      [
        "ãģĵãģ¨",
        "ãģ§"
      ],
      [
        "çĻ",
        "Ĥ"
      ],
      [
        "ç²",
        "¾"
      ],
      [
        "ç±",
        "³"
      ],
      [
        "i",
        "g"
      ],
      [
        "ãģ®",
        "éŁ³"
      ],
      [
        "ãģ¨",
        "ãģªãĤĬ"
      ],
      [
        "æľ",
        "«"
      ],
      [
        "è¦",
        "ª"
      ],
      [
        "ãģĹãģŁ",
        "ãģĮ"
      ],
      [
        "ä¸ī",
        "è§Ĵå½¢"
      ],
      [
        "ãģ®å",
        "°"
      ],
      [
        "å®",
        "ĺ"
      ],
      [
        "èªŀ",
        "ãģ¯"
      ],
      [
        "ãĥ¼ãĥ",
        "Ĺ"
      ],
      [
        "åį",
        "ģ"
      ],
      [
        "éł",
        "Ń"
      ],
      [
        "Ġ",
        "ãģ«"
      ],
      [
        "ãĢĤ",
        "ãĢĮ"
      ],
      [
        "ãĤī",
        "ãģĭ"
      ],
      [
        "ãĤĪ",
        "ãģı"
      ],
      [
        "è©",
        "ķ"
      ],
      [
        "ãĤ¦",
        "ãĥł"
      ],
      [
        "ç®",
        "¡"
      ],
      [
        "çĶ¨ãģĦ",
        "ãĤīãĤĮãĤĭ"
      ],
      [
        "}",
        "{"
      ],
      [
        "ãģ®",
        "æĸĩ"
      ],
      [
        "ãģ®",
        "ãģĵãģ¨ãĤĴ"
      ],
      [
        "ãģ®æ",
        "ī"
      ],
      [
        "ãĤ¤",
        "ãĥ³ãĥ"
      ],
      [
        "ä½ľ",
        "åĵģ"
      ],
      [
        "åĬ",
        "©"
      ],
      [
        "æĻ",
        "¶"
      ],
      [
        "åĨ",
        "į"
      ],
      [
        "ãģĵãĤĮ",
        "ãĤĴ"
      ],
      [
        "ç¶ļ",
        "ãģį"
      ],
      [
        "ãĢĤ",
        "ï¼Ī"
      ],
      [
        "ãģĹ",
        "ãģ¾"
      ],
      [
        "ãĥĹ",
        "ãĥ¬"
      ],
      [
        "ãģ®è",
        "§"
      ],
      [
        "è¡¨",
        "è¨ĺ"
      ],
      [
        "ãĤ¦",
        "ãĤ§"
      ],
      [
        "ãĥŀ",
        "ãĥ³"
      ],
      [
        "é«ĺ",
        "ãģĦ"
      ],
      [
        "a",
        "m"
      ],
      [
        "o",
        "s"
      ],
      [
        "ç«",
        "¯"
      ],
      [
        "ç·",
        "ı"
      ],
      [
        "å¾Į",
        "ãģ«"
      ],
      [
        "ãģ®å¤",
        "ī"
      ],
      [
        "è¶",
        "³"
      ],
      [
        "è",
        "Ŀ¦å¤·"
      ],
      [
        "ãĤĴ",
        "ãģ¤"
      ],
      [
        "å¤",
        "©"
      ],
      [
        "è¨",
        "³"
      ],
      [
        "ãĥ¼ãĥ",
        "ŀ"
      ],
      [
        "åķ",
        "Ĩ"
      ],
      [
        "ãģ»",
        "ãģ©"
      ],
      [
        "é",
        "Ĥ"
      ],
      [
        "ãĤ¤ãĥ©",
        "ãĤ¯"
      ],
      [
        "é",
        "»"
      ],
      [
        "ä¿",
        "®"
      ],
      [
        "ãĢı",
        "ï¼Ī"
      ],
      [
        "æı",
        "Ľ"
      ],
      [
        "çĶŁçī©",
        "åŃ¦"
      ],
      [
        "ç",
        "ª"
      ],
      [
        "Ħ",
        "åĽ²"
      ],
      [
        "Ĩ",
        "Ĵ"
      ],
      [
        "ãģ®",
        "éĸĵ"
      ],
      [
        "å¾",
        "´"
      ],
      [
        "éĻ",
        "¸"
      ],
      [
        "c",
        "t"
      ],
      [
        "ãĤ",
        "¼"
      ],
      [
        "å½",
        "¹"
      ],
      [
        "ãĤĴæ",
        "±"
      ],
      [
        "æ³",
        "¨"
      ],
      [
        "éĻ",
        "¤"
      ],
      [
        "ç·",
        "¨"
      ],
      [
        "ãĤĴ",
        "è¦ĭ"
      ],
      [
        "ãģ®å",
        "Į"
      ],
      [
        "çļĦ",
        "ãģ«ãģ¯"
      ],
      [
        "å¼",
        "¦"
      ],
      [
        "å½¢",
        "å®¹è©ŀ"
      ],
      [
        "å¥",
        "ı"
      ],
      [
        "å¢",
        "ĥ"
      ],
      [
        "åĥ",
        "į"
      ],
      [
        "3",
        "0"
      ],
      [
        "é",
        "Ĭ"
      ],
      [
        "ãģ®",
        "ãģĮ"
      ],
      [
        "è¡Į",
        "ãĤıãĤĮ"
      ],
      [
        "è¨ĺ",
        "è¿°"
      ],
      [
        "åľ°",
        "åŁŁ"
      ],
      [
        "èĪ",
        "Ī"
      ],
      [
        "ãĥŁ",
        "ãĥ³ãĤ°"
      ],
      [
        "çľ",
        "Ł"
      ],
      [
        "çµĦ",
        "ãģ¿"
      ],
      [
        "å¸¸",
        "ãģ«"
      ],
      [
        "ãģ®",
        "ãģĵãģ¨"
      ],
      [
        "ãĤĴæ",
        "İ"
      ],
      [
        "ãģ®ç",
        "Ł"
      ],
      [
        "èĩª",
        "çĶ±"
      ],
      [
        "æ°ĳ",
        "æĹı"
      ],
      [
        "æĬĢ",
        "è¡ĵ"
      ],
      [
        "ç¹",
        "Ķ"
      ],
      [
        "d",
        "e"
      ],
      [
        "é",
        "ĺ"
      ],
      [
        "ãģĹãģ¦",
        "ãģĬãĤĬ"
      ],
      [
        "ãģĳ",
        "ãĤĮãģ°"
      ],
      [
        "åĪĨ",
        "åŃĲ"
      ],
      [
        "åĳ",
        "Ĭ"
      ],
      [
        "ä¼",
        "ģ"
      ],
      [
        "ä½ĵ",
        "ãģĮ"
      ],
      [
        "ãĤīãĤĮ",
        "ãģ¦"
      ],
      [
        "åĲĮ",
        "æ§ĺ"
      ],
      [
        "éķ·",
        "ãģķ"
      ],
      [
        "ç§ĳ",
        "æĽ¸"
      ],
      [
        "ãģķãģĽ",
        "ãĤĭ"
      ],
      [
        "ãģ§",
        "ãģ®"
      ],
      [
        "ãģĭ",
        "ãĤĬ"
      ],
      [
        "èĩª",
        "åĪĨ"
      ],
      [
        "åıĹ",
        "é¨ĵ"
      ],
      [
        "5",
        "0"
      ],
      [
        "Ġ",
        "/"
      ],
      [
        "åĪĨ",
        "éĩİ"
      ],
      [
        "éĿ",
        "©"
      ],
      [
        "æ´",
        "ĭ"
      ],
      [
        "ãĥĭ",
        "ãĥ¥"
      ],
      [
        "çİ",
        "ĭ"
      ],
      [
        "ãģ²",
        "ãģ¨"
      ],
      [
        "çĬ¶",
        "æħĭ"
      ],
      [
        "ãĥ¼",
        "ãĤ·ãĥ§ãĥ³"
      ],
      [
        "åħ",
        "¸"
      ],
      [
        "åį",
        "ł"
      ],
      [
        "çĻº",
        "çĶŁ"
      ],
      [
        "å·",
        "Ŀ"
      ],
      [
        "çĽ®",
        "çļĦ"
      ],
      [
        "æľĢ",
        "ãĤĤ"
      ],
      [
        "ä¿ĿèŃ·",
        "æľŁéĸĵ"
      ],
      [
        "ç",
        "Ŀ"
      ],
      [
        "ãĥ",
        "ĺ"
      ],
      [
        "ãĢģ",
        "ãĢİ"
      ],
      [
        "å¹",
        "ķ"
      ],
      [
        "ãĥ©",
        "ãĤ¤"
      ],
      [
        "åĽ½",
        "æ°ĳ"
      ],
      [
        "ãĥ³ãĥ",
        "Ĺ"
      ],
      [
        "æĸ¹",
        "å¼ı"
      ],
      [
        "ãĤĪãģĨãģ«",
        "ãģªãģ£ãģŁ"
      ],
      [
        "æĿ±",
        "äº¬"
      ],
      [
        "ãĥĹãĥŃãĤ°ãĥ©",
        "ãĥŁãĥ³ãĤ°"
      ],
      [
        "ãģ®ãģĨ",
        "ãģ¡"
      ],
      [
        "ãģĦ",
        "ãģĨ"
      ],
      [
        "ãĤĴ",
        "åĲ«"
      ],
      [
        "ãĤī",
        "ãģļ"
      ],
      [
        "å¤",
        "±"
      ],
      [
        "ãĤĵ",
        "ãģ©"
      ],
      [
        "ç§",
        "ģ"
      ],
      [
        "èĥ",
        "ļ"
      ],
      [
        "åĢ",
        "į"
      ],
      [
        "æĮ",
        "Ļ"
      ],
      [
        "æĶ¿",
        "æ²»"
      ],
      [
        "ãĥį",
        "ãĥ«"
      ],
      [
        "æ»",
        "ħ"
      ],
      [
        "A",
        "B"
      ],
      [
        "¿",
        "æĺĵ"
      ],
      [
        "ãģ¨",
        "ãģĵãĤį"
      ],
      [
        "ãģª",
        "ãģ®ãģ§"
      ],
      [
        "å¹´",
        "ãģ®"
      ],
      [
        "çĶ¨",
        "èªŀ"
      ],
      [
        "æī",
        "±"
      ],
      [
        "ãģĵãģ®",
        "ãĤĪãģĨãģ«"
      ],
      [
        "èĳĹä½ľ",
        "èĢħ"
      ],
      [
        "è¼",
        "¸"
      ],
      [
        "åħ±",
        "éĢļ"
      ],
      [
        "u",
        "n"
      ],
      [
        "ãģĭ",
        "ãģ¤"
      ],
      [
        "ãģ®æ",
        "Ħıåĳ³"
      ],
      [
        "çĽ",
        "¤"
      ],
      [
        "æĻ",
        "®"
      ],
      [
        "ä¸»",
        "å¼µ"
      ],
      [
        "èģ",
        "ŀ"
      ],
      [
        "ãĥ©ãĥ³",
        "ãĤ¹"
      ],
      [
        "a",
        "b"
      ],
      [
        "ç",
        "Ĩ"
      ],
      [
        "é",
        "ī"
      ],
      [
        "ãģ®æ",
        "Ŀ"
      ],
      [
        "ãģ§ãģĤãĤĭ",
        "ãģĮ"
      ],
      [
        "åĽ½",
        "å®¶"
      ],
      [
        "ãĥķãĤ",
        "©"
      ],
      [
        "ãģ®åķ",
        "ı"
      ],
      [
        "æ",
        "Ĥ"
      ],
      [
        "ç",
        "ĸ"
      ],
      [
        "ãģ«",
        "åħ¥"
      ],
      [
        "ãģ§",
        "ãģĤ"
      ],
      [
        "äº",
        "Ī"
      ],
      [
        "ãĤ¯",
        "ãĥŃ"
      ],
      [
        "çĻ",
        "½"
      ],
      [
        "ãĤ¸",
        "ãĤ¢"
      ],
      [
        "è«",
        "¸"
      ],
      [
        "è»",
        "¢"
      ],
      [
        "ãģ»",
        "ãģ¨"
      ],
      [
        "æ®",
        "µ"
      ],
      [
        "ãģ¨ãģĦãģĨæĦıåĳ³",
        "ãģ§ãģĤãĤĭ"
      ],
      [
        "éĢŁ",
        "åº¦"
      ],
      [
        "æ¤į",
        "çī©"
      ],
      [
        "ãģ®å¯",
        "¾"
      ],
      [
        "é",
        "³"
      ],
      [
        "ãĤ¢",
        "ãĤ¤"
      ],
      [
        "å½",
        "±éŁ¿"
      ],
      [
        "å±",
        "ĭ"
      ],
      [
        "åĥ",
        "ı"
      ],
      [
        "a",
        "s"
      ],
      [
        "ãĢĤ",
        "ï¼ī"
      ],
      [
        "ãģ¨",
        "ãģªãģ£ãģ¦ãģĦãĤĭ"
      ],
      [
        "ãĤī",
        "ãģĦ"
      ],
      [
        "ãģĤãĤĭ",
        "ãģĦãģ¯"
      ],
      [
        "ãĤ«",
        "ãĥ¼ãĥ"
      ],
      [
        "ãĤ«",
        "ãĥ¬ãĥ³"
      ],
      [
        "èĢĥ",
        "ãģĪãĤĭ"
      ],
      [
        "åĤ",
        "¬"
      ],
      [
        "è¤ĩ",
        "æķ°"
      ],
      [
        "i",
        "e"
      ],
      [
        "Ľ",
        "¸"
      ],
      [
        "ãĤĴ",
        "ç¤º"
      ],
      [
        "ãģŁ",
        "ãģ¡"
      ],
      [
        "ãģ®æ",
        "§ĭ"
      ],
      [
        "åŃ¦",
        "éĥ¨"
      ],
      [
        "çĶŁ",
        "çĶ£"
      ],
      [
        "åī",
        "µ"
      ],
      [
        "çķ",
        "¥"
      ],
      [
        "19",
        "6"
      ],
      [
        "çĻº",
        "å±ķ"
      ],
      [
        "æ¸",
        "Ľ"
      ],
      [
        "ãĤ¨",
        "ãĥ³"
      ],
      [
        "çµĦ",
        "ç¹Ķ"
      ],
      [
        "åıĤ",
        "çħ§"
      ],
      [
        "1",
        "3"
      ],
      [
        "å®",
        "Ĺ"
      ],
      [
        "ãģ®æ",
        "°"
      ],
      [
        "åĳ",
        "¨"
      ],
      [
        "äºº",
        "éĸĵ"
      ],
      [
        "åľ",
        "§"
      ],
      [
        "å®ļ",
        "ç¾©"
      ],
      [
        "çĻº",
        "éŁ³"
      ],
      [
        "ãģ»ãģ¨",
        "ãĤĵãģ©"
      ],
      [
        "æ",
        "Ĩ"
      ],
      [
        "ãĤĤ",
        "ãģĹ"
      ],
      [
        "ä»",
        "¤"
      ],
      [
        "å¼",
        "±"
      ],
      [
        "ãĥ³ãĥ",
        "Ģ"
      ],
      [
        "æĸ¹",
        "åĲĳ"
      ],
      [
        "æŃ",
        "´åı²"
      ],
      [
        "å£",
        "°"
      ],
      [
        "æĭį",
        "åŃĲ"
      ],
      [
        "ï½",
        "ŀ"
      ],
      [
        "ãĤ¢ãĤ¯",
        "ãĤ»"
      ],
      [
        "éģºä¼Ŀ",
        "åŃĲ"
      ],
      [
        "ä¼ģ",
        "æ¥Ń"
      ],
      [
        "ãģ®åķı",
        "é¡Į"
      ],
      [
        "i",
        "r"
      ],
      [
        "u",
        "r"
      ],
      [
        "æ",
        "£"
      ],
      [
        "è",
        "į"
      ],
      [
        "Ġ",
        "T"
      ],
      [
        "ãĤ",
        "ĥ"
      ],
      [
        "ãģ®",
        "èªŀ"
      ],
      [
        "æķ",
        "´"
      ],
      [
        "ãĤ·",
        "ãĥ³"
      ],
      [
        "ãĥ³ãĥ",
        "ĳ"
      ],
      [
        "ä¾",
        "Ľ"
      ],
      [
        "çĤ",
        "º"
      ],
      [
        "ãģĵãģ¨ãģĮ",
        "ãģ§ãģįãĤĭ"
      ],
      [
        "åĤ",
        "Ļ"
      ],
      [
        "ä¸İ",
        "ãģĪ"
      ],
      [
        "ãģ®åĢ",
        "¤"
      ],
      [
        "âĶ",
        "Ģ"
      ],
      [
        "è",
        "ħ"
      ],
      [
        "Ġ",
        "C"
      ],
      [
        "ãģ¨",
        "ãģĹãģŁ"
      ],
      [
        "ãĤ¤",
        "ãĤ¹ãĥ©"
      ],
      [
        "ãĤĴæ",
        "ı"
      ],
      [
        "ãĥĨ",
        "ãĥ¬"
      ],
      [
        "çī¹",
        "å¾´"
      ],
      [
        "è¾",
        "¼"
      ],
      [
        "ãĤĪãĤĬ",
        "ãĤĤ"
      ],
      [
        "è¼",
        "ĥ"
      ],
      [
        "ãĤĴè¡Į",
        "ãģĨ"
      ],
      [
        "æĺł",
        "çĶ»"
      ],
      [
        "ç",
        "¦"
      ],
      [
        "ãģ®å",
        "ĩ"
      ],
      [
        "çĶ",
        "°"
      ],
      [
        "äº",
        "Ĵ"
      ],
      [
        "ãģ®æ",
        "Ģ"
      ],
      [
        "ãģ®æ",
        "Ĺ"
      ],
      [
        "ãĤĦ",
        "ãģĻ"
      ],
      [
        "ãĤĤãģ®",
        "ãģ§ãģĤãĤĭ"
      ],
      [
        "ãĤµ",
        "ãĥ¼ãĥ"
      ],
      [
        "éĸĭ",
        "çĻº"
      ],
      [
        "ãģ®æĪ",
        "Ĳ"
      ],
      [
        "Ġ",
        "B"
      ],
      [
        "ãģ¨",
        "åĲĮãģĺ"
      ],
      [
        "ãģ¾",
        "ãģ¾"
      ],
      [
        "ãģ¾",
        "ãģļ"
      ],
      [
        "ãĤ¿",
        "ãĤ¤"
      ],
      [
        "è²",
        "¨"
      ],
      [
        "æı",
        "Ĳ"
      ],
      [
        "æĪ¦",
        "äºī"
      ],
      [
        "éĩįè¦ģ",
        "ãģª"
      ],
      [
        "«",
        "çĶ»"
      ],
      [
        "æ",
        "¡"
      ],
      [
        "Ĵ",
        "°"
      ],
      [
        "ãĥ",
        "¤"
      ],
      [
        "ãĤĴ",
        "è¡¨ãģĻ"
      ],
      [
        "ãĥ«",
        "ãĥĪ"
      ],
      [
        "çĽ",
        "Ł"
      ],
      [
        "æ¨",
        "¡"
      ],
      [
        "ãĤŃ",
        "ãĥ£"
      ],
      [
        "è¾",
        "²"
      ],
      [
        "çŃī",
        "ãģĹãģĦ"
      ],
      [
        "ma",
        "th"
      ],
      [
        "ç",
        "Į"
      ],
      [
        "ãģŁ",
        "ãĤĬ"
      ],
      [
        "å®",
        "³"
      ],
      [
        "éĢ",
        "Ĩ"
      ],
      [
        "æĹ¥",
        "ãģ«"
      ],
      [
        "ãģĤãĤĬ",
        "ãģ¾ãģĻ"
      ],
      [
        "ãģ§ãģį",
        "ãģ¾ãģĻ"
      ],
      [
        "åł´åĲĪ",
        "ãģ¯"
      ],
      [
        "å£",
        "«"
      ],
      [
        "æŁ",
        "»"
      ],
      [
        "ãĤ³ãĥ³ãĥ",
        "Ķ"
      ],
      [
        "éģ¸æĬ",
        "ŀ"
      ],
      [
        "é",
        "į"
      ],
      [
        "ãģ®",
        "ãģĤãĤĭ"
      ],
      [
        "ãģ¨",
        "èĢĥãģĪ"
      ],
      [
        "ãģĦ",
        "ãģ«"
      ],
      [
        "ï¼ī",
        "ãĢį"
      ],
      [
        "åħ",
        "·"
      ],
      [
        "ãĤ¤",
        "ãĤ®"
      ],
      [
        "ãĥª",
        "ãĥģãĥ£"
      ],
      [
        "ç´",
        "Ķ"
      ],
      [
        "åĪĨ",
        "é¡ŀ"
      ],
      [
        "äºº",
        "ãģĮ"
      ],
      [
        "åĲĪ",
        "ãĤıãģĽ"
      ],
      [
        "åį",
        "µ"
      ],
      [
        "åį",
        "Ķ"
      ],
      [
        "åĩº",
        "é¡Į"
      ],
      [
        "éĻ",
        "¢"
      ],
      [
        "å®Ł",
        "é¨ĵ"
      ],
      [
        "éļ",
        "İ"
      ],
      [
        "å¥",
        "½"
      ],
      [
        "å½ĵ",
        "æĻĤ"
      ],
      [
        "æ¶Ī",
        "è²»"
      ],
      [
        "ãģ®åľ",
        "°"
      ],
      [
        "ãĤ¤ãĤ®",
        "ãĥªãĤ¹"
      ],
      [
        "ãĥªãĥģãĥ£",
        "ãĥ¼ãĥī"
      ],
      [
        "g",
        "e"
      ],
      [
        "ãģĵãģ¨",
        "ãģĭãĤī"
      ],
      [
        "æ³",
        "¢"
      ],
      [
        "İ",
        "Ł"
      ],
      [
        "åĲ",
        "¦"
      ],
      [
        "æĸ",
        "½"
      ],
      [
        "çī",
        "ĩ"
      ],
      [
        "è©ŀ",
        "ãģ§ãģĤãĤĭ"
      ],
      [
        "ãģ§ãģį",
        "ãģªãģĦ"
      ],
      [
        "ä»ĸ",
        "ãģ®"
      ],
      [
        "ãģ«ãģĬãģĦãģ¦",
        "ãģ¯"
      ],
      [
        "ãģ®åĭ",
        "ķ"
      ],
      [
        "ãĤ³ãĥ³ãĥĶ",
        "ãĥ¥"
      ],
      [
        "ãĤĴ",
        "ãģĻãĤĭ"
      ],
      [
        "ãģª",
        "ãģĳãĤĮãģ°"
      ],
      [
        "ãģ®å",
        "Ĭ"
      ],
      [
        "è¨",
        "±"
      ],
      [
        "æĶ",
        "¯"
      ],
      [
        "æ¸",
        "¯"
      ],
      [
        "ç¶",
        "Ļ"
      ],
      [
        "è£",
        "Ĥ"
      ],
      [
        "ãĤ®",
        "ãĥª"
      ],
      [
        "Ġy",
        "ou"
      ],
      [
        "è¨¼",
        "æĺİ"
      ],
      [
        "u",
        "l"
      ],
      [
        "é",
        "ľ"
      ],
      [
        "ļ",
        "ãĥ³ãĤ¿ãĥ¼"
      ],
      [
        "ãĥ¼",
        "ãģĮ"
      ],
      [
        "èªŀ",
        "ãģ®"
      ],
      [
        "å¹´",
        "ãģ«ãģ¯"
      ],
      [
        "å½¢",
        "å¼ı"
      ],
      [
        "çĲĨ",
        "è«ĸ"
      ],
      [
        "ç¤",
        "İ"
      ],
      [
        "00",
        "0"
      ],
      [
        "ãģ«å¯¾",
        "ãģĻãĤĭ"
      ],
      [
        "ãĤ«ãĥ¼ãĥ",
        "ļãĥ³ãĤ¿ãĥ¼"
      ],
      [
        "r",
        "m"
      ],
      [
        "Ġ",
        "3"
      ],
      [
        "Ġ",
        "ãģ§"
      ],
      [
        "è¡",
        "Ĩ"
      ],
      [
        "ãģ£ãģ¦",
        "ãĤĤ"
      ],
      [
        "ãĤı",
        "ãģĳ"
      ],
      [
        "ãģªãģ©",
        "ãĤĴ"
      ],
      [
        "ãģ®è",
        "²"
      ],
      [
        "åĩ",
        "¦"
      ],
      [
        "å½¢",
        "æĪĲ"
      ],
      [
        "å·",
        "®"
      ],
      [
        "æľĢ",
        "åĪĿ"
      ],
      [
        "æĶ¿",
        "åºľ"
      ],
      [
        "æŁ",
        "ĵ"
      ],
      [
        "åĦ",
        "ª"
      ],
      [
        ":",
        ":"
      ],
      [
        "c",
        "e"
      ],
      [
        "o",
        "w"
      ],
      [
        "ãģ«",
        "ãģ¨"
      ],
      [
        "ãģĻ",
        "ãģ¹ãģ¦"
      ],
      [
        "ãģ¾",
        "ãĤĭ"
      ],
      [
        "çī©",
        "çĲĨ"
      ],
      [
        "ãģ®ç",
        "¯"
      ],
      [
        "ãĥ¬",
        "ãĥĻãĥ«"
      ],
      [
        "ãĥĹ",
        "ãĤ¹"
      ],
      [
        "çĲĨ",
        "è§£"
      ],
      [
        "ãĥī",
        "ãĥ©"
      ],
      [
        "ãĤĴæĮ",
        "ĩ"
      ],
      [
        "å",
        "²"
      ],
      [
        "Ġ",
        "\""
      ],
      [
        "Ġ",
        "0"
      ],
      [
        "Ġ",
        "ãģĭ"
      ],
      [
        "èª",
        "ĺ"
      ],
      [
        "åŃ¦",
        "ç¿Ĵ"
      ],
      [
        "ãĤĴæ",
        "ī"
      ],
      [
        "éĽ",
        "ĳ"
      ],
      [
        "ä½¿",
        "ãĤıãĤĮ"
      ],
      [
        "Ġt",
        "o"
      ],
      [
        "ãĥĹãĥŃãĤ°ãĥ©",
        "ãĥł"
      ],
      [
        "ç§»",
        "åĭķ"
      ],
      [
        "ç",
        "Ĺ"
      ],
      [
        "ç",
        "Ĵ°"
      ],
      [
        "ãĤĮ",
        "ãģªãģĦ"
      ],
      [
        "ãģĭ",
        "ãĤĭ"
      ],
      [
        "çĶ",
        "º"
      ],
      [
        "ä»",
        "ĭ"
      ],
      [
        "ãģ®ç",
        "·"
      ],
      [
        "ä½ĵ",
        "ãģ®"
      ],
      [
        "ä½ĵ",
        "ç³»"
      ],
      [
        "åĭķ",
        "çī©"
      ],
      [
        "è¨ĺ",
        "éĮ²"
      ],
      [
        "åħ¨",
        "ãģ¦"
      ],
      [
        "ãĤ¤ãĥ³",
        "ãĤ¿"
      ],
      [
        "åħ±",
        "åĴĮ"
      ],
      [
        "ãģ®å®",
        "Ł"
      ],
      [
        "ãģĵãģĵ",
        "ãģ§"
      ],
      [
        "ãģ®åī",
        "į"
      ],
      [
        "å®Į",
        "åħ¨"
      ],
      [
        "t",
        "e"
      ],
      [
        "ãģĮ",
        "å¤ļãģĦ"
      ],
      [
        "ãģŁ",
        "ãģĦ"
      ],
      [
        "ãĤī",
        "ãģªãģĦ"
      ],
      [
        "ãĤ¢",
        "ãĥ©"
      ],
      [
        "èªŀ",
        "ãĤĴ"
      ],
      [
        "ç´",
        "ļ"
      ],
      [
        "ä¸Ĭ",
        "ãģ«"
      ],
      [
        "ãĤ³",
        "ãĥ³"
      ],
      [
        "è¿",
        "Ķ"
      ],
      [
        "æĽ¸",
        "ãģį"
      ],
      [
        "éĢļ",
        "å¸¸"
      ],
      [
        "æķĻ",
        "èĤ²"
      ],
      [
        "æº",
        "Ģ"
      ],
      [
        "èĦ",
        "Ī"
      ],
      [
        "ãģĵãģĵ",
        "ãģ§ãģ¯"
      ],
      [
        "å¼ķ",
        "ãģį"
      ],
      [
        "ä»®",
        "åĲį"
      ],
      [
        "ãģ®åĨ",
        "ħ"
      ],
      [
        ".",
        "."
      ],
      [
        "ãģ®å",
        "İŁ"
      ],
      [
        "åĽ½",
        "åĨħ"
      ],
      [
        "çµĲ",
        "åĲĪ"
      ],
      [
        "éĸĭ",
        "åĤ¬"
      ],
      [
        "è¦ı",
        "åīĩ"
      ],
      [
        "å¤§ãģį",
        "ãģı"
      ],
      [
        "é¦",
        "ĸ"
      ],
      [
        "ãģ®åŃ",
        "¦"
      ],
      [
        "æ¿",
        "Ģ"
      ],
      [
        ")",
        "ãĢģ"
      ],
      [
        "Ġ",
        "M"
      ],
      [
        "Ġ",
        "ãģ§ãģĻ"
      ],
      [
        "Ń",
        "åĴĮ"
      ],
      [
        "æ¸",
        "¬"
      ],
      [
        "æīĭ",
        "ç¶ļãģį"
      ],
      [
        "ãģªãĤī",
        "ãģªãģĦ"
      ],
      [
        "é£",
        "¾"
      ],
      [
        "æ§ĭ",
        "æĪĲ"
      ],
      [
        "ç¨®",
        "é¡ŀ"
      ],
      [
        "èģ",
        "·"
      ],
      [
        "å»",
        "¶"
      ],
      [
        "å»",
        "º"
      ],
      [
        "Ġ",
        "P"
      ],
      [
        "ãģ¦",
        "ãĤĤ"
      ],
      [
        "ï¼",
        "į"
      ],
      [
        "ä¸",
        "¦"
      ],
      [
        "ãĤ¢",
        "ãĤ¸ãĤ¢"
      ],
      [
        "ãĤ¤",
        "ãĥ³ãĥī"
      ],
      [
        "ãģĵãģ¨",
        "ãģ«"
      ],
      [
        "æ³",
        "ģ"
      ],
      [
        "ãģĺ",
        "ãĤħãģĨ"
      ],
      [
        "çĽ¸",
        "æīĭ"
      ],
      [
        "ä¼Ŀ",
        "çµ±"
      ],
      [
        "âĢ",
        "¦"
      ],
      [
        "å¹ķ",
        "åºľ"
      ],
      [
        "éį",
        "µ"
      ],
      [
        "Ġ",
        "e"
      ],
      [
        "ãģĵ",
        "ãģ®æ"
      ],
      [
        "ãģĻãĤĭ",
        "ãģŁãĤģ"
      ],
      [
        "ãģĳ",
        "ãģĦ"
      ],
      [
        "ãģĦãģ¦",
        "ãģĦãĤĭ"
      ],
      [
        "çĻ",
        "»"
      ],
      [
        "æĺ",
        "ŃåĴĮ"
      ],
      [
        "è¡¨",
        "ç¤º"
      ],
      [
        "ãĥĹ",
        "ãĥ©"
      ],
      [
        "æĽ",
        "´"
      ],
      [
        "ãĥŁ",
        "ãĥ¥"
      ],
      [
        "ãģ®å¤",
        "ļ"
      ],
      [
        "ãģķãĤĮãģ¦",
        "ãģĦãģŁ"
      ],
      [
        "ãģ®å®",
        "ļ"
      ],
      [
        "é¦",
        "Ļ"
      ],
      [
        "è·",
        "¯"
      ],
      [
        "math",
        "rm"
      ],
      [
        "D",
        "P"
      ],
      [
        "t",
        "er"
      ],
      [
        "ç",
        "Ī"
      ],
      [
        "Ġ",
        "and"
      ],
      [
        "ãģ",
        "ľ"
      ],
      [
        "ãĥ",
        "Į"
      ],
      [
        "ãģĮ",
        "å¿ħè¦ģ"
      ],
      [
        "ãĥ©",
        "ãĥ¼"
      ],
      [
        "å¾",
        "ĭ"
      ],
      [
        "æĸĩ",
        "ç«ł"
      ],
      [
        "ãĥĥ",
        "ãĥģ"
      ],
      [
        "çĶŁ",
        "æĪĲ"
      ],
      [
        "å°",
        "Ħ"
      ],
      [
        "ãĥŃ",
        "ãĤ·ãĤ¢"
      ],
      [
        "æŃ",
        "¦"
      ],
      [
        "ãĥķ",
        "ãĥ©ãĥ³ãĤ¹"
      ],
      [
        "è³",
        "ŀ"
      ],
      [
        "éł",
        "ĥ"
      ],
      [
        "ãģĿãģ®",
        "ãģŁãĤģ"
      ],
      [
        "æ®",
        "ĭ"
      ],
      [
        "èĦ",
        "³"
      ],
      [
        "å¤§ãģį",
        "ãģª"
      ],
      [
        "åĲ«",
        "ãģ¾"
      ],
      [
        "éĥ½",
        "å¸Ĥ"
      ],
      [
        "æ¶²",
        "æĻ¶"
      ],
      [
        "ãģ®æĹ",
        "¥"
      ],
      [
        "ãĤ",
        "¡"
      ],
      [
        "ãģ®",
        "è¨Ģèªŀ"
      ],
      [
        "å¤",
        "«"
      ],
      [
        "å¾",
        "ĵ"
      ],
      [
        "ãģ®ç",
        "łĶç©¶"
      ],
      [
        "ä¸Ĭ",
        "ãģĴ"
      ],
      [
        "ãĤ¸",
        "ãĥ³"
      ],
      [
        "å¹³",
        "éĿ¢"
      ],
      [
        "ãĥļ",
        "ãĥ¼ãĤ¸"
      ],
      [
        "æ©Ł",
        "èĥ½"
      ],
      [
        "ãĤĪ",
        "ãģĦ"
      ],
      [
        "äº",
        "Ķ"
      ],
      [
        "ãģ£ãģ¦",
        "ãģĦãģŁ"
      ],
      [
        "çļ",
        "®"
      ],
      [
        "å½",
        "Ļ"
      ],
      [
        "ãģ®ç",
        "Ĥ"
      ],
      [
        "åĩº",
        "æĿ¥"
      ],
      [
        "åĩº",
        "çīĪ"
      ],
      [
        "ãģĺ",
        "ãĤĭ"
      ],
      [
        "åł´",
        "æīĢ"
      ],
      [
        "ãĤª",
        "ãĥ³"
      ],
      [
        "è¦ģ",
        "ç´ł"
      ],
      [
        "çŁ¥",
        "èŃĺ"
      ],
      [
        "æ¼",
        "«çĶ»"
      ],
      [
        "å¿ħ",
        "ãģļ"
      ],
      [
        "ãģ¨ãĤĤ",
        "ãģ«"
      ],
      [
        "è¿°",
        "ãģ¹"
      ],
      [
        "ä¹",
        "Ĺ"
      ],
      [
        "ä¸ĢèĪ¬",
        "ãģ«"
      ],
      [
        "ãģłãģĳ",
        "ãģ§"
      ],
      [
        "ãĤ³ãĥ³ãĥĶãĥ¥",
        "ãĥ¼ãĤ¿"
      ],
      [
        "å",
        "Ŀ"
      ],
      [
        "æ",
        "ĳ"
      ],
      [
        "é",
        "ª"
      ],
      [
        "ãģĦ",
        "ãģĦ"
      ],
      [
        "èªŀ",
        "ãģĮ"
      ],
      [
        "ãģĭãĤī",
        "ãģ¯"
      ],
      [
        "ãĤĴæ",
        "Ĭ"
      ],
      [
        "å°",
        "¾"
      ],
      [
        "ãģ®è",
        "³"
      ],
      [
        "ãĤ³",
        "ãĥ¼ãĥī"
      ],
      [
        "è£",
        "ľ"
      ],
      [
        "at",
        "ion"
      ],
      [
        "åĤ",
        "¾"
      ],
      [
        "ãĤĴçĶ¨",
        "ãģĦãĤĭ"
      ],
      [
        "ãĤ¢ãĤ¯ãĤ»",
        "ãĥ³ãĥĪ"
      ],
      [
        "å",
        "¦"
      ],
      [
        "Ġ",
        "4"
      ],
      [
        "Ī",
        "ł"
      ],
      [
        "ãģ®",
        "ãģŁãĤģ"
      ],
      [
        "ãģ«",
        "ãģĭ"
      ],
      [
        "ãģ«",
        "åŁº"
      ],
      [
        "ãģĮ",
        "ãģªãģĦ"
      ],
      [
        "ãģĤ",
        "ãģ¾ãĤĬ"
      ],
      [
        "ãģ®å",
        "Ł"
      ],
      [
        "ãĤ¯",
        "ãĥ«"
      ],
      [
        "æķ°",
        "ãģ¯"
      ],
      [
        "éĸ¢",
        "éĢ£"
      ],
      [
        "ç§ĳ",
        "çĽ®"
      ],
      [
        "ç¬¬",
        "ä¸Ģ"
      ],
      [
        "å¿ľ",
        "ãģĻãĤĭ"
      ],
      [
        "èĬ",
        "±"
      ],
      [
        "i",
        "f"
      ],
      [
        "é",
        "®"
      ],
      [
        "æľ",
        "¨"
      ],
      [
        "ãģı",
        "ãĤĭ"
      ],
      [
        "ãĤ·",
        "ãĤ¹ãĥĨ"
      ],
      [
        "ãģĽ",
        "ãĤĭ"
      ],
      [
        "æĻĤ",
        "ãģ«"
      ],
      [
        "çŃ",
        "ĭ"
      ],
      [
        "an",
        "g"
      ],
      [
        "åĮ»",
        "çĻĤ"
      ],
      [
        "âĶĢ",
        "âĶĢ"
      ],
      [
        "ãĤ·ãĤ¹ãĥĨ",
        "ãĥł"
      ],
      [
        "N",
        "A"
      ],
      [
        "ãģ®",
        "ä¾ĭ"
      ],
      [
        "ï¼",
        "ĭ"
      ],
      [
        "ãģ®æ",
        "¯"
      ],
      [
        "ãĤĴæ",
        "Ķ"
      ],
      [
        "ãģ®è",
        "ĩ"
      ],
      [
        "å±",
        "Ģ"
      ],
      [
        "å¾Į",
        "ãģ®"
      ],
      [
        "è¦ĭ",
        "ãĤīãĤĮãĤĭ"
      ],
      [
        "èĳĹä½ľæ¨©",
        "æ³ķ"
      ],
      [
        "ãģ®èĳĹä½ľ",
        "çī©"
      ],
      [
        "æ·",
        "·"
      ],
      [
        "æ¯į",
        "éŁ³"
      ],
      [
        "éĤ",
        "¦"
      ],
      [
        "ãĥĹãĥŃãĤ°ãĥ©ãĥŁãĥ³ãĤ°",
        "è¨Ģèªŀ"
      ],
      [
        "ãĥĨãĥ¬",
        "ãĥĵ"
      ],
      [
        "ãģ®åĩ",
        "º"
      ],
      [
        "é®",
        "®"
      ],
      [
        "è",
        "Ĺ"
      ],
      [
        "é",
        "§"
      ],
      [
        "ãģ®å",
        "¹"
      ],
      [
        "èª",
        "²"
      ],
      [
        "æľ",
        "ª"
      ],
      [
        "äºº",
        "å·¥"
      ],
      [
        "çŁ",
        "Ń"
      ],
      [
        "ãģĿãĤĮ",
        "ãĤī"
      ],
      [
        "ãģ¹",
        "ãģį"
      ],
      [
        "åĽ³",
        "å½¢"
      ],
      [
        "ãģ®èĳĹä½ľ",
        "æ¨©"
      ],
      [
        "éĿŀ",
        "å¸¸ãģ«"
      ],
      [
        "ãģªãģĮ",
        "ãĤī"
      ],
      [
        "ãģ®æī",
        "ĭ"
      ],
      [
        "éī",
        "Ħ"
      ],
      [
        "éª",
        "¨"
      ],
      [
        "7",
        "0"
      ],
      [
        "ãģ®",
        "éķ·ãģķ"
      ],
      [
        "ãģ¨",
        "ãģ«"
      ],
      [
        "ãĥĪ",
        "ãĥ³"
      ],
      [
        "ãģĿ",
        "ãģĵ"
      ],
      [
        "æī",
        "ĵ"
      ],
      [
        "çĤ¹",
        "ãĤĴ"
      ],
      [
        "æĽ¸",
        "ãģĭ"
      ],
      [
        "ãģ®ä¸Ń",
        "ãģ§"
      ],
      [
        "ç¢º",
        "çİĩ"
      ],
      [
        "ãĥĴ",
        "ãĥĪ"
      ],
      [
        "çĭ¬",
        "ç«ĭ"
      ],
      [
        "çª",
        "ģ"
      ],
      [
        "çĿ",
        "Ģ"
      ],
      [
        "ãģ«åŁº",
        "ãģ¥"
      ],
      [
        "a",
        "d"
      ],
      [
        "ãģ¨",
        "ãģķãĤĮãĤĭ"
      ],
      [
        "ãģ¨",
        "æĢĿ"
      ],
      [
        "ãģ¾",
        "ãģ¨"
      ],
      [
        "å¤",
        "ª"
      ],
      [
        "éŁ³",
        "æ¥½"
      ],
      [
        "ãģĺ",
        "ãģ¦"
      ],
      [
        "æĬ",
        "ķ"
      ],
      [
        "æķĻ",
        "ç§ĳæĽ¸"
      ],
      [
        "æ®",
        "ĸ"
      ],
      [
        "åįĺ",
        "ãģ«"
      ],
      [
        "ãĤ°ãĥ©",
        "ãĥķ"
      ],
      [
        "çµĮæ¸Ī",
        "åŃ¦"
      ],
      [
        "el",
        "l"
      ],
      [
        "æ¨Ļ",
        "æºĸ"
      ],
      [
        "ãģ²ãģ¨",
        "ãģ¤"
      ],
      [
        "æ¡",
        "Ī"
      ],
      [
        "ãģĦ",
        "ãģ£ãģŁ"
      ],
      [
        "åĽ½",
        "éļĽ"
      ],
      [
        "åĭ",
        "Ŀ"
      ],
      [
        "ãĤ«",
        "ãĥ¼"
      ],
      [
        "ãĤĤãģ®",
        "ãĤĴ"
      ],
      [
        "èĳ",
        "Ĺ"
      ],
      [
        "æĪĲ",
        "ç«ĭ"
      ],
      [
        "ç¾",
        "İ"
      ],
      [
        "ç¶",
        "Ń"
      ],
      [
        "è»",
        "Ĭ"
      ],
      [
        "en",
        "d"
      ],
      [
        "å§",
        "Ķ"
      ],
      [
        "6",
        "0"
      ],
      [
        "i",
        "d"
      ],
      [
        "Ġ",
        "D"
      ],
      [
        "ãģ®",
        "ç´°èĥŀ"
      ],
      [
        "ãģĮ",
        "çĶŁ"
      ],
      [
        "äº",
        "Ĩ"
      ],
      [
        "ãĥª",
        "ãĥ³ãĤ°"
      ],
      [
        "å¹´",
        "åº¦"
      ],
      [
        "åĽ½",
        "èªŀ"
      ],
      [
        "äºº",
        "ç§°"
      ],
      [
        "æķ°",
        "ãĤĴ"
      ],
      [
        "å¯",
        "Ł"
      ],
      [
        "è¡Į",
        "çĤº"
      ],
      [
        "ãĥķ",
        "ãĤ§"
      ],
      [
        "æ¨©",
        "åĪ©"
      ],
      [
        "ãĥ¦",
        "ãĥ¼"
      ],
      [
        "å®Ĺ",
        "æķĻ"
      ],
      [
        "G",
        "DP"
      ],
      [
        "u",
        "m"
      ],
      [
        "æ",
        "¹"
      ],
      [
        "è",
        "Ĳ"
      ],
      [
        "ãģ«",
        "ãģªãĤĬ"
      ],
      [
        "ãģ©",
        "ãģ¡"
      ],
      [
        "ãĥ³ãĥ",
        "ŀ"
      ],
      [
        "ä½ĵ",
        "ãģ¯"
      ],
      [
        "æ¸",
        "©"
      ],
      [
        "ãĤ¨",
        "ãĥ«"
      ],
      [
        "åĬĽ",
        "ãĤĴ"
      ],
      [
        "åĨħ",
        "å®¹"
      ],
      [
        "æ¯Ķ",
        "è¼ĥ"
      ],
      [
        "è©ķ",
        "ä¾¡"
      ],
      [
        "l",
        "y"
      ],
      [
        "p",
        "le"
      ],
      [
        "u",
        "t"
      ],
      [
        "ãģ«",
        "ãģªãģ£ãģ¦ãģĦãĤĭ"
      ],
      [
        "ãģŁ",
        "ãģĻ"
      ],
      [
        "ãģĭ",
        "ãģı"
      ],
      [
        "ãģĭ",
        "ãģĳ"
      ],
      [
        "å¤",
        "®"
      ],
      [
        "ãģ®æ",
        "¨"
      ],
      [
        "ãĥ¼ãĥ",
        "ĸ"
      ],
      [
        "äºº",
        "ãģ¯"
      ],
      [
        "ãģªãģ©",
        "ãģ¯"
      ],
      [
        "ãĤ·",
        "ãĥ³ãĤ°"
      ],
      [
        "é¦Ļ",
        "æ¸¯"
      ],
      [
        "ç",
        "°"
      ],
      [
        "ãĥ³",
        "ãĤ¹"
      ],
      [
        "å¹",
        "£"
      ],
      [
        "ãģ¨ãģĦ",
        "ãģĦãģ¾ãģĻ"
      ],
      [
        "å¾",
        "Ĵ"
      ],
      [
        "ãģ®ç",
        "§"
      ],
      [
        "ãģ®ç",
        "Ĳ"
      ],
      [
        "åĩº",
        "ãģĻ"
      ],
      [
        "å¸",
        "ĥ"
      ],
      [
        "ãģļ",
        "ãĤĮ"
      ],
      [
        "åħ¥",
        "è©¦"
      ],
      [
        "è»",
        "¸"
      ],
      [
        "ãĤ¤ãĥ",
        "Į"
      ],
      [
        "ãĢħ",
        "ãģª"
      ],
      [
        "æľĿ",
        "é®®"
      ],
      [
        "ãģĦãģı",
        "ãģ¤ãģĭ"
      ],
      [
        "ãģ®æĻĤ",
        "ä»£"
      ],
      [
        "æ¦Ĥ",
        "å¿µ"
      ],
      [
        "çĮ",
        "®"
      ],
      [
        "ãģ®çĤ",
        "¹"
      ],
      [
        "ãģ®",
        "ãĤ¢"
      ],
      [
        "ãģ®æ",
        "Į"
      ],
      [
        "åĽ",
        "º"
      ],
      [
        "ãģĵãģ¨",
        "ãĤĤãģĤãĤĭ"
      ],
      [
        "ãģ®ç",
        "¨"
      ],
      [
        "åį",
        "°"
      ],
      [
        "å¯¾",
        "çŃĸ"
      ],
      [
        "è²",
        "¿æĺĵ"
      ],
      [
        "å·",
        "¦"
      ],
      [
        "é«ĺ",
        "æł¡"
      ],
      [
        "ãģ»",
        "ãģĨ"
      ],
      [
        "éĢ£",
        "åĲĪ"
      ],
      [
        "åŁº",
        "ç¤İ"
      ],
      [
        "ä¹",
        "Ŀ"
      ],
      [
        "æ¶Ī",
        "æ»ħ"
      ],
      [
        "ãĤĴçĶ¨",
        "ãģĦãģ¦"
      ],
      [
        "è²¡",
        "çĶ£"
      ],
      [
        "é³",
        "¥"
      ],
      [
        "æŁĵ",
        "èī²"
      ],
      [
        ")",
        "ãĢĤ"
      ],
      [
        "ç",
        "ģ"
      ],
      [
        "é",
        "İ"
      ],
      [
        "Ġ",
        "k"
      ],
      [
        "Ġ",
        "v"
      ],
      [
        "ãģ®",
        "ä¸»"
      ],
      [
        "ãģ®æ",
        "³"
      ],
      [
        "å¹´",
        "ãģĭãĤī"
      ],
      [
        "éĢ",
        "ı"
      ],
      [
        "ãģĹãģŁ",
        "ãĤĬ"
      ],
      [
        "ãģ¨ãģĦ",
        "ãģĦ"
      ],
      [
        "è©",
        "³"
      ],
      [
        "å¸",
        "«"
      ],
      [
        "ãĤĤãģ®",
        "ãģ¯"
      ],
      [
        "å¯¾",
        "è±¡"
      ],
      [
        "è¿",
        "½"
      ],
      [
        "ä¸»",
        "ãģ«"
      ],
      [
        "ãĤµ",
        "ãĤ¤ãĥĪ"
      ],
      [
        "ãĤº",
        "ãĥł"
      ],
      [
        "çŁ¥",
        "èĥ½"
      ],
      [
        "æŀ",
        "Ĳ"
      ],
      [
        "èªŃ",
        "ãģ¿"
      ],
      [
        "æ±ŁæĪ¸",
        "æĻĤä»£"
      ],
      [
        "ãģ®åŁ",
        "º"
      ],
      [
        "èĲ",
        "½"
      ],
      [
        "ãģ®çĲ",
        "Ĩ"
      ],
      [
        "ãĤ",
        "¥"
      ],
      [
        "ãĤĴ",
        "ãģ¨"
      ],
      [
        "ãģķ",
        "ãģ¾"
      ],
      [
        "æĹ",
        "§"
      ],
      [
        "å¾",
        "®"
      ],
      [
        "ä½ĵ",
        "ãĤĴ"
      ],
      [
        "éŁ³",
        "ç¬¦"
      ],
      [
        "æŃ",
        "Į"
      ],
      [
        "ãĥĸ",
        "ãĥ«"
      ],
      [
        "ãĥĥãĤ¯",
        "ãĤ¹"
      ],
      [
        "ãĤ®",
        "ãĥ¼"
      ],
      [
        "ãĤ¢ãĥ«",
        "ãĥĲ"
      ],
      [
        "ãģĮãģĤãĤĬ",
        "ãģ¾ãģĻ"
      ],
      [
        "æ¯Ķ",
        "ä¾ĭ"
      ],
      [
        "ãģ®å¤§",
        "ãģį"
      ],
      [
        "ãģ®åį",
        "ĺ"
      ],
      [
        "åĮº",
        "åĪ¥"
      ],
      [
        "èī¯",
        "ãģĦ"
      ],
      [
        "C",
        "H"
      ],
      [
        "æ",
        "½"
      ],
      [
        "ãģĬ",
        "ãģı"
      ],
      [
        "ãģªãģ©",
        "ãģ§"
      ],
      [
        "ãģ®è",
        "µ"
      ],
      [
        "å¯",
        "Ĩ"
      ],
      [
        "ãĥ¬",
        "ãĤ¤"
      ],
      [
        "æ¸",
        "¡"
      ],
      [
        "ãģĵãģ¨ãģĮ",
        "ãģĤãĤĭ"
      ],
      [
        "ä»¥",
        "åīį"
      ],
      [
        "æİ",
        "¨"
      ],
      [
        "åħ¬",
        "è¡¨"
      ],
      [
        "ãģĹãģ°",
        "ãģĹãģ°"
      ],
      [
        "ãģ®èĩ",
        "ª"
      ],
      [
        "ç",
        "į"
      ],
      [
        "Ŀ",
        "éĽ¢"
      ],
      [
        "ãģ¾",
        "ãģ£ãģŁ"
      ],
      [
        "çĶ",
        "·"
      ],
      [
        "ãĥ»",
        "ãĥ»"
      ],
      [
        "åĪĨ",
        "è£Ĥ"
      ],
      [
        "ãĤĴæ",
        "Ľ¸"
      ],
      [
        "çĶŁ",
        "æ´»"
      ],
      [
        "å°",
        "Ĥ"
      ],
      [
        "å¿",
        "Ĺ"
      ],
      [
        "ãģĽ",
        "ãģĦ"
      ],
      [
        "ãģķãĤĮãģ¦",
        "ãģĬãĤĬ"
      ],
      [
        "ãģ®åħ",
        "¬"
      ],
      [
        "æĬĢ",
        "é¤¨"
      ],
      [
        "ãĤĵãģ§",
        "ãģĦãĤĭ"
      ],
      [
        "æ¼¢",
        "åŃĹ"
      ],
      [
        "ãĤĨ",
        "ãĤĭ"
      ],
      [
        "ä¿®",
        "é£¾"
      ],
      [
        "c",
        "om"
      ],
      [
        "å",
        "©"
      ],
      [
        "å",
        "´"
      ],
      [
        "æ",
        "ĵ"
      ],
      [
        "Ĩ",
        "ãĤ£"
      ],
      [
        "ĳ",
        "åķı"
      ],
      [
        "ãģ«",
        "ãģªãģ£ãģ¦"
      ],
      [
        "ãĥ¼",
        "ãĤ¿ãĥ¼"
      ],
      [
        "ãĤ¯",
        "ãĥĪ"
      ],
      [
        "ãĤ¯",
        "è³ª"
      ],
      [
        "ãĤ¿",
        "ãĥ³ãĥĳ"
      ],
      [
        "ä»£",
        "è¡¨"
      ],
      [
        "in",
        "e"
      ],
      [
        "ãĤ¨",
        "ãĥįãĥ«"
      ],
      [
        "è£",
        "ģ"
      ],
      [
        "ä¹",
        "±"
      ],
      [
        "åĸ",
        "¶"
      ],
      [
        "æĻ®",
        "éĢļ"
      ],
      [
        "è²¨",
        "å¹£"
      ],
      [
        "åħ±åĴĮ",
        "åĽ½"
      ],
      [
        "åĿ",
        "ĩ"
      ],
      [
        "ãĤ¿ãĥ³ãĥĳ",
        "ãĤ¯è³ª"
      ],
      [
        "2",
        "5"
      ],
      [
        "Ġ",
        "re"
      ],
      [
        "ãĤĴ",
        "ä¸Ńå¿ĥ"
      ],
      [
        "ãģ®æ",
        "ł"
      ],
      [
        "åĽ",
        "ł"
      ],
      [
        "æķ",
        "£"
      ],
      [
        "ãĤ¿",
        "ãĥŁ"
      ],
      [
        "æĸ¹",
        "ãģĮ"
      ],
      [
        "åī",
        "¯"
      ],
      [
        "éĥ¨",
        "ãģ®"
      ],
      [
        "åº¦",
        "ãģĮ"
      ],
      [
        "æĶ¿",
        "çŃĸ"
      ],
      [
        "ç¬¬",
        "äºĮ"
      ],
      [
        "å¹³",
        "è¡Į"
      ],
      [
        "ç¯",
        "ī"
      ],
      [
        "ãĤ¨ãĥ³",
        "ãĤ¸ãĥ³"
      ],
      [
        "ãĤ«ãĥ¼ãĥļãĥ³ãĤ¿ãĥ¼",
        "ãĤº"
      ],
      [
        "*",
        "*"
      ],
      [
        "a",
        "p"
      ],
      [
        "i",
        "k"
      ],
      [
        "Ġ",
        "ãĢĮ"
      ],
      [
        "ãģ§",
        "ãģĹãĤĩãģĨ"
      ],
      [
        "ãĥ³",
        "ãģ¯"
      ],
      [
        "ãģ£",
        "ãģ"
      ],
      [
        "ãģ¾",
        "ãģĹãĤĩãģĨ"
      ],
      [
        "ï¼Ī",
        "ãĢĮ"
      ],
      [
        "ãĢį",
        "ãĢģ"
      ],
      [
        "ãģı",
        "ãģł"
      ],
      [
        "ãģı",
        "ãĤīãģĦ"
      ],
      [
        "åı",
        "°"
      ],
      [
        "ãģ®æ",
        "¥"
      ],
      [
        "ãĥ¼ãĥ",
        "Ħ"
      ],
      [
        "ãĤ°",
        "ãĥ«"
      ],
      [
        "æł",
        "¹"
      ],
      [
        "æ¬",
        "§"
      ],
      [
        "æľĢ",
        "å¤§"
      ],
      [
        "å¥",
        "®"
      ],
      [
        "æĭ",
        "ł"
      ],
      [
        "è¦ı",
        "å®ļ"
      ],
      [
        "èı",
        "Į"
      ],
      [
        "æ³¨",
        "æĦı"
      ],
      [
        "éĬ",
        "Ģ"
      ],
      [
        "ãģ®æĢ",
        "§"
      ],
      [
        "åĩ¦",
        "çĲĨ"
      ],
      [
        "I",
        "P"
      ],
      [
        "Ġ",
        "r"
      ],
      [
        "Ġ",
        "x"
      ],
      [
        "Ġ",
        "{"
      ],
      [
        "ãģĦ",
        "ãģļãĤĮ"
      ],
      [
        "ãģĭ",
        "ãģ«"
      ],
      [
        "ãģĭ",
        "ãĤĵ"
      ],
      [
        "åĽ½",
        "æĬĢé¤¨"
      ],
      [
        "ä¼",
        "´"
      ],
      [
        "çĻ",
        "¾"
      ],
      [
        "æĦ",
        "Ľ"
      ],
      [
        "ãĤ¸",
        "ãĤ§"
      ],
      [
        "æĽ",
        "¿"
      ],
      [
        "ãģĵãģ¨ãģĮ",
        "å¤ļãģĦ"
      ],
      [
        "å®Ł",
        "è¡Į"
      ],
      [
        "éĢ£",
        "éĤ¦"
      ],
      [
        "æĶ¿",
        "æ¨©"
      ],
      [
        "ãĥĵ",
        "ãĤ¢"
      ],
      [
        "ãģªãĤī",
        "ãģ°"
      ],
      [
        "è¶",
        "ħ"
      ],
      [
        "åı¯èĥ½",
        "æĢ§"
      ],
      [
        "èŃ°",
        "è«ĸ"
      ],
      [
        "ãĥ´",
        "ãĤ£"
      ],
      [
        "éģķ",
        "ãģĦ"
      ],
      [
        "¤",
        "ľ"
      ],
      [
        "æ",
        "¢"
      ],
      [
        "è",
        "ĸ"
      ],
      [
        "Ġ",
        "ï¼Ŀ"
      ],
      [
        "ãĤ",
        "©"
      ],
      [
        "ãģ®",
        "ãģŁãĤģãģ«"
      ],
      [
        "ãģĮ",
        "ãģĤãģ£ãģŁ"
      ],
      [
        "ãģĻ",
        "ãĤĮãģ°"
      ],
      [
        "ãģ®å",
        "¾Į"
      ],
      [
        "èªŀ",
        "å½Ļ"
      ],
      [
        "çµ",
        "¶"
      ],
      [
        "ãĥ¼ãĥ",
        "ĩ"
      ],
      [
        "åĭ",
        "¢"
      ],
      [
        "ä¾",
        "µ"
      ],
      [
        "ãĤ«",
        "ãĥ«"
      ],
      [
        "ãĥĹ",
        "ãĥª"
      ],
      [
        "åı¤",
        "ä»£"
      ],
      [
        "ãģ®ä¸Ģ",
        "éĥ¨"
      ],
      [
        "è¥¿",
        "æ´ĭ"
      ],
      [
        "ç¸",
        "®"
      ],
      [
        "çĪ",
        "¶"
      ],
      [
        "å§Ķ",
        "åĵ¡"
      ],
      [
        "c",
        "m"
      ],
      [
        "c",
        "on"
      ],
      [
        "¡",
        "çĶ¨"
      ],
      [
        "Ġ",
        "H"
      ],
      [
        "ãģĦ",
        "ãģ¡"
      ],
      [
        "ï¼",
        "ŀ"
      ],
      [
        "ãģĤ",
        "ãĤī"
      ],
      [
        "åħ",
        "µ"
      ],
      [
        "éģ",
        "ł"
      ],
      [
        "ãģ®ç",
        "Ĭ¶"
      ],
      [
        "19",
        "4"
      ],
      [
        "çĻº",
        "è¡¨"
      ],
      [
        "ãģĻãĤĭãģĵãģ¨",
        "ãģ¯"
      ],
      [
        "æĶ¾",
        "éĢģ"
      ],
      [
        "ãģ®è§",
        "£"
      ],
      [
        "è",
        "¬"
      ],
      [
        "Ġ",
        "_"
      ],
      [
        "ãģ®",
        "ãĤĤ"
      ],
      [
        "èª",
        "¤"
      ],
      [
        "åĪ",
        "Ĭ"
      ],
      [
        "ãĤĪ",
        "ãģ£ãģ¦"
      ],
      [
        "äºº",
        "ãĢħ"
      ],
      [
        "ãĤ·",
        "ãĥĬ"
      ],
      [
        "åĬ",
        "´"
      ],
      [
        "ãĤ«",
        "ãĥª"
      ],
      [
        "æ°",
        "ı"
      ],
      [
        "ãģĿãģ®",
        "ä»ĸ"
      ],
      [
        "ä½¿",
        "ãĤıãĤĮãĤĭ"
      ],
      [
        "è£",
        "ħ"
      ],
      [
        "è¾",
        "ŀ"
      ],
      [
        "çľ",
        "ģ"
      ],
      [
        "ä¾¡",
        "åĢ¤"
      ],
      [
        "è¿ĳ",
        "ä»£"
      ],
      [
        "ç¯",
        "ĦåĽ²"
      ],
      [
        "æ·",
        "±"
      ],
      [
        "æĴ",
        "®"
      ],
      [
        "ãģĸ",
        "ãģ¾"
      ],
      [
        "eg",
        "a"
      ],
      [
        "ãĤ¤ãĥ³ãĥ",
        "ķ"
      ],
      [
        "ãĤĴæ±",
        "Ĥ"
      ],
      [
        "ãĤĴç¤º",
        "ãģĻ"
      ],
      [
        "äººå·¥",
        "çŁ¥èĥ½"
      ],
      [
        "ç°",
        "¡"
      ],
      [
        "ãĤ¢ãĥ«ãĥĲ",
        "ãĥł"
      ],
      [
        "h",
        "e"
      ],
      [
        "s",
        "i"
      ],
      [
        "u",
        "s"
      ],
      [
        "¢",
        "¨"
      ],
      [
        "é",
        "¢¨"
      ],
      [
        "ãģ®",
        "éĸ¢ä¿Ĥ"
      ],
      [
        "ãĤĴ",
        "çµĮ"
      ],
      [
        "çµ",
        "µ"
      ],
      [
        "ãģªãģ©",
        "ãģĮãģĤãĤĭ"
      ],
      [
        "ä¸Ń",
        "å¤®"
      ],
      [
        "çī¹",
        "å®ļ"
      ],
      [
        "ãģ»",
        "ãģ¼"
      ],
      [
        "åįĺ",
        "èªŀ"
      ],
      [
        "çĶ£",
        "æ¥Ń"
      ],
      [
        "éĽĨ",
        "åĽ£"
      ],
      [
        "om",
        "ega"
      ],
      [
        "åıį",
        "å¿ľ"
      ],
      [
        "é¤",
        "Ĭ"
      ],
      [
        "éĽ£",
        "ãģĹãģĦ"
      ],
      [
        "ãĤĴåıĹ",
        "ãģĳ"
      ],
      [
        "ãĤ¤ãĤ¹ãĥ©",
        "ãĥł"
      ],
      [
        "ãģķãģ¾",
        "ãģĸãģ¾"
      ],
      [
        "ãģıãģł",
        "ãģķãģĦ"
      ],
      [
        "o",
        "g"
      ],
      [
        "ï¼",
        "Į"
      ],
      [
        "å®",
        "¤"
      ],
      [
        "ãĤ¢",
        "ãĤ¤ãĥĮ"
      ],
      [
        "ãģį",
        "ãģ¾ãģĻ"
      ],
      [
        "éĢ",
        "Ģ"
      ],
      [
        "æķ",
        "¬"
      ],
      [
        "æĿ",
        "¿"
      ],
      [
        "ãĥ³ãĥ",
        "Ħ"
      ],
      [
        "èĩª",
        "èº«"
      ],
      [
        "é«ĺ",
        "çŃī"
      ],
      [
        "æĿ¡",
        "ä»¶"
      ],
      [
        "èĬ",
        "½"
      ],
      [
        "ãģ®å¼",
        "ı"
      ],
      [
        "æģ",
        "Ĳ"
      ],
      [
        "çĨ",
        "±"
      ],
      [
        "ãģ®æĹ¥",
        "æľ¬"
      ],
      [
        "â",
        "ĨĴ"
      ],
      [
        "ãģĭ",
        "ãģĦ"
      ],
      [
        "è¡",
        "Ģ"
      ],
      [
        "ãģ§ãģĤãĤĭ",
        "ãģ¨"
      ],
      [
        "ãĤ¯",
        "ãĥª"
      ],
      [
        "ãĤĦ",
        "ãĤĦ"
      ],
      [
        "ãģĭãĤī",
        "æĿ¥"
      ],
      [
        "æĸĩ",
        "èĦĪ"
      ],
      [
        "åº",
        "ı"
      ],
      [
        "ãģ¨ãģĹãģ¦",
        "ãģĦãĤĭ"
      ],
      [
        "ä¾",
        "Ŀ"
      ],
      [
        "å®Ł",
        "æĸ½"
      ],
      [
        "éĽ»",
        "æ°Ĺ"
      ],
      [
        "å£",
        "Ĭ"
      ],
      [
        "es",
        "t"
      ],
      [
        "å¤ļãģı",
        "ãģ®"
      ],
      [
        "ãģ«éĸ¢",
        "ãģĹãģ¦"
      ],
      [
        "æ±º",
        "å®ļ"
      ],
      [
        "ãģ®çŁ",
        "¥"
      ],
      [
        "ãģ«ãģ¨",
        "ãģ£ãģ¦"
      ],
      [
        "çĴ°",
        "å¢ĥ"
      ],
      [
        "ãģ®ç¨",
        "®"
      ],
      [
        "ãģ®å¤§ãģį",
        "ãģķ"
      ],
      [
        "ãĤ¨ãĥįãĥ«",
        "ãĤ®ãĥ¼"
      ],
      [
        "S",
        "ch"
      ],
      [
        "ãģ®",
        "ãģ«"
      ],
      [
        "ãģ®",
        "ãĤĤãģ®"
      ],
      [
        "ãģ®",
        "ä½įç½®"
      ],
      [
        "ãĤĴ",
        "è¡¨"
      ],
      [
        "ãĤĴ",
        "å¾Ĺ"
      ],
      [
        "ãģ®å",
        "·"
      ],
      [
        "ãģĻãĤĭ",
        "ãģŁãĤģãģ«"
      ],
      [
        "å¾",
        "©"
      ],
      [
        "ãĤĴæ",
        "ĭ"
      ],
      [
        "ä¸Ģ",
        "å®ļ"
      ],
      [
        "æķ°",
        "ãģĮ"
      ],
      [
        "ãĥķ",
        "ãĥĪ"
      ],
      [
        "ãĤ¸",
        "ãĥ¥"
      ],
      [
        "æ²",
        "¹"
      ],
      [
        "æĿ±",
        "åĮĹ"
      ],
      [
        "ãĤ¤ãĥ",
        "¤"
      ],
      [
        "is",
        "t"
      ],
      [
        "ãĥĻãĥ«",
        "ãĥĮ"
      ],
      [
        "æ¼Ķ",
        "å¥ı"
      ],
      [
        "ãģĹãģŁãģĮ",
        "ãģ£ãģ¦"
      ],
      [
        "ç·¨",
        "éĽĨ"
      ],
      [
        "ãĤĴåĲ«",
        "ãĤĢ"
      ],
      [
        "ãģ®æ§ĭ",
        "éĢł"
      ],
      [
        "çĻ»",
        "åł´"
      ],
      [
        "ãģķãģ¾ãģĸãģ¾",
        "ãģª"
      ],
      [
        "Ġ",
        "G"
      ],
      [
        "ãģ®",
        "ä»ķ"
      ],
      [
        "ãĤĴ",
        "ä½¿çĶ¨"
      ],
      [
        "åı",
        "¥"
      ],
      [
        "ãĥ©",
        "ãĥ³ãĥĢ"
      ],
      [
        "åĲĪ",
        "æĪĲ"
      ],
      [
        "çĶŁ",
        "æ®ĸ"
      ],
      [
        "åĮĸ",
        "ãģĹãģŁ"
      ],
      [
        "ãĥ¬",
        "ãĤ¹"
      ],
      [
        "è§",
        "¦"
      ],
      [
        "å¸",
        "¯"
      ],
      [
        "19",
        "5"
      ],
      [
        "çĤ",
        "Ń"
      ],
      [
        "er",
        "e"
      ],
      [
        "äºĭ",
        "å®Ł"
      ],
      [
        "åħ¨",
        "ä½ĵ"
      ],
      [
        "ãģ¸",
        "ãģ®"
      ],
      [
        "æ§ĺ",
        "ãĢħãģª"
      ],
      [
        "ãģ®æķ",
        "Ļ"
      ],
      [
        "èªį",
        "èŃĺ"
      ],
      [
        "ãĤĦãģĻ",
        "ãģĦ"
      ],
      [
        "æĳ",
        "ĺ"
      ],
      [
        "D",
        "NA"
      ],
      [
        "²",
        "å¾Ĺ"
      ],
      [
        "Ġ",
        "ãĢģ"
      ],
      [
        "ãģĮ",
        "åŃĺåľ¨ãģĻãĤĭ"
      ],
      [
        "ãģ®å",
        "ĳ"
      ],
      [
        "ãĤĬ",
        "ç«ĭ"
      ],
      [
        "æľ",
        "Ľ"
      ],
      [
        "åĲ",
        "¸"
      ],
      [
        "ãĤ¹",
        "ãĥļ"
      ],
      [
        "äºº",
        "ãģ®"
      ],
      [
        "ãģªãģ©",
        "ãģ«"
      ],
      [
        "ãĥĥ",
        "ãĥī"
      ],
      [
        "ãģ®ç",
        "«"
      ],
      [
        "ãĤ·",
        "ãĥ¼"
      ],
      [
        "è¡Į",
        "ãĤıãĤĮãĤĭ"
      ],
      [
        "èĩ",
        "´"
      ],
      [
        "ãĤĤãģ®",
        "ãģ®"
      ],
      [
        "ãĤª",
        "ãĤ¹"
      ],
      [
        "çı¾",
        "è±¡"
      ],
      [
        "æĪĲ",
        "éķ·"
      ],
      [
        "æĢ§",
        "è³ª"
      ],
      [
        "æľĪ",
        "ãģ«"
      ],
      [
        "æĺİ",
        "æ²»"
      ],
      [
        "ãĤµ",
        "ãĤ¤"
      ],
      [
        "çŃī",
        "åĪĨ"
      ],
      [
        "em",
        "e"
      ],
      [
        "é»",
        "Ĵ"
      ],
      [
        "ãĥĻãĥ«ãĥĮ",
        "æĿ¡ç´Ħ"
      ],
      [
        "i",
        "ch"
      ],
      [
        "ŀ",
        "į"
[...]
